{
  "version": "1.0",
  "truncation": null,
  "padding": null,
  "added_tokens": [
    {
      "id": 0,
      "content": "[UNK]",
      "single_word": false,
      "lstrip": false,
      "rstrip": false,
      "normalized": false,
      "special": true
    },
    {
      "id": 1,
      "content": "[CLS]",
      "single_word": false,
      "lstrip": false,
      "rstrip": false,
      "normalized": false,
      "special": true
    },
    {
      "id": 2,
      "content": "[SEP]",
      "single_word": false,
      "lstrip": false,
      "rstrip": false,
      "normalized": false,
      "special": true
    },
    {
      "id": 3,
      "content": "[PAD]",
      "single_word": false,
      "lstrip": false,
      "rstrip": false,
      "normalized": false,
      "special": true
    },
    {
      "id": 4,
      "content": "[MASK]",
      "single_word": false,
      "lstrip": false,
      "rstrip": false,
      "normalized": false,
      "special": true
    }
  ],
  "normalizer": null,
  "pre_tokenizer": {
    "type": "Whitespace"
  },
  "post_processor": null,
  "decoder": null,
  "model": {
    "type": "BPE",
    "dropout": null,
    "unk_token": null,
    "continuing_subword_prefix": null,
    "end_of_word_suffix": null,
    "fuse_unk": false,
    "byte_fallback": false,
    "ignore_merges": false,
    "vocab": {
      "[UNK]": 0,
      "[CLS]": 1,
      "[SEP]": 2,
      "[PAD]": 3,
      "[MASK]": 4,
      "!": 5,
      "\"": 6,
      "#": 7,
      "$": 8,
      "%": 9,
      "&": 10,
      "'": 11,
      "(": 12,
      ")": 13,
      "*": 14,
      "+": 15,
      ",": 16,
      "-": 17,
      ".": 18,
      "/": 19,
      "0": 20,
      "1": 21,
      "2": 22,
      "3": 23,
      "4": 24,
      "5": 25,
      "6": 26,
      "7": 27,
      "8": 28,
      "9": 29,
      ":": 30,
      ";": 31,
      "<": 32,
      "=": 33,
      ">": 34,
      "?": 35,
      "@": 36,
      "A": 37,
      "B": 38,
      "C": 39,
      "D": 40,
      "E": 41,
      "F": 42,
      "G": 43,
      "H": 44,
      "I": 45,
      "J": 46,
      "K": 47,
      "L": 48,
      "M": 49,
      "N": 50,
      "O": 51,
      "P": 52,
      "Q": 53,
      "R": 54,
      "S": 55,
      "T": 56,
      "U": 57,
      "V": 58,
      "W": 59,
      "X": 60,
      "Y": 61,
      "Z": 62,
      "[": 63,
      "]": 64,
      "^": 65,
      "_": 66,
      "`": 67,
      "a": 68,
      "b": 69,
      "c": 70,
      "d": 71,
      "e": 72,
      "f": 73,
      "g": 74,
      "h": 75,
      "i": 76,
      "j": 77,
      "k": 78,
      "l": 79,
      "m": 80,
      "n": 81,
      "o": 82,
      "p": 83,
      "q": 84,
      "r": 85,
      "s": 86,
      "t": 87,
      "u": 88,
      "v": 89,
      "w": 90,
      "x": 91,
      "y": 92,
      "z": 93,
      "{": 94,
      "|": 95,
      "}": 96,
      "~": 97,
      "¡": 98,
      "¢": 99,
      "£": 100,
      "¥": 101,
      "§": 102,
      "°": 103,
      "±": 104,
      "²": 105,
      "´": 106,
      "µ": 107,
      "¶": 108,
      "·": 109,
      "¼": 110,
      "½": 111,
      "¿": 112,
      "Á": 113,
      "Â": 114,
      "Ä": 115,
      "Å": 116,
      "Æ": 117,
      "Ç": 118,
      "É": 119,
      "Í": 120,
      "Î": 121,
      "Ó": 122,
      "Ô": 123,
      "Õ": 124,
      "Ö": 125,
      "×": 126,
      "Ø": 127,
      "Ú": 128,
      "Ü": 129,
      "ß": 130,
      "à": 131,
      "á": 132,
      "â": 133,
      "ã": 134,
      "ä": 135,
      "å": 136,
      "æ": 137,
      "ç": 138,
      "è": 139,
      "é": 140,
      "ê": 141,
      "ë": 142,
      "ì": 143,
      "í": 144,
      "î": 145,
      "ï": 146,
      "ð": 147,
      "ñ": 148,
      "ò": 149,
      "ó": 150,
      "ô": 151,
      "õ": 152,
      "ö": 153,
      "÷": 154,
      "ø": 155,
      "ù": 156,
      "ú": 157,
      "û": 158,
      "ü": 159,
      "ý": 160,
      "þ": 161,
      "ÿ": 162,
      "Ā": 163,
      "ā": 164,
      "ă": 165,
      "ą": 166,
      "Ć": 167,
      "ć": 168,
      "ċ": 169,
      "Č": 170,
      "č": 171,
      "Ď": 172,
      "ď": 173,
      "Đ": 174,
      "đ": 175,
      "Ē": 176,
      "ē": 177,
      "ė": 178,
      "ę": 179,
      "ě": 180,
      "ĝ": 181,
      "ğ": 182,
      "Ġ": 183,
      "ġ": 184,
      "Ħ": 185,
      "ħ": 186,
      "ī": 187,
      "ĭ": 188,
      "İ": 189,
      "ı": 190,
      "ļ": 191,
      "Ł": 192,
      "ł": 193,
      "ń": 194,
      "ņ": 195,
      "ň": 196,
      "ŋ": 197,
      "Ō": 198,
      "ō": 199,
      "ŏ": 200,
      "ő": 201,
      "Œ": 202,
      "œ": 203,
      "ř": 204,
      "Ś": 205,
      "ś": 206,
      "Ş": 207,
      "ş": 208,
      "Š": 209,
      "š": 210,
      "ţ": 211,
      "ť": 212,
      "ũ": 213,
      "ū": 214,
      "ŭ": 215,
      "ů": 216,
      "ŵ": 217,
      "ź": 218,
      "Ż": 219,
      "ż": 220,
      "Ž": 221,
      "ž": 222,
      "ơ": 223,
      "ư": 224,
      "ƿ": 225,
      "ǀ": 226,
      "ǁ": 227,
      "ǂ": 228,
      "ǃ": 229,
      "ǎ": 230,
      "ǐ": 231,
      "ǒ": 232,
      "ǔ": 233,
      "ǚ": 234,
      "ǜ": 235,
      "ǥ": 236,
      "ǵ": 237,
      "ș": 238,
      "ț": 239,
      "ɐ": 240,
      "ɑ": 241,
      "ɒ": 242,
      "ɔ": 243,
      "ɕ": 244,
      "ɖ": 245,
      "ə": 246,
      "ɛ": 247,
      "ɜ": 248,
      "ɡ": 249,
      "ɢ": 250,
      "ɣ": 251,
      "ɤ": 252,
      "ɥ": 253,
      "ɦ": 254,
      "ɨ": 255,
      "ɪ": 256,
      "ɫ": 257,
      "ɭ": 258,
      "ɯ": 259,
      "ɳ": 260,
      "ɵ": 261,
      "ɸ": 262,
      "ɹ": 263,
      "ɾ": 264,
      "ʀ": 265,
      "ʁ": 266,
      "ʂ": 267,
      "ʃ": 268,
      "ʈ": 269,
      "ʊ": 270,
      "ʌ": 271,
      "ʎ": 272,
      "ʏ": 273,
      "ʒ": 274,
      "ʔ": 275,
      "ʕ": 276,
      "ʘ": 277,
      "ʰ": 278,
      "ʱ": 279,
      "ʲ": 280,
      "ʷ": 281,
      "ʻ": 282,
      "ʼ": 283,
      "ʾ": 284,
      "ʿ": 285,
      "ˀ": 286,
      "ˇ": 287,
      "ˈ": 288,
      "ˌ": 289,
      "ː": 290,
      "ˑ": 291,
      "˚": 292,
      "ˤ": 293,
      "˥": 294,
      "˧": 295,
      "˨": 296,
      "˩": 297,
      "˭": 298,
      "̀": 299,
      "́": 300,
      "̃": 301,
      "̄": 302,
      "̌": 303,
      "̍": 304,
      "̞": 305,
      "̠": 306,
      "̤": 307,
      "̥": 308,
      "̧": 309,
      "̩": 310,
      "̪": 311,
      "̯": 312,
      "͡": 313,
      "Α": 314,
      "Β": 315,
      "Γ": 316,
      "Δ": 317,
      "Ε": 318,
      "Η": 319,
      "Θ": 320,
      "Ι": 321,
      "Κ": 322,
      "Λ": 323,
      "Μ": 324,
      "Ν": 325,
      "Π": 326,
      "Ρ": 327,
      "Σ": 328,
      "Τ": 329,
      "Υ": 330,
      "Φ": 331,
      "Χ": 332,
      "Ψ": 333,
      "ά": 334,
      "έ": 335,
      "ή": 336,
      "ί": 337,
      "α": 338,
      "β": 339,
      "γ": 340,
      "δ": 341,
      "ε": 342,
      "ζ": 343,
      "η": 344,
      "θ": 345,
      "ι": 346,
      "κ": 347,
      "λ": 348,
      "μ": 349,
      "ν": 350,
      "ξ": 351,
      "ο": 352,
      "π": 353,
      "ρ": 354,
      "ς": 355,
      "σ": 356,
      "τ": 357,
      "υ": 358,
      "φ": 359,
      "χ": 360,
      "ψ": 361,
      "ω": 362,
      "ό": 363,
      "ύ": 364,
      "ώ": 365,
      "Є": 366,
      "Ј": 367,
      "А": 368,
      "Б": 369,
      "В": 370,
      "Г": 371,
      "Д": 372,
      "Е": 373,
      "З": 374,
      "И": 375,
      "К": 376,
      "Л": 377,
      "М": 378,
      "Н": 379,
      "О": 380,
      "П": 381,
      "Р": 382,
      "С": 383,
      "Т": 384,
      "Ф": 385,
      "Х": 386,
      "а": 387,
      "б": 388,
      "в": 389,
      "г": 390,
      "д": 391,
      "е": 392,
      "ж": 393,
      "з": 394,
      "и": 395,
      "й": 396,
      "к": 397,
      "л": 398,
      "м": 399,
      "н": 400,
      "о": 401,
      "п": 402,
      "р": 403,
      "с": 404,
      "т": 405,
      "у": 406,
      "ф": 407,
      "х": 408,
      "ц": 409,
      "ч": 410,
      "ш": 411,
      "щ": 412,
      "ъ": 413,
      "ы": 414,
      "ь": 415,
      "э": 416,
      "ю": 417,
      "я": 418,
      "ё": 419,
      "і": 420,
      "ї": 421,
      "ў": 422,
      "ѣ": 423,
      "ѧ": 424,
      "ѩ": 425,
      "ѫ": 426,
      "ѭ": 427,
      "ѳ": 428,
      "ѵ": 429,
      "ҳ": 430,
      "Ҷ": 431,
      "ҷ": 432,
      "Լ": 433,
      "Հ": 434,
      "Պ": 435,
      "ա": 436,
      "բ": 437,
      "ի": 438,
      "կ": 439,
      "հ": 440,
      "յ": 441,
      "ն": 442,
      "ս": 443,
      "տ": 444,
      "ր": 445,
      "ց": 446,
      "ְ": 447,
      "ִ": 448,
      "ֵ": 449,
      "ַ": 450,
      "ָ": 451,
      "ֹ": 452,
      "ּ": 453,
      "ֿ": 454,
      "ׁ": 455,
      "ׂ": 456,
      "א": 457,
      "ב": 458,
      "ג": 459,
      "ד": 460,
      "ה": 461,
      "ו": 462,
      "ז": 463,
      "ח": 464,
      "ט": 465,
      "י": 466,
      "ך": 467,
      "ל": 468,
      "ם": 469,
      "מ": 470,
      "ן": 471,
      "נ": 472,
      "ס": 473,
      "ע": 474,
      "פ": 475,
      "ץ": 476,
      "צ": 477,
      "ק": 478,
      "ר": 479,
      "ש": 480,
      "ת": 481,
      "ײ": 482,
      "ء": 483,
      "أ": 484,
      "إ": 485,
      "ئ": 486,
      "ا": 487,
      "ب": 488,
      "ة": 489,
      "ت": 490,
      "ث": 491,
      "ج": 492,
      "ح": 493,
      "خ": 494,
      "د": 495,
      "ذ": 496,
      "ر": 497,
      "س": 498,
      "ش": 499,
      "ص": 500,
      "ض": 501,
      "ظ": 502,
      "ع": 503,
      "ـ": 504,
      "ف": 505,
      "ق": 506,
      "ك": 507,
      "ل": 508,
      "م": 509,
      "ن": 510,
      "ه": 511,
      "و": 512,
      "ى": 513,
      "ي": 514,
      "ٍ": 515,
      "َ": 516,
      "ُ": 517,
      "ِ": 518,
      "ّ": 519,
      "ْ": 520,
      "ٔ": 521,
      "پ": 522,
      "گ": 523,
      "ی": 524,
      "ܐ": 525,
      "ܝ": 526,
      "ܢ": 527,
      "ܩ": 528,
      "ܪ": 529,
      "ः": 530,
      "आ": 531,
      "ई": 532,
      "क": 533,
      "ख": 534,
      "ग": 535,
      "ठ": 536,
      "ड": 537,
      "ण": 538,
      "त": 539,
      "द": 540,
      "ध": 541,
      "न": 542,
      "प": 543,
      "ब": 544,
      "म": 545,
      "य": 546,
      "र": 547,
      "ष": 548,
      "स": 549,
      "ा": 550,
      "ि": 551,
      "ु": 552,
      "ॊ": 553,
      "्": 554,
      "জ": 555,
      "প": 556,
      "ম": 557,
      "য": 558,
      "র": 559,
      "ল": 560,
      "স": 561,
      "া": 562,
      "্": 563,
      "ಕ": 564,
      "ಚ": 565,
      "ಜ": 566,
      "ಪ": 567,
      "ಮ": 568,
      "ಯ": 569,
      "ರ": 570,
      "ಲ": 571,
      "ಶ": 572,
      "ಸ": 573,
      "ಾ": 574,
      "ಿ": 575,
      "ು": 576,
      "್": 577,
      "ข": 578,
      "ง": 579,
      "ด": 580,
      "น": 581,
      "ม": 582,
      "ย": 583,
      "ร": 584,
      "ล": 585,
      "ว": 586,
      "ศ": 587,
      "ส": 588,
      "อ": 589,
      "า": 590,
      "ิ": 591,
      "ี": 592,
      "เ": 593,
      "แ": 594,
      "โ": 595,
      "ใ": 596,
      "ไ": 597,
      "་": 598,
      "ད": 599,
      "བ": 600,
      "ོ": 601,
      "န": 602,
      "သ": 603,
      "ာ": 604,
      "း": 605,
      "ሂ": 606,
      "ላ": 607,
      "ሪ": 608,
      "ሻ": 609,
      "ቡ": 610,
      "ታ": 611,
      "ን": 612,
      "Ꭰ": 613,
      "Ꭳ": 614,
      "Ꭶ": 615,
      "Ꭸ": 616,
      "Ꭹ": 617,
      "Ꮀ": 618,
      "Ꮃ": 619,
      "Ꮉ": 620,
      "Ꮎ": 621,
      "Ꮝ": 622,
      "Ꮟ": 623,
      "Ꮤ": 624,
      "Ꮿ": 625,
      "Ᏹ": 626,
      "ᵻ": 627,
      "ᶢ": 628,
      "Ḍ": 629,
      "ḍ": 630,
      "ḗ": 631,
      "Ḥ": 632,
      "ḥ": 633,
      "ḱ": 634,
      "ḷ": 635,
      "ṃ": 636,
      "ṅ": 637,
      "ṇ": 638,
      "ṛ": 639,
      "Ṣ": 640,
      "ṣ": 641,
      "ṭ": 642,
      "Ẓ": 643,
      "ẓ": 644,
      "ả": 645,
      "ấ": 646,
      "ế": 647,
      "ề": 648,
      "ễ": 649,
      "ỉ": 650,
      "ố": 651,
      "ồ": 652,
      "ớ": 653,
      "ờ": 654,
      "ụ": 655,
      "ử": 656,
      "ữ": 657,
      "ἀ": 658,
      "ἁ": 659,
      "ἄ": 660,
      "Ἀ": 661,
      "Ἄ": 662,
      "ἐ": 663,
      "ἑ": 664,
      "ἔ": 665,
      "Ἐ": 666,
      "Ἑ": 667,
      "ἡ": 668,
      "Ἥ": 669,
      "ἰ": 670,
      "ἱ": 671,
      "ἴ": 672,
      "ἵ": 673,
      "ἶ": 674,
      "Ἰ": 675,
      "ὀ": 676,
      "ὐ": 677,
      "ὑ": 678,
      "ὠ": 679,
      "ὰ": 680,
      "ὲ": 681,
      "ὶ": 682,
      "ὸ": 683,
      "ῆ": 684,
      "ῖ": 685,
      "ῦ": 686,
      "ῶ": 687,
      "​": 688,
      "‌": 689,
      "‍": 690,
      "‎": 691,
      "‑": 692,
      "–": 693,
      "—": 694,
      "‘": 695,
      "’": 696,
      "‚": 697,
      "“": 698,
      "”": 699,
      "•": 700,
      "…": 701,
      "′": 702,
      "″": 703,
      "›": 704,
      "⁄": 705,
      "⁊": 706,
      "₂": 707,
      "₤": 708,
      "₥": 709,
      "€": 710,
      "₯": 711,
      "₹": 712,
      "№": 713,
      "ℛ": 714,
      "⅓": 715,
      "→": 716,
      "∅": 717,
      "∈": 718,
      "−": 719,
      "∖": 720,
      "∗": 721,
      "√": 722,
      "∝": 723,
      "≈": 724,
      "≡": 725,
      "≥": 726,
      "⋅": 727,
      "◌": 728,
      "♆": 729,
      "♠": 730,
      "♯": 731,
      "❤": 732,
      "⟨": 733,
      "⟩": 734,
      "ⲏ": 735,
      "ⲓ": 736,
      "ⲙ": 737,
      "Ⲭ": 738,
      "。": 739,
      "《": 740,
      "》": 741,
      "〜": 742,
      "い": 743,
      "さ": 744,
      "た": 745,
      "つ": 746,
      "て": 747,
      "の": 748,
      "は": 749,
      "ひ": 750,
      "ふ": 751,
      "ぶ": 752,
      "む": 753,
      "ら": 754,
      "り": 755,
      "る": 756,
      "ろ": 757,
      "ァ": 758,
      "イ": 759,
      "カ": 760,
      "キ": 761,
      "ク": 762,
      "グ": 763,
      "コ": 764,
      "シ": 765,
      "ジ": 766,
      "ス": 767,
      "セ": 768,
      "ゼ": 769,
      "タ": 770,
      "ダ": 771,
      "チ": 772,
      "ッ": 773,
      "デ": 774,
      "ト": 775,
      "パ": 776,
      "ピ": 777,
      "フ": 778,
      "プ": 779,
      "マ": 780,
      "ミ": 781,
      "メ": 782,
      "モ": 783,
      "ャ": 784,
      "ュ": 785,
      "ラ": 786,
      "リ": 787,
      "ル": 788,
      "レ": 789,
      "ロ": 790,
      "ワ": 791,
      "ン": 792,
      "ー": 793,
      "㓾": 794,
      "丁": 795,
      "七": 796,
      "三": 797,
      "上": 798,
      "下": 799,
      "不": 800,
      "业": 801,
      "东": 802,
      "中": 803,
      "丹": 804,
      "主": 805,
      "义": 806,
      "之": 807,
      "书": 808,
      "争": 809,
      "事": 810,
      "二": 811,
      "云": 812,
      "五": 813,
      "亜": 814,
      "产": 815,
      "京": 816,
      "人": 817,
      "今": 818,
      "介": 819,
      "仔": 820,
      "仕": 821,
      "他": 822,
      "代": 823,
      "仪": 824,
      "伐": 825,
      "会": 826,
      "伝": 827,
      "伯": 828,
      "佐": 829,
      "体": 830,
      "何": 831,
      "佬": 832,
      "來": 833,
      "侍": 834,
      "俄": 835,
      "信": 836,
      "候": 837,
      "像": 838,
      "元": 839,
      "先": 840,
      "光": 841,
      "克": 842,
      "免": 843,
      "入": 844,
      "八": 845,
      "公": 846,
      "兵": 847,
      "典": 848,
      "冶": 849,
      "凹": 850,
      "分": 851,
      "切": 852,
      "刘": 853,
      "利": 854,
      "制": 855,
      "前": 856,
      "剎": 857,
      "剑": 858,
      "劇": 859,
      "劉": 860,
      "力": 861,
      "动": 862,
      "包": 863,
      "北": 864,
      "匠": 865,
      "区": 866,
      "十": 867,
      "千": 868,
      "卅": 869,
      "卌": 870,
      "南": 871,
      "博": 872,
      "卫": 873,
      "印": 874,
      "厘": 875,
      "又": 876,
      "双": 877,
      "发": 878,
      "受": 879,
      "叠": 880,
      "口": 881,
      "古": 882,
      "只": 883,
      "可": 884,
      "司": 885,
      "合": 886,
      "吉": 887,
      "后": 888,
      "吐": 889,
      "呣": 890,
      "呷": 891,
      "咊": 892,
      "和": 893,
      "唐": 894,
      "唔": 895,
      "問": 896,
      "喜": 897,
      "囍": 898,
      "四": 899,
      "団": 900,
      "国": 901,
      "图": 902,
      "國": 903,
      "圕": 904,
      "圖": 905,
      "土": 906,
      "地": 907,
      "块": 908,
      "坤": 909,
      "坪": 910,
      "城": 911,
      "域": 912,
      "埠": 913,
      "基": 914,
      "堂": 915,
      "塊": 916,
      "境": 917,
      "士": 918,
      "変": 919,
      "复": 920,
      "大": 921,
      "天": 922,
      "夷": 923,
      "奉": 924,
      "奐": 925,
      "女": 926,
      "奴": 927,
      "她": 928,
      "妹": 929,
      "婎": 930,
      "媠": 931,
      "子": 932,
      "字": 933,
      "学": 934,
      "宁": 935,
      "它": 936,
      "宇": 937,
      "守": 938,
      "安": 939,
      "宗": 940,
      "家": 941,
      "寧": 942,
      "審": 943,
      "对": 944,
      "导": 945,
      "将": 946,
      "尉": 947,
      "導": 948,
      "小": 949,
      "島": 950,
      "川": 951,
      "州": 952,
      "巡": 953,
      "工": 954,
      "巴": 955,
      "布": 956,
      "帝": 957,
      "帥": 958,
      "師": 959,
      "常": 960,
      "平": 961,
      "庁": 962,
      "庆": 963,
      "库": 964,
      "府": 965,
      "庫": 966,
      "康": 967,
      "廚": 968,
      "廷": 969,
      "建": 970,
      "廿": 971,
      "开": 972,
      "弘": 973,
      "張": 974,
      "当": 975,
      "征": 976,
      "後": 977,
      "徒": 978,
      "從": 979,
      "御": 980,
      "忒": 981,
      "思": 982,
      "总": 983,
      "恢": 984,
      "息": 985,
      "惡": 986,
      "惰": 987,
      "愛": 988,
      "憂": 989,
      "懸": 990,
      "成": 991,
      "战": 992,
      "戦": 993,
      "戰": 994,
      "手": 995,
      "才": 996,
      "批": 997,
      "技": 998,
      "把": 999,
      "抗": 1000,
      "折": 1001,
      "拉": 1002,
      "拿": 1003,
      "按": 1004,
      "挑": 1005,
      "捨": 1006,
      "提": 1007,
      "援": 1008,
      "撫": 1009,
      "支": 1010,
      "政": 1011,
      "教": 1012,
      "文": 1013,
      "斗": 1014,
      "斬": 1015,
      "斯": 1016,
      "新": 1017,
      "方": 1018,
      "於": 1019,
      "族": 1020,
      "日": 1021,
      "旧": 1022,
      "昇": 1023,
      "明": 1024,
      "星": 1025,
      "時": 1026,
      "普": 1027,
      "曲": 1028,
      "書": 1029,
      "曹": 1030,
      "替": 1031,
      "月": 1032,
      "有": 1033,
      "朝": 1034,
      "木": 1035,
      "术": 1036,
      "朱": 1037,
      "李": 1038,
      "杜": 1039,
      "来": 1040,
      "杭": 1041,
      "東": 1042,
      "杷": 1043,
      "松": 1044,
      "枇": 1045,
      "林": 1046,
      "校": 1047,
      "案": 1048,
      "桓": 1049,
      "楊": 1050,
      "業": 1051,
      "槐": 1052,
      "様": 1053,
      "樂": 1054,
      "標": 1055,
      "檀": 1056,
      "次": 1057,
      "歌": 1058,
      "武": 1059,
      "毋": 1060,
      "比": 1061,
      "民": 1062,
      "水": 1063,
      "氵": 1064,
      "汉": 1065,
      "江": 1066,
      "汶": 1067,
      "沐": 1068,
      "沖": 1069,
      "河": 1070,
      "泉": 1071,
      "法": 1072,
      "泥": 1073,
      "洞": 1074,
      "洲": 1075,
      "流": 1076,
      "济": 1077,
      "浙": 1078,
      "浦": 1079,
      "海": 1080,
      "淨": 1081,
      "淮": 1082,
      "清": 1083,
      "済": 1084,
      "渣": 1085,
      "渤": 1086,
      "湖": 1087,
      "準": 1088,
      "滑": 1089,
      "漢": 1090,
      "漳": 1091,
      "潮": 1092,
      "澄": 1093,
      "火": 1094,
      "灾": 1095,
      "炉": 1096,
      "烏": 1097,
      "爭": 1098,
      "爱": 1099,
      "父": 1100,
      "片": 1101,
      "牠": 1102,
      "特": 1103,
      "献": 1104,
      "獻": 1105,
      "王": 1106,
      "现": 1107,
      "珊": 1108,
      "理": 1109,
      "琵": 1110,
      "琶": 1111,
      "瑚": 1112,
      "瓦": 1113,
      "瓩": 1114,
      "用": 1115,
      "甫": 1116,
      "田": 1117,
      "番": 1118,
      "異": 1119,
      "白": 1120,
      "的": 1121,
      "皆": 1122,
      "皇": 1123,
      "盛": 1124,
      "督": 1125,
      "知": 1126,
      "石": 1127,
      "礻": 1128,
      "社": 1129,
      "祂": 1130,
      "祐": 1131,
      "神": 1132,
      "禅": 1133,
      "福": 1134,
      "秀": 1135,
      "秣": 1136,
      "程": 1137,
      "竜": 1138,
      "章": 1139,
      "竹": 1140,
      "節": 1141,
      "篆": 1142,
      "籲": 1143,
      "米": 1144,
      "粁": 1145,
      "糎": 1146,
      "系": 1147,
      "約": 1148,
      "紅": 1149,
      "紐": 1150,
      "紫": 1151,
      "紹": 1152,
      "統": 1153,
      "綠": 1154,
      "維": 1155,
      "総": 1156,
      "緑": 1157,
      "緣": 1158,
      "緩": 1159,
      "縣": 1160,
      "總": 1161,
      "織": 1162,
      "红": 1163,
      "绍": 1164,
      "经": 1165,
      "统": 1166,
      "维": 1167,
      "美": 1168,
      "義": 1169,
      "羽": 1170,
      "習": 1171,
      "考": 1172,
      "耶": 1173,
      "耿": 1174,
      "肉": 1175,
      "胡": 1176,
      "腐": 1177,
      "腹": 1178,
      "膺": 1179,
      "臣": 1180,
      "臨": 1181,
      "興": 1182,
      "舍": 1183,
      "航": 1184,
      "船": 1185,
      "良": 1186,
      "节": 1187,
      "苏": 1188,
      "苗": 1189,
      "英": 1190,
      "草": 1191,
      "菩": 1192,
      "華": 1193,
      "萨": 1194,
      "蒲": 1195,
      "蕃": 1196,
      "薩": 1197,
      "藍": 1198,
      "藏": 1199,
      "藩": 1200,
      "虫": 1201,
      "蜀": 1202,
      "蝴": 1203,
      "蝶": 1204,
      "衛": 1205,
      "表": 1206,
      "西": 1207,
      "覆": 1208,
      "見": 1209,
      "親": 1210,
      "言": 1211,
      "詞": 1212,
      "試": 1213,
      "話": 1214,
      "語": 1215,
      "説": 1216,
      "議": 1217,
      "讀": 1218,
      "让": 1219,
      "试": 1220,
      "话": 1221,
      "语": 1222,
      "豆": 1223,
      "豊": 1224,
      "豔": 1225,
      "起": 1226,
      "越": 1227,
      "趙": 1228,
      "軍": 1229,
      "通": 1230,
      "逸": 1231,
      "過": 1232,
      "道": 1233,
      "邑": 1234,
      "那": 1235,
      "郎": 1236,
      "部": 1237,
      "都": 1238,
      "鄴": 1239,
      "釁": 1240,
      "重": 1241,
      "金": 1242,
      "針": 1243,
      "銖": 1244,
      "鋪": 1245,
      "铺": 1246,
      "長": 1247,
      "长": 1248,
      "門": 1249,
      "閏": 1250,
      "閩": 1251,
      "關": 1252,
      "门": 1253,
      "问": 1254,
      "闽": 1255,
      "陋": 1256,
      "院": 1257,
      "陳": 1258,
      "陵": 1259,
      "陽": 1260,
      "隶": 1261,
      "隸": 1262,
      "集": 1263,
      "雍": 1264,
      "雙": 1265,
      "雨": 1266,
      "雲": 1267,
      "震": 1268,
      "青": 1269,
      "韓": 1270,
      "韩": 1271,
      "音": 1272,
      "頓": 1273,
      "題": 1274,
      "顯": 1275,
      "顿": 1276,
      "题": 1277,
      "风": 1278,
      "食": 1279,
      "館": 1280,
      "騷": 1281,
      "驗": 1282,
      "验": 1283,
      "體": 1284,
      "高": 1285,
      "鬱": 1286,
      "魂": 1287,
      "魄": 1288,
      "魏": 1289,
      "鮮": 1290,
      "鱻": 1291,
      "鲁": 1292,
      "鲜": 1293,
      "齉": 1294,
      "龍": 1295,
      "龘": 1296,
      "龢": 1297,
      "ꀕ": 1298,
      "ꜣ": 1299,
      "고": 1300,
      "교": 1301,
      "국": 1302,
      "그": 1303,
      "기": 1304,
      "나": 1305,
      "대": 1306,
      "도": 1307,
      "독": 1308,
      "동": 1309,
      "라": 1310,
      "람": 1311,
      "래": 1312,
      "려": 1313,
      "로": 1314,
      "름": 1315,
      "리": 1316,
      "물": 1317,
      "방": 1318,
      "보": 1319,
      "부": 1320,
      "비": 1321,
      "사": 1322,
      "선": 1323,
      "소": 1324,
      "수": 1325,
      "슈": 1326,
      "스": 1327,
      "신": 1328,
      "아": 1329,
      "예": 1330,
      "을": 1331,
      "이": 1332,
      "인": 1333,
      "작": 1334,
      "장": 1335,
      "쟁": 1336,
      "전": 1337,
      "조": 1338,
      "족": 1339,
      "컴": 1340,
      "큰": 1341,
      "통": 1342,
      "파": 1343,
      "퍼": 1344,
      "하": 1345,
      "한": 1346,
      "합": 1347,
      "해": 1348,
      "현": 1349,
      "회": 1350,
      "ﬁ": 1351,
      "ﬂ": 1352,
      "︘": 1353,
      "﻿": 1354,
      "，": 1355,
      "～": 1356,
      "�": 1357,
      "𐀊": 1358,
      "𐀍": 1359,
      "𐀚": 1360,
      "𐀞": 1361,
      "𒂵": 1362,
      "𒄑": 1363,
      "𒆳": 1364,
      "𒈪": 1365,
      "𒊒": 1366,
      "𒊕": 1367,
      "𒌦": 1368,
      "𠔻": 1369,
      "𪚥": 1370,
      "𪜶": 1371,
      "th": 1372,
      "in": 1373,
      "an": 1374,
      "er": 1375,
      "the": 1376,
      "on": 1377,
      "at": 1378,
      "re": 1379,
      "en": 1380,
      "ed": 1381,
      "al": 1382,
      "or": 1383,
      "es": 1384,
      "of": 1385,
      "is": 1386,
      "ar": 1387,
      "as": 1388,
      "ic": 1389,
      "it": 1390,
      "and": 1391,
      "ion": 1392,
      "to": 1393,
      "ing": 1394,
      "ou": 1395,
      "st": 1396,
      "om": 1397,
      "le": 1398,
      "ent": 1399,
      "Wh": 1400,
      "ch": 1401,
      "ro": 1402,
      "id": 1403,
      "il": 1404,
      "el": 1405,
      "ol": 1406,
      "ct": 1407,
      "se": 1408,
      "ad": 1409,
      "am": 1410,
      "ation": 1411,
      "wh": 1412,
      "ur": 1413,
      "he": 1414,
      "be": 1415,
      "for": 1416,
      "ow": 1417,
      "iv": 1418,
      "ce": 1419,
      "What": 1420,
      "ly": 1421,
      "was": 1422,
      "ig": 1423,
      "ter": 1424,
      "im": 1425,
      "us": 1426,
      "con": 1427,
      "ir": 1428,
      "un": 1429,
      "de": 1430,
      "op": 1431,
      "ul": 1432,
      "The": 1433,
      "ers": 1434,
      "tr": 1435,
      "are": 1436,
      "em": 1437,
      "ag": 1438,
      "ere": 1439,
      "ith": 1440,
      "pe": 1441,
      "ac": 1442,
      "ver": 1443,
      "res": 1444,
      "ab": 1445,
      "mo": 1446,
      "est": 1447,
      "com": 1448,
      "ay": 1449,
      "with": 1450,
      "by": 1451,
      "av": 1452,
      "ity": 1453,
      "ap": 1454,
      "ot": 1455,
      "ut": 1456,
      "oun": 1457,
      "man": 1458,
      "fr": 1459,
      "su": 1460,
      "that": 1461,
      "et": 1462,
      "ist": 1463,
      "ies": 1464,
      "00": 1465,
      "pro": 1466,
      "ain": 1467,
      "In": 1468,
      "ex": 1469,
      "19": 1470,
      "all": 1471,
      "ate": 1472,
      "ian": 1473,
      "ich": 1474,
      "pl": 1475,
      "cl": 1476,
      "per": 1477,
      "did": 1478,
      "oc": 1479,
      "ment": 1480,
      "if": 1481,
      "ther": 1482,
      "ant": 1483,
      "art": 1484,
      "ial": 1485,
      "from": 1486,
      "ear": 1487,
      "od": 1488,
      "ia": 1489,
      "os": 1490,
      "igh": 1491,
      "um": 1492,
      "what": 1493,
      "ne": 1494,
      "qu": 1495,
      "ated": 1496,
      "act": 1497,
      "ish": 1498,
      "were": 1499,
      "ive": 1500,
      "pr": 1501,
      "ical": 1502,
      "ort": 1503,
      "ill": 1504,
      "ess": 1505,
      "ud": 1506,
      "sh": 1507,
      "over": 1508,
      "te": 1509,
      "gr": 1510,
      "Ch": 1511,
      "ld": 1512,
      "der": 1513,
      "do": 1514,
      "cent": 1515,
      "ak": 1516,
      "which": 1517,
      "ge": 1518,
      "ib": 1519,
      "du": 1520,
      "ass": 1521,
      "ong": 1522,
      "ame": 1523,
      "end": 1524,
      "ary": 1525,
      "ave": 1526,
      "ard": 1527,
      "our": 1528,
      "ip": 1529,
      "ast": 1530,
      "his": 1531,
      "wor": 1532,
      "str": 1533,
      "tw": 1534,
      "als": 1535,
      "gh": 1536,
      "ure": 1537,
      "ev": 1538,
      "one": 1539,
      "out": 1540,
      "ell": 1541,
      "age": 1542,
      "ous": 1543,
      "form": 1544,
      "af": 1545,
      "its": 1546,
      "iz": 1547,
      "How": 1548,
      "ber": 1549,
      "not": 1550,
      "many": 1551,
      "ions": 1552,
      "port": 1553,
      "rit": 1554,
      "20": 1555,
      "pt": 1556,
      "bl": 1557,
      "ound": 1558,
      "have": 1559,
      "ew": 1560,
      "ine": 1561,
      "ans": 1562,
      "ire": 1563,
      "has": 1564,
      "part": 1565,
      "ult": 1566,
      "ough": 1567,
      "ight": 1568,
      "year": 1569,
      "Who": 1570,
      "ome": 1571,
      "comp": 1572,
      "Un": 1573,
      "og": 1574,
      "St": 1575,
      "ence": 1576,
      "ect": 1577,
      "land": 1578,
      "ang": 1579,
      "other": 1580,
      "200": 1581,
      "ph": 1582,
      "cont": 1583,
      "ations": 1584,
      "ide": 1585,
      "fir": 1586,
      "dis": 1587,
      "own": 1588,
      "cre": 1589,
      "pre": 1590,
      "ign": 1591,
      "use": 1592,
      "mer": 1593,
      "their": 1594,
      "ach": 1595,
      "ree": 1596,
      "tern": 1597,
      "fer": 1598,
      "18": 1599,
      "ates": 1600,
      "aw": 1601,
      "ally": 1602,
      "ition": 1603,
      "ore": 1604,
      "cor": 1605,
      "me": 1606,
      "first": 1607,
      "ty": 1608,
      "ack": 1609,
      "cr": 1610,
      "most": 1611,
      "ren": 1612,
      "used": 1613,
      "Ar": 1614,
      "mon": 1615,
      "ran": 1616,
      "ind": 1617,
      "pres": 1618,
      "had": 1619,
      "ue": 1620,
      "coun": 1621,
      "lect": 1622,
      "po": 1623,
      "ace": 1624,
      "int": 1625,
      "sy": 1626,
      "rel": 1627,
      "ould": 1628,
      "also": 1629,
      "ater": 1630,
      "pol": 1631,
      "can": 1632,
      "gen": 1633,
      "201": 1634,
      "uring": 1635,
      "up": 1636,
      "When": 1637,
      "ime": 1638,
      "att": 1639,
      "ice": 1640,
      "ov": 1641,
      "able": 1642,
      "bo": 1643,
      "fl": 1644,
      "ke": 1645,
      "ational": 1646,
      "spe": 1647,
      "ely": 1648,
      "ens": 1649,
      "),": 1650,
      "erv": 1651,
      "reg": 1652,
      "ef": 1653,
      "ra": 1654,
      "Al": 1655,
      "ict": 1656,
      "ces": 1657,
      "lar": 1658,
      "ory": 1659,
      "pu": 1660,
      "co": 1661,
      "ied": 1662,
      "ited": 1663,
      "who": 1664,
      "Th": 1665,
      "pos": 1666,
      "vel": 1667,
      "ism": 1668,
      "col": 1669,
      "pop": 1670,
      "more": 1671,
      "ced": 1672,
      "but": 1673,
      "ade": 1674,
      "incl": 1675,
      "cess": 1676,
      "does": 1677,
      "been": 1678,
      "ury": 1679,
      "any": 1680,
      "this": 1681,
      "des": 1682,
      "ents": 1683,
      "ican": 1684,
      "ction": 1685,
      "ts": 1686,
      "ma": 1687,
      "ors": 1688,
      "two": 1689,
      "publ": 1690,
      "ks": 1691,
      "li": 1692,
      "cons": 1693,
      "br": 1694,
      "min": 1695,
      "than": 1696,
      "popul": 1697,
      "ding": 1698,
      "ca": 1699,
      "new": 1700,
      "into": 1701,
      "overn": 1702,
      "arch": 1703,
      "ower": 1704,
      "ance": 1705,
      "ile": 1706,
      "city": 1707,
      "kn": 1708,
      "reat": 1709,
      "such": 1710,
      "ivers": 1711,
      "off": 1712,
      "Amer": 1713,
      "ese": 1714,
      "ities": 1715,
      "An": 1716,
      "old": 1717,
      "ob": 1718,
      "een": 1719,
      "ci": 1720,
      "stem": 1721,
      "high": 1722,
      "prov": 1723,
      "air": 1724,
      "ople": 1725,
      "gan": 1726,
      "ood": 1727,
      "main": 1728,
      "ite": 1729,
      "au": 1730,
      "some": 1731,
      "oup": 1732,
      "century": 1733,
      "try": 1734,
      "En": 1735,
      "ics": 1736,
      "ons": 1737,
      "time": 1738,
      ").": 1739,
      "Which": 1740,
      "ased": 1741,
      "eral": 1742,
      "ific": 1743,
      "amp": 1744,
      "ten": 1745,
      "ath": 1746,
      "mar": 1747,
      "ution": 1748,
      "ase": 1749,
      "cho": 1750,
      "they": 1751,
      "after": 1752,
      "cur": 1753,
      "ual": 1754,
      "gl": 1755,
      "sp": 1756,
      "ever": 1757,
      "ious": 1758,
      "betw": 1759,
      "between": 1760,
      "ust": 1761,
      "call": 1762,
      "olog": 1763,
      "work": 1764,
      "loc": 1765,
      "comm": 1766,
      "fin": 1767,
      "govern": 1768,
      "New": 1769,
      "Re": 1770,
      "ident": 1771,
      "produ": 1772,
      "system": 1773,
      "during": 1774,
      "dr": 1775,
      "000": 1776,
      "uro": 1777,
      "It": 1778,
      "ug": 1779,
      "ail": 1780,
      "under": 1781,
      "outh": 1782,
      "ake": 1783,
      "ann": 1784,
      "As": 1785,
      "red": 1786,
      "state": 1787,
      "Se": 1788,
      "we": 1789,
      "when": 1790,
      "inter": 1791,
      "Is": 1792,
      "day": 1793,
      "name": 1794,
      "people": 1795,
      "Com": 1796,
      "fe": 1797,
      "bu": 1798,
      "med": 1799,
      "sub": 1800,
      "iet": 1801,
      "group": 1802,
      "low": 1803,
      "serv": 1804,
      "inv": 1805,
      "Brit": 1806,
      "trans": 1807,
      "tain": 1808,
      "ok": 1809,
      "includ": 1810,
      "ose": 1811,
      "elect": 1812,
      "Euro": 1813,
      "war": 1814,
      "ms": 1815,
      "ds": 1816,
      "led": 1817,
      "iss": 1818,
      "les": 1819,
      "peri": 1820,
      "United": 1821,
      "ative": 1822,
      "velop": 1823,
      "uc": 1824,
      "develop": 1825,
      "illion": 1826,
      "rough": 1827,
      "spec": 1828,
      "oy": 1829,
      "chool": 1830,
      "dif": 1831,
      "would": 1832,
      "Nor": 1833,
      "stud": 1834,
      "Europe": 1835,
      "Where": 1836,
      "her": 1837,
      "ext": 1838,
      "ost": 1839,
      "play": 1840,
      "row": 1841,
      "par": 1842,
      "uss": 1843,
      "found": 1844,
      "public": 1845,
      "known": 1846,
      "ah": 1847,
      "num": 1848,
      "only": 1849,
      "cap": 1850,
      "17": 1851,
      "ists": 1852,
      "angu": 1853,
      "ie": 1854,
      "way": 1855,
      "ince": 1856,
      "stit": 1857,
      "gy": 1858,
      "government": 1859,
      "ating": 1860,
      "arr": 1861,
      "called": 1862,
      "Ger": 1863,
      "sup": 1864,
      "came": 1865,
      "ub": 1866,
      "mov": 1867,
      "fore": 1868,
      "io": 1869,
      "there": 1870,
      "dom": 1871,
      "Pr": 1872,
      "uch": 1873,
      "langu": 1874,
      "about": 1875,
      "stru": 1876,
      "cond": 1877,
      "years": 1878,
      "ters": 1879,
      "ted": 1880,
      "jor": 1881,
      "buil": 1882,
      "199": 1883,
      "fect": 1884,
      "ians": 1885,
      "ings": 1886,
      "world": 1887,
      "urch": 1888,
      "ural": 1889,
      "gest": 1890,
      "Chin": 1891,
      "Con": 1892,
      "enc": 1893,
      "though": 1894,
      "ject": 1895,
      "through": 1896,
      "hy": 1897,
      "ished": 1898,
      "uman": 1899,
      "early": 1900,
      "set": 1901,
      "eld": 1902,
      "how": 1903,
      "US": 1904,
      "may": 1905,
      "soc": 1906,
      "ments": 1907,
      "ins": 1908,
      "oh": 1909,
      "iversity": 1910,
      "major": 1911,
      "ular": 1912,
      "ton": 1913,
      "char": 1914,
      "ale": 1915,
      "10": 1916,
      "bel": 1917,
      "leg": 1918,
      "cept": 1919,
      "come": 1920,
      "ants": 1921,
      "where": 1922,
      "rol": 1923,
      "add": 1924,
      "vis": 1925,
      "15": 1926,
      "ized": 1927,
      "mem": 1928,
      "ship": 1929,
      "hist": 1930,
      "vi": 1931,
      "cer": 1932,
      "Le": 1933,
      "no": 1934,
      "ica": 1935,
      "ered": 1936,
      "American": 1937,
      "bor": 1938,
      "ond": 1939,
      "population": 1940,
      "made": 1941,
      "ful": 1942,
      "0s": 1943,
      "mus": 1944,
      "War": 1945,
      "Gree": 1946,
      "ix": 1947,
      "king": 1948,
      "power": 1949,
      "II": 1950,
      "Ind": 1951,
      "ement": 1952,
      "ually": 1953,
      "type": 1954,
      "law": 1955,
      "ature": 1956,
      "iev": 1957,
      "This": 1958,
      "ress": 1959,
      "ures": 1960,
      "States": 1961,
      "long": 1962,
      "so": 1963,
      "stand": 1964,
      "polit": 1965,
      "16": 1966,
      "sign": 1967,
      "urn": 1968,
      "He": 1969,
      "dep": 1970,
      "Par": 1971,
      "Fran": 1972,
      "On": 1973,
      "differ": 1974,
      "nor": 1975,
      "De": 1976,
      "mil": 1977,
      "million": 1978,
      "my": 1979,
      "ically": 1980,
      "cult": 1981,
      "school": 1982,
      "imes": 1983,
      "ily": 1984,
      "cial": 1985,
      "requ": 1986,
      "organ": 1987,
      "For": 1988,
      "var": 1989,
      "well": 1990,
      "cause": 1991,
      "ason": 1992,
      "ible": 1993,
      "eng": 1994,
      "lead": 1995,
      "period": 1996,
      "fol": 1997,
      "them": 1998,
      "Mar": 1999,
      "much": 2000,
      "again": 2001,
      "Em": 2002,
      "igin": 2003,
      "number": 2004,
      "country": 2005,
      "az": 2006,
      "light": 2007,
      "ium": 2008,
      "por": 2009,
      "ry": 2010,
      "contin": 2011,
      "British": 2012,
      "Be": 2013,
      "three": 2014,
      "oper": 2015,
      "ep": 2016,
      "198": 2017,
      "these": 2018,
      "offic": 2019,
      "being": 2020,
      "class": 2021,
      "ise": 2022,
      "ros": 2023,
      "Joh": 2024,
      "fil": 2025,
      "present": 2026,
      "ages": 2027,
      "abl": 2028,
      "12": 2029,
      "became": 2030,
      "ru": 2031,
      "consid": 2032,
      "tow": 2033,
      "Rom": 2034,
      "iver": 2035,
      "ild": 2036,
      "unt": 2037,
      "sur": 2038,
      "trad": 2039,
      "incre": 2040,
      "ve": 2041,
      "area": 2042,
      "John": 2043,
      "197": 2044,
      "enn": 2045,
      "Sp": 2046,
      "inn": 2047,
      "ouse": 2048,
      "including": 2049,
      "ick": 2050,
      "ility": 2051,
      "pers": 2052,
      "go": 2053,
      "origin": 2054,
      "Wor": 2055,
      "language": 2056,
      "often": 2057,
      "flu": 2058,
      "fam": 2059,
      "ys": 2060,
      "men": 2061,
      "common": 2062,
      "bers": 2063,
      "term": 2064,
      "Chr": 2065,
      "recor": 2066,
      "chn": 2067,
      "both": 2068,
      "conom": 2069,
      "writ": 2070,
      "ital": 2071,
      "rench": 2072,
      "thern": 2073,
      "establ": 2074,
      "ude": 2075,
      "North": 2076,
      "music": 2077,
      "ven": 2078,
      "pire": 2079,
      "lim": 2080,
      "lin": 2081,
      "BC": 2082,
      "trib": 2083,
      "relig": 2084,
      "while": 2085,
      "ived": 2086,
      "acter": 2087,
      "human": 2088,
      "control": 2089,
      "French": 2090,
      "South": 2091,
      "less": 2092,
      "depend": 2093,
      "dec": 2094,
      "German": 2095,
      "lo": 2096,
      "ames": 2097,
      "ology": 2098,
      "ier": 2099,
      "elf": 2100,
      "second": 2101,
      "196": 2102,
      "14": 2103,
      "ards": 2104,
      "fact": 2105,
      "result": 2106,
      "At": 2107,
      "ple": 2108,
      "commun": 2109,
      "largest": 2110,
      "\".": 2111,
      "mark": 2112,
      "sim": 2113,
      "ric": 2114,
      "oth": 2115,
      "met": 2116,
      "estern": 2117,
      "Or": 2118,
      "ret": 2119,
      "ives": 2120,
      "large": 2121,
      "ele": 2122,
      "la": 2123,
      "econom": 2124,
      "ices": 2125,
      "ared": 2126,
      "against": 2127,
      "City": 2128,
      "later": 2129,
      "based": 2130,
      "follow": 2131,
      "could": 2132,
      "place": 2133,
      "point": 2134,
      "top": 2135,
      "son": 2136,
      "chan": 2137,
      "ash": 2138,
      "pect": 2139,
      "World": 2140,
      "cover": 2141,
      "head": 2142,
      "import": 2143,
      "mat": 2144,
      "gu": 2145,
      "need": 2146,
      "olution": 2147,
      "support": 2148,
      "lif": 2149,
      "sm": 2150,
      "194": 2151,
      "Pro": 2152,
      "Sh": 2153,
      ".\"": 2154,
      "itary": 2155,
      "fic": 2156,
      "val": 2157,
      "resp": 2158,
      "allow": 2159,
      "ization": 2160,
      "fun": 2161,
      "four": 2162,
      "now": 2163,
      "will": 2164,
      "percent": 2165,
      "Russ": 2166,
      "Christ": 2167,
      "ron": 2168,
      "cient": 2169,
      "dire": 2170,
      "Afr": 2171,
      "Tr": 2172,
      "partic": 2173,
      "moder": 2174,
      "ck": 2175,
      "sc": 2176,
      "let": 2177,
      "del": 2178,
      "sing": 2179,
      "road": 2180,
      "Au": 2181,
      "ban": 2182,
      "test": 2183,
      "Col": 2184,
      "ternational": 2185,
      "region": 2186,
      "13": 2187,
      "gram": 2188,
      "then": 2189,
      "back": 2190,
      "app": 2191,
      "West": 2192,
      "influ": 2193,
      "ides": 2194,
      "ember": 2195,
      "vent": 2196,
      "exp": 2197,
      "University": 2198,
      "non": 2199,
      "yn": 2200,
      "indu": 2201,
      "ided": 2202,
      "suc": 2203,
      "different": 2204,
      "inc": 2205,
      "political": 2206,
      "get": 2207,
      "ize": 2208,
      "gre": 2209,
      "lit": 2210,
      "Roman": 2211,
      "glish": 2212,
      "located": 2213,
      "rele": 2214,
      "European": 2215,
      "ball": 2216,
      "English": 2217,
      "tries": 2218,
      "design": 2219,
      "cour": 2220,
      "miss": 2221,
      "ended": 2222,
      "modern": 2223,
      "start": 2224,
      "beg": 2225,
      "King": 2226,
      "195": 2227,
      "cording": 2228,
      "official": 2229,
      "like": 2230,
      "\",": 2231,
      "pass": 2232,
      "ral": 2233,
      "Car": 2234,
      "aid": 2235,
      "ior": 2236,
      "gener": 2237,
      "lands": 2238,
      "ork": 2239,
      "since": 2240,
      "right": 2241,
      "ger": 2242,
      "techn": 2243,
      "Af": 2244,
      "view": 2245,
      "small": 2246,
      "vers": 2247,
      "Can": 2248,
      "bre": 2249,
      "Ph": 2250,
      "Cent": 2251,
      "ute": 2252,
      "cy": 2253,
      "each": 2254,
      "ars": 2255,
      "une": 2256,
      "cit": 2257,
      "aim": 2258,
      "line": 2259,
      "struct": 2260,
      "sever": 2261,
      "ague": 2262,
      "div": 2263,
      "remain": 2264,
      "Gr": 2265,
      "ble": 2266,
      "ax": 2267,
      "military": 2268,
      "aking": 2269,
      "ting": 2270,
      "attle": 2271,
      "tem": 2272,
      "process": 2273,
      "Greek": 2274,
      "ai": 2275,
      "tit": 2276,
      "rest": 2277,
      "child": 2278,
      "mand": 2279,
      "become": 2280,
      "countries": 2281,
      "uary": 2282,
      "ired": 2283,
      "ont": 2284,
      "bet": 2285,
      "before": 2286,
      "national": 2287,
      "water": 2288,
      "apan": 2289,
      "Jew": 2290,
      "Ne": 2291,
      "side": 2292,
      "Japan": 2293,
      "effect": 2294,
      "considered": 2295,
      "press": 2296,
      "same": 2297,
      "ified": 2298,
      "around": 2299,
      "down": 2300,
      "team": 2301,
      "building": 2302,
      "success": 2303,
      "grow": 2304,
      "25": 2305,
      "ival": 2306,
      "prom": 2307,
      "grap": 2308,
      "ross": 2309,
      "ergy": 2310,
      "person": 2311,
      "hel": 2312,
      "By": 2313,
      "olv": 2314,
      "pat": 2315,
      "thod": 2316,
      "curren": 2317,
      "dist": 2318,
      "ample": 2319,
      "typ": 2320,
      "bir": 2321,
      "Austr": 2322,
      "ole": 2323,
      "several": 2324,
      "him": 2325,
      "ively": 2326,
      "minis": 2327,
      "Chinese": 2328,
      "appe": 2329,
      "ik": 2330,
      "ences": 2331,
      "Ac": 2332,
      "Coun": 2333,
      "stitution": 2334,
      "France": 2335,
      "among": 2336,
      "refer": 2337,
      "season": 2338,
      "include": 2339,
      "until": 2340,
      "cas": 2341,
      "direct": 2342,
      "inst": 2343,
      "began": 2344,
      "Empire": 2345,
      "alth": 2346,
      "igr": 2347,
      "fi": 2348,
      "idd": 2349,
      "oot": 2350,
      "within": 2351,
      "ator": 2352,
      "aced": 2353,
      "formed": 2354,
      "Pres": 2355,
      "ref": 2356,
      "show": 2357,
      "30": 2358,
      "tradition": 2359,
      "see": 2360,
      "states": 2361,
      "ox": 2362,
      "tle": 2363,
      "cop": 2364,
      "mit": 2365,
      "those": 2366,
      "Lond": 2367,
      "example": 2368,
      "China": 2369,
      "London": 2370,
      "because": 2371,
      "Pol": 2372,
      "rece": 2373,
      "National": 2374,
      "ief": 2375,
      "even": 2376,
      "ec": 2377,
      "run": 2378,
      "ord": 2379,
      "York": 2380,
      "species": 2381,
      "last": 2382,
      "important": 2383,
      "ederal": 2384,
      "open": 2385,
      "very": 2386,
      "ather": 2387,
      "late": 2388,
      "order": 2389,
      "bod": 2390,
      "using": 2391,
      "life": 2392,
      "continu": 2393,
      "sch": 2394,
      "town": 2395,
      "ston": 2396,
      "social": 2397,
      "thor": 2398,
      "areas": 2399,
      "members": 2400,
      "educ": 2401,
      "groups": 2402,
      "popular": 2403,
      "ped": 2404,
      "ought": 2405,
      "ised": 2406,
      "East": 2407,
      "iam": 2408,
      "level": 2409,
      "rad": 2410,
      "lear": 2411,
      "program": 2412,
      "May": 2413,
      "During": 2414,
      "decl": 2415,
      "established": 2416,
      "ional": 2417,
      "prim": 2418,
      "Church": 2419,
      "ient": 2420,
      "stat": 2421,
      "chang": 2422,
      "ivil": 2423,
      "poss": 2424,
      "11": 2425,
      "put": 2426,
      "ately": 2427,
      "Gen": 2428,
      "iving": 2429,
      "descr": 2430,
      "iety": 2431,
      "Ge": 2432,
      "great": 2433,
      "another": 2434,
      "ality": 2435,
      "make": 2436,
      "ament": 2437,
      "bus": 2438,
      "sol": 2439,
      "Mus": 2440,
      "astern": 2441,
      "comple": 2442,
      "histor": 2443,
      "iation": 2444,
      "ony": 2445,
      "itions": 2446,
      "development": 2447,
      "tal": 2448,
      "industr": 2449,
      "energy": 2450,
      "193": 2451,
      "home": 2452,
      "Port": 2453,
      "iven": 2454,
      "Pl": 2455,
      "ser": 2456,
      "Man": 2457,
      "Sw": 2458,
      "lav": 2459,
      "ene": 2460,
      "Sov": 2461,
      "Fr": 2462,
      "ock": 2463,
      "lab": 2464,
      "ines": 2465,
      "take": 2466,
      "equ": 2467,
      "ches": 2468,
      "current": 2469,
      "However": 2470,
      "sect": 2471,
      "prof": 2472,
      "ories": 2473,
      "death": 2474,
      "still": 2475,
      "rul": 2476,
      "que": 2477,
      "hav": 2478,
      "After": 2479,
      "India": 2480,
      "crit": 2481,
      "issu": 2482,
      "held": 2483,
      "reet": 2484,
      "50": 2485,
      "Eng": 2486,
      "sto": 2487,
      "Soviet": 2488,
      "els": 2489,
      "claim": 2490,
      "arm": 2491,
      "def": 2492,
      "Why": 2493,
      "believ": 2494,
      "vir": 2495,
      "There": 2496,
      "net": 2497,
      "record": 2498,
      "rese": 2499,
      "car": 2500,
      "exist": 2501,
      "und": 2502,
      "action": 2503,
      "attack": 2504,
      "along": 2505,
      "rop": 2506,
      "change": 2507,
      "2010": 2508,
      "itect": 2509,
      "bas": 2510,
      "treat": 2511,
      "character": 2512,
      "church": 2513,
      "nam": 2514,
      "defin": 2515,
      "ential": 2516,
      "developed": 2517,
      "read": 2518,
      "due": 2519,
      "pur": 2520,
      "event": 2521,
      "iddle": 2522,
      "thir": 2523,
      "independ": 2524,
      "local": 2525,
      "house": 2526,
      "sum": 2527,
      "formation": 2528,
      "occur": 2529,
      "company": 2530,
      "ley": 2531,
      "needed": 2532,
      "ploy": 2533,
      "particular": 2534,
      "Gu": 2535,
      "ision": 2536,
      "acy": 2537,
      "ges": 2538,
      "adv": 2539,
      "kind": 2540,
      "Char": 2541,
      "ness": 2542,
      "hold": 2543,
      "cil": 2544,
      "created": 2545,
      "prote": 2546,
      "cast": 2547,
      "migr": 2548,
      "built": 2549,
      "ling": 2550,
      "pract": 2551,
      "report": 2552,
      "phil": 2553,
      "di": 2554,
      "ilar": 2555,
      "tor": 2556,
      "Pe": 2557,
      "atic": 2558,
      "plic": 2559,
      "mun": 2560,
      "omen": 2561,
      "Que": 2562,
      "Air": 2563,
      "ability": 2564,
      "Ad": 2565,
      "Union": 2566,
      "Ber": 2567,
      "position": 2568,
      "Ital": 2569,
      "osop": 2570,
      "religious": 2571,
      "ft": 2572,
      "aver": 2573,
      "ri": 2574,
      "sk": 2575,
      "former": 2576,
      "author": 2577,
      "Cl": 2578,
      "five": 2579,
      "tar": 2580,
      "cot": 2581,
      "ina": 2582,
      "posed": 2583,
      "dat": 2584,
      "appro": 2585,
      "aft": 2586,
      "mb": 2587,
      "ense": 2588,
      "sty": 2589,
      "carr": 2590,
      "lege": 2591,
      "Canad": 2592,
      "na": 2593,
      "nat": 2594,
      "represent": 2595,
      "west": 2596,
      "conne": 2597,
      "lam": 2598,
      "ning": 2599,
      "study": 2600,
      "hal": 2601,
      "40": 2602,
      "ked": 2603,
      "ico": 2604,
      "iated": 2605,
      "sequ": 2606,
      "usually": 2607,
      "Su": 2608,
      "ency": 2609,
      "England": 2610,
      "rodu": 2611,
      "contain": 2612,
      "Ju": 2613,
      "Britain": 2614,
      "ological": 2615,
      "istic": 2616,
      "history": 2617,
      "ination": 2618,
      "dev": 2619,
      "body": 2620,
      "cell": 2621,
      "Some": 2622,
      "vol": 2623,
      "force": 2624,
      "forces": 2625,
      "empt": 2626,
      "market": 2627,
      "addition": 2628,
      "uses": 2629,
      "Bl": 2630,
      "Christian": 2631,
      "omet": 2632,
      "introdu": 2633,
      "wood": 2634,
      "iness": 2635,
      "she": 2636,
      "roy": 2637,
      "self": 2638,
      "ined": 2639,
      "ius": 2640,
      "jo": 2641,
      "film": 2642,
      "Br": 2643,
      "These": 2644,
      "forms": 2645,
      "culture": 2646,
      "philosop": 2647,
      "Jan": 2648,
      "ivid": 2649,
      "oss": 2650,
      "lym": 2651,
      "Arab": 2652,
      "redu": 2653,
      "2008": 2654,
      "udd": 2655,
      "ificant": 2656,
      "League": 2657,
      "ek": 2658,
      "Geor": 2659,
      "research": 2660,
      "fall": 2661,
      "Egy": 2662,
      "north": 2663,
      "hand": 2664,
      "Egypt": 2665,
      "mean": 2666,
      "Min": 2667,
      "architect": 2668,
      "mission": 2669,
      "2013": 2670,
      "Med": 2671,
      "NA": 2672,
      "western": 2673,
      "schools": 2674,
      "significant": 2675,
      "Phil": 2676,
      "ales": 2677,
      "every": 2678,
      "graph": 2679,
      "eth": 2680,
      "assoc": 2681,
      "hip": 2682,
      "olic": 2683,
      "2009": 2684,
      "Fe": 2685,
      "reach": 2686,
      "post": 2687,
      "tribut": 2688,
      "outhern": 2689,
      "similar": 2690,
      "general": 2691,
      "standard": 2692,
      "date": 2693,
      "rael": 2694,
      "anim": 2695,
      "camp": 2696,
      "separ": 2697,
      "rule": 2698,
      "evolution": 2699,
      "2007": 2700,
      "compe": 2701,
      "vide": 2702,
      "bert": 2703,
      "Ap": 2704,
      "ogn": 2705,
      "ali": 2706,
      "nic": 2707,
      "60": 2708,
      "2011": 2709,
      "America": 2710,
      "tic": 2711,
      "month": 2712,
      "service": 2713,
      "capital": 2714,
      "individ": 2715,
      "tract": 2716,
      "ways": 2717,
      "sex": 2718,
      "Germany": 2719,
      "bi": 2720,
      "just": 2721,
      "education": 2722,
      "word": 2723,
      "mater": 2724,
      "ground": 2725,
      "sour": 2726,
      "era": 2727,
      "party": 2728,
      "ged": 2729,
      "plan": 2730,
      "ently": 2731,
      "field": 2732,
      "bs": 2733,
      "tto": 2734,
      "took": 2735,
      "All": 2736,
      "Israel": 2737,
      "grad": 2738,
      "According": 2739,
      "Aug": 2740,
      "Bar": 2741,
      "Ex": 2742,
      "ootball": 2743,
      "rec": 2744,
      "Sept": 2745,
      "Paris": 2746,
      "civil": 2747,
      "ats": 2748,
      "territ": 2749,
      "cience": 2750,
      "Queen": 2751,
      "fac": 2752,
      "mag": 2753,
      "bour": 2754,
      "Oc": 2755,
      "south": 2756,
      "Ro": 2757,
      "domin": 2758,
      "activ": 2759,
      "President": 2760,
      "xim": 2761,
      "Sch": 2762,
      "without": 2763,
      "single": 2764,
      "given": 2765,
      "ification": 2766,
      "Cath": 2767,
      "polic": 2768,
      "aud": 2769,
      "Great": 2770,
      "ana": 2771,
      "They": 2772,
      "ictor": 2773,
      "Mex": 2774,
      "ances": 2775,
      "phys": 2776,
      "init": 2777,
      "Mon": 2778,
      "August": 2779,
      "Portug": 2780,
      "September": 2781,
      "asser": 2782,
      "anish": 2783,
      "released": 2784,
      "ward": 2785,
      "Bo": 2786,
      "ken": 2787,
      "near": 2788,
      "priv": 2789,
      "win": 2790,
      "2012": 2791,
      "product": 2792,
      "tele": 2793,
      "tro": 2794,
      "liter": 2795,
      "scient": 2796,
      "atin": 2797,
      "ison": 2798,
      "100": 2799,
      "family": 2800,
      "Budd": 2801,
      "olved": 2802,
      "24": 2803,
      "June": 2804,
      "president": 2805,
      "ove": 2806,
      "third": 2807,
      "Ti": 2808,
      "employ": 2809,
      "children": 2810,
      "El": 2811,
      "cul": 2812,
      "ops": 2813,
      "ountain": 2814,
      "Bur": 2815,
      "God": 2816,
      "said": 2817,
      "iber": 2818,
      "bur": 2819,
      "ports": 2820,
      "Republic": 2821,
      "various": 2822,
      "times": 2823,
      "inning": 2824,
      "mult": 2825,
      "19th": 2826,
      "connect": 2827,
      "economic": 2828,
      "Austral": 2829,
      "Mad": 2830,
      "original": 2831,
      "material": 2832,
      "international": 2833,
      "languages": 2834,
      "iers": 2835,
      "agre": 2836,
      "sent": 2837,
      "comb": 2838,
      "opin": 2839,
      "aper": 2840,
      "central": 2841,
      "trict": 2842,
      "crip": 2843,
      "book": 2844,
      "cir": 2845,
      "fur": 2846,
      "few": 2847,
      "aged": 2848,
      "students": 2849,
      "ae": 2850,
      "six": 2851,
      "percentage": 2852,
      "2014": 2853,
      "natural": 2854,
      "Western": 2855,
      "relation": 2856,
      ".[": 2857,
      "Ab": 2858,
      "African": 2859,
      "ner": 2860,
      "Russian": 2861,
      "Otto": 2862,
      "ites": 2863,
      "systems": 2864,
      "unch": 2865,
      "Act": 2866,
      "host": 2867,
      "band": 2868,
      "although": 2869,
      "concer": 2870,
      "produced": 2871,
      "ues": 2872,
      "aven": 2873,
      "July": 2874,
      "included": 2875,
      "rate": 2876,
      "Dis": 2877,
      "March": 2878,
      "club": 2879,
      "wid": 2880,
      "aster": 2881,
      "broad": 2882,
      "model": 2883,
      "proper": 2884,
      "average": 2885,
      "ister": 2886,
      "strong": 2887,
      "craft": 2888,
      "stitut": 2889,
      "cities": 2890,
      "placed": 2891,
      "works": 2892,
      "ham": 2893,
      "disc": 2894,
      "higher": 2895,
      "Victor": 2896,
      "21": 2897,
      "free": 2898,
      "total": 2899,
      "concept": 2900,
      "dol": 2901,
      "ush": 2902,
      "January": 2903,
      "Nov": 2904,
      "Will": 2905,
      "cal": 2906,
      "lor": 2907,
      "ount": 2908,
      "following": 2909,
      "Nap": 2910,
      "earli": 2911,
      "bit": 2912,
      "vision": 2913,
      "International": 2914,
      "23": 2915,
      "School": 2916,
      "akes": 2917,
      "key": 2918,
      "return": 2919,
      "sure": 2920,
      "pecial": 2921,
      "aint": 2922,
      "To": 2923,
      "song": 2924,
      "temper": 2925,
      "ones": 2926,
      "ples": 2927,
      "2006": 2928,
      "Tibet": 2929,
      "Armen": 2930,
      "played": 2931,
      "Pal": 2932,
      "rem": 2933,
      "General": 2934,
      "tober": 2935,
      "avail": 2936,
      "oyal": 2937,
      "founded": 2938,
      "Co": 2939,
      "vious": 2940,
      "parts": 2941,
      "ensive": 2942,
      "production": 2943,
      "San": 2944,
      "dyn": 2945,
      "Spanish": 2946,
      "turn": 2947,
      "should": 2948,
      "ured": 2949,
      "October": 2950,
      "federal": 2951,
      "adminis": 2952,
      "expl": 2953,
      "Islam": 2954,
      "den": 2955,
      "method": 2956,
      "Mac": 2957,
      "ators": 2958,
      "ago": 2959,
      "ained": 2960,
      "ened": 2961,
      "short": 2962,
      "special": 2963,
      "bum": 2964,
      "ote": 2965,
      "half": 2966,
      "role": 2967,
      "experi": 2968,
      "mber": 2969,
      "atures": 2970,
      "har": 2971,
      "ink": 2972,
      "enced": 2973,
      "Ottoman": 2974,
      "hol": 2975,
      "aj": 2976,
      "ify": 2977,
      "attempt": 2978,
      "Of": 2979,
      "80": 2980,
      "Sy": 2981,
      "happ": 2982,
      "sold": 2983,
      "proble": 2984,
      "black": 2985,
      "begin": 2986,
      "Som": 2987,
      "wide": 2988,
      "highest": 2989,
      "mi": 2990,
      "ung": 2991,
      "ows": 2992,
      "ometimes": 2993,
      "video": 2994,
      "frequ": 2995,
      "hi": 2996,
      "theory": 2997,
      "termin": 2998,
      "clos": 2999,
      "range": 3000,
      "River": 3001,
      "far": 3002,
      "colon": 3003,
      "once": 3004,
      "citation": 3005,
      "ves": 3006,
      "help": 3007,
      "food": 3008,
      "game": 3009,
      "terms": 3010,
      "tra": 3011,
      "Part": 3012,
      "list": 3013,
      "Army": 3014,
      "peror": 3015,
      "Kingdom": 3016,
      "stant": 3017,
      "cember": 3018,
      "days": 3019,
      "December": 3020,
      "respons": 3021,
      "style": 3022,
      "Catholic": 3023,
      "House": 3024,
      "Pop": 3025,
      "ead": 3026,
      "mid": 3027,
      "majority": 3028,
      "Bey": 3029,
      "With": 3030,
      "billion": 3031,
      "22": 3032,
      "cup": 3033,
      "State": 3034,
      "univers": 3035,
      "cost": 3036,
      "exec": 3037,
      "caused": 3038,
      "collect": 3039,
      "inal": 3040,
      "offer": 3041,
      "mos": 3042,
      "20th": 3043,
      "Japanese": 3044,
      "Council": 3045,
      "aul": 3046,
      "dest": 3047,
      "tion": 3048,
      "named": 3049,
      "Napole": 3050,
      "kill": 3051,
      "case": 3052,
      "ably": 3053,
      "mass": 3054,
      "must": 3055,
      "ending": 3056,
      "however": 3057,
      "Latin": 3058,
      "Val": 3059,
      "imate": 3060,
      "army": 3061,
      "describ": 3062,
      "say": 3063,
      "won": 3064,
      "influence": 3065,
      "invest": 3066,
      "generally": 3067,
      "bro": 3068,
      "ze": 3069,
      "Napoleon": 3070,
      "Apr": 3071,
      "compu": 3072,
      "pread": 3073,
      "Cor": 3074,
      "sug": 3075,
      "187": 3076,
      "traditional": 3077,
      "Cong": 3078,
      "Africa": 3079,
      "album": 3080,
      "Rich": 3081,
      "face": 3082,
      "published": 3083,
      "court": 3084,
      "asing": 3085,
      "idence": 3086,
      "dial": 3087,
      "island": 3088,
      "women": 3089,
      "struction": 3090,
      "April": 3091,
      "ris": 3092,
      "ption": 3093,
      "recogn": 3094,
      "Im": 3095,
      "aces": 3096,
      "recent": 3097,
      "fail": 3098,
      "rain": 3099,
      "ancial": 3100,
      "mal": 3101,
      "lower": 3102,
      "Tur": 3103,
      "ither": 3104,
      "oto": 3105,
      "lex": 3106,
      "acc": 3107,
      "regard": 3108,
      "William": 3109,
      "sometimes": 3110,
      "compan": 3111,
      "continued": 3112,
      "discover": 3113,
      "dict": 3114,
      "ships": 3115,
      "arily": 3116,
      "Res": 3117,
      "Jews": 3118,
      "ler": 3119,
      "business": 3120,
      "Indian": 3121,
      "growth": 3122,
      "bar": 3123,
      "ask": 3124,
      "electric": 3125,
      "others": 3126,
      "uan": 3127,
      "avy": 3128,
      "antic": 3129,
      "live": 3130,
      "rail": 3131,
      "His": 3132,
      "pan": 3133,
      "aries": 3134,
      "ements": 3135,
      "announ": 3136,
      "university": 3137,
      "commer": 3138,
      "November": 3139,
      "Middle": 3140,
      "useum": 3141,
      "oma": 3142,
      "quar": 3143,
      "feature": 3144,
      "establish": 3145,
      "ha": 3146,
      "compos": 3147,
      "meas": 3148,
      "object": 3149,
      "available": 3150,
      "rote": 3151,
      "Pruss": 3152,
      "nation": 3153,
      "icans": 3154,
      "utch": 3155,
      "enna": 3156,
      "white": 3157,
      "Cour": 3158,
      "Kore": 3159,
      "real": 3160,
      "duct": 3161,
      "Greece": 3162,
      "..": 3163,
      "mic": 3164,
      "etro": 3165,
      "College": 3166,
      "round": 3167,
      "estic": 3168,
      "color": 3169,
      "Han": 3170,
      "sec": 3171,
      "adop": 3172,
      "uran": 3173,
      "Park": 3174,
      "religion": 3175,
      "bom": 3176,
      "previous": 3177,
      "Muslim": 3178,
      "data": 3179,
      "aren": 3180,
      "dog": 3181,
      "legal": 3182,
      "appear": 3183,
      "sound": 3184,
      "ta": 3185,
      "subject": 3186,
      "written": 3187,
      "190": 3188,
      "profess": 3189,
      "ties": 3190,
      "sen": 3191,
      "moved": 3192,
      "wrote": 3193,
      "2005": 3194,
      "know": 3195,
      "2015": 3196,
      "increased": 3197,
      "rights": 3198,
      "From": 3199,
      "Other": 3200,
      "foc": 3201,
      "jud": 3202,
      "especial": 3203,
      "omin": 3204,
      "asty": 3205,
      "especially": 3206,
      "hous": 3207,
      "lah": 3208,
      "ington": 3209,
      "defe": 3210,
      "One": 3211,
      "Govern": 3212,
      "rock": 3213,
      "launch": 3214,
      "Del": 3215,
      "quest": 3216,
      "cultural": 3217,
      "cing": 3218,
      "ned": 3219,
      "sl": 3220,
      "ama": 3221,
      "aken": 3222,
      "partment": 3223,
      "Street": 3224,
      "viron": 3225,
      "owers": 3226,
      "certain": 3227,
      "George": 3228,
      "Ok": 3229,
      "saw": 3230,
      "movement": 3231,
      "increase": 3232,
      "phas": 3233,
      "anal": 3234,
      "hard": 3235,
      "km": 3236,
      "left": 3237,
      "accept": 3238,
      "anted": 3239,
      "Nasser": 3240,
      "Many": 3241,
      "administr": 3242,
      "27": 3243,
      "ots": 3244,
      "Dutch": 3245,
      "suf": 3246,
      "making": 3247,
      "ply": 3248,
      "provide": 3249,
      "pen": 3250,
      "interest": 3251,
      "Ear": 3252,
      "Eston": 3253,
      "Chopin": 3254,
      "related": 3255,
      "successful": 3256,
      "ateg": 3257,
      "allowed": 3258,
      "Cy": 3259,
      "quare": 3260,
      "dialect": 3261,
      "possible": 3262,
      "Gre": 3263,
      "throughout": 3264,
      "Sun": 3265,
      "TV": 3266,
      "Jewish": 3267,
      "Ed": 3268,
      "pot": 3269,
      "space": 3270,
      "Ma": 3271,
      "ids": 3272,
      "trade": 3273,
      "ially": 3274,
      "apt": 3275,
      "rev": 3276,
      "financial": 3277,
      "industry": 3278,
      "introduced": 3279,
      "zer": 3280,
      "foreign": 3281,
      "east": 3282,
      "iate": 3283,
      "final": 3284,
      "schol": 3285,
      "further": 3286,
      "Fre": 3287,
      "Mexico": 3288,
      "ibr": 3289,
      "aut": 3290,
      "ps": 3291,
      "aircraft": 3292,
      "tre": 3293,
      "science": 3294,
      "thought": 3295,
      "having": 3296,
      "Haven": 3297,
      "teach": 3298,
      "member": 3299,
      "White": 3300,
      "circ": 3301,
      "Oklah": 3302,
      "Li": 3303,
      "thing": 3304,
      "itive": 3305,
      "according": 3306,
      "minor": 3307,
      "changes": 3308,
      "ery": 3309,
      "liament": 3310,
      "Island": 3311,
      "Victoria": 3312,
      "Iran": 3313,
      "trav": 3314,
      "primary": 3315,
      "Royal": 3316,
      "dig": 3317,
      "Center": 3318,
      "enh": 3319,
      "tour": 3320,
      "plants": 3321,
      "Des": 3322,
      "uries": 3323,
      "iple": 3324,
      "capac": 3325,
      "elves": 3326,
      "occup": 3327,
      "itself": 3328,
      "communic": 3329,
      "distin": 3330,
      "Tu": 3331,
      "best": 3332,
      "improv": 3333,
      "Comp": 3334,
      "sof": 3335,
      "private": 3336,
      "28": 3337,
      "dro": 3338,
      "argu": 3339,
      "suggest": 3340,
      "Mel": 3341,
      "text": 3342,
      "tax": 3343,
      "across": 3344,
      "Oklahoma": 3345,
      "Am": 3346,
      "adem": 3347,
      "sat": 3348,
      "information": 3349,
      "health": 3350,
      "90": 3351,
      "Battle": 3352,
      "Soc": 3353,
      "atter": 3354,
      "manu": 3355,
      "pose": 3356,
      "consider": 3357,
      "sexual": 3358,
      "hab": 3359,
      "construction": 3360,
      "Sam": 3361,
      "atory": 3362,
      "chem": 3363,
      "idge": 3364,
      "26": 3365,
      "Cub": 3366,
      "Te": 3367,
      "bacter": 3368,
      "games": 3369,
      "seen": 3370,
      "northern": 3371,
      "lines": 3372,
      "project": 3373,
      "plant": 3374,
      "ights": 3375,
      "accoun": 3376,
      "hood": 3377,
      "find": 3378,
      "thems": 3379,
      "ases": 3380,
      "access": 3381,
      "aff": 3382,
      "syn": 3383,
      "flict": 3384,
      "protect": 3385,
      "associated": 3386,
      "achiev": 3387,
      "good": 3388,
      "stitute": 3389,
      "series": 3390,
      "asons": 3391,
      "received": 3392,
      "Rome": 3393,
      "constitution": 3394,
      "corpor": 3395,
      "Along": 3396,
      "maintain": 3397,
      "famous": 3398,
      "dam": 3399,
      "rather": 3400,
      "Commun": 3401,
      "organization": 3402,
      "ethnic": 3403,
      "venue": 3404,
      "pain": 3405,
      "commercial": 3406,
      "vironment": 3407,
      "ben": 3408,
      "particularly": 3409,
      "themselves": 3410,
      "Court": 3411,
      "exam": 3412,
      "Asia": 3413,
      "500": 3414,
      "Me": 3415,
      "UK": 3416,
      "southern": 3417,
      "Wind": 3418,
      "mix": 3419,
      "vict": 3420,
      "board": 3421,
      "Lu": 3422,
      "cle": 3423,
      "care": 3424,
      "emer": 3425,
      "coast": 3426,
      "Her": 3427,
      "train": 3428,
      "bruary": 3429,
      "types": 3430,
      "February": 3431,
      "anti": 3432,
      "viol": 3433,
      "estim": 3434,
      "intern": 3435,
      "Canada": 3436,
      "required": 3437,
      "birds": 3438,
      "hour": 3439,
      "cret": 3440,
      "Central": 3441,
      "brought": 3442,
      "III": 3443,
      "oney": 3444,
      "community": 3445,
      "title": 3446,
      "gress": 3447,
      "ibe": 3448,
      "mor": 3449,
      "spo": 3450,
      "tru": 3451,
      "economy": 3452,
      "instru": 3453,
      "erry": 3454,
      "fort": 3455,
      "today": 3456,
      "Arch": 3457,
      "loss": 3458,
      "Bell": 3459,
      "typically": 3460,
      "dynasty": 3461,
      "enter": 3462,
      "full": 3463,
      "designed": 3464,
      "appoint": 3465,
      "command": 3466,
      "Bost": 3467,
      "Mary": 3468,
      "hom": 3469,
      "neigh": 3470,
      "speak": 3471,
      "policy": 3472,
      "Eastern": 3473,
      "either": 3474,
      "ancient": 3475,
      "ising": 3476,
      "perial": 3477,
      "services": 3478,
      "elev": 3479,
      "served": 3480,
      "execut": 3481,
      "ades": 3482,
      "Although": 3483,
      "29": 3484,
      "isl": 3485,
      "sw": 3486,
      "oles": 3487,
      "respon": 3488,
      "atal": 3489,
      "sea": 3490,
      "urban": 3491,
      "ena": 3492,
      "Bal": 3493,
      "Vir": 3494,
      "eder": 3495,
      "We": 3496,
      "bran": 3497,
      "osp": 3498,
      "version": 3499,
      "race": 3500,
      "station": 3501,
      "meet": 3502,
      "Har": 3503,
      "jing": 3504,
      "rap": 3505,
      "least": 3506,
      "bon": 3507,
      "hib": 3508,
      "neg": 3509,
      "consist": 3510,
      "Hol": 3511,
      "centuries": 3512,
      "started": 3513,
      "Dem": 3514,
      "affect": 3515,
      "status": 3516,
      "While": 3517,
      "coming": 3518,
      "deb": 3519,
      "events": 3520,
      "draw": 3521,
      "fem": 3522,
      "Revolution": 3523,
      "football": 3524,
      "media": 3525,
      "increasing": 3526,
      "log": 3527,
      "185": 3528,
      "Boston": 3529,
      "doc": 3530,
      "oted": 3531,
      "troops": 3532,
      "amount": 3533,
      "ends": 3534,
      "leader": 3535,
      "individual": 3536,
      "manufact": 3537,
      "Paul": 3538,
      "Alex": 3539,
      "indic": 3540,
      "istan": 3541,
      "source": 3542,
      "fa": 3543,
      "size": 3544,
      "whom": 3545,
      "upon": 3546,
      "ilities": 3547,
      "conflict": 3548,
      "center": 3549,
      "Scot": 3550,
      "regul": 3551,
      "institut": 3552,
      "ona": 3553,
      "entire": 3554,
      "whe": 3555,
      "Dar": 3556,
      "referred": 3557,
      "architecture": 3558,
      "capt": 3559,
      "fav": 3560,
      "iel": 3561,
      "conduct": 3562,
      "Australia": 3563,
      "La": 3564,
      "district": 3565,
      "High": 3566,
      "specific": 3567,
      "onna": 3568,
      "rown": 3569,
      "born": 3570,
      "Tw": 3571,
      "cus": 3572,
      "pay": 3573,
      "gether": 3574,
      "words": 3575,
      "outside": 3576,
      "FA": 3577,
      "My": 3578,
      "pir": 3579,
      "2000": 3580,
      "buildings": 3581,
      "companies": 3582,
      "186": 3583,
      "critic": 3584,
      "hu": 3585,
      "2004": 3586,
      "Atl": 3587,
      "citiz": 3588,
      "laws": 3589,
      "Emperor": 3590,
      "porary": 3591,
      "gin": 3592,
      "select": 3593,
      "Carol": 3594,
      "ster": 3595,
      "speed": 3596,
      "philosophy": 3597,
      "ank": 3598,
      "transl": 3599,
      "move": 3600,
      "applic": 3601,
      "treaty": 3602,
      "Charles": 3603,
      "Hy": 3604,
      "UN": 3605,
      "base": 3606,
      "almost": 3607,
      "CA": 3608,
      "Per": 3609,
      "cel": 3610,
      "ored": 3611,
      "working": 3612,
      "invent": 3613,
      "Not": 3614,
      "Americans": 3615,
      "produce": 3616,
      "visit": 3617,
      "35": 3618,
      "Hen": 3619,
      "iment": 3620,
      "strict": 3621,
      "leaders": 3622,
      "independent": 3623,
      "Bra": 3624,
      "mountain": 3625,
      "acqu": 3626,
      "oil": 3627,
      "utr": 3628,
      "resist": 3629,
      "prevent": 3630,
      "electr": 3631,
      "election": 3632,
      "leading": 3633,
      "Old": 3634,
      "big": 3635,
      "cases": 3636,
      "living": 3637,
      "ring": 3638,
      "wind": 3639,
      "onom": 3640,
      "front": 3641,
      "regions": 3642,
      "sett": 3643,
      "computer": 3644,
      "settle": 3645,
      "70": 3646,
      "respect": 3647,
      "active": 3648,
      "followed": 3649,
      "ES": 3650,
      "ios": 3651,
      "etic": 3652,
      "preme": 3653,
      "Saint": 3654,
      "stop": 3655,
      "pton": 3656,
      "Wash": 3657,
      "Madonna": 3658,
      "curity": 3659,
      "mechan": 3660,
      "ensus": 3661,
      "scientific": 3662,
      "Party": 3663,
      "environment": 3664,
      "Reg": 3665,
      "aign": 3666,
      "wealth": 3667,
      "ded": 3668,
      "hor": 3669,
      "rac": 3670,
      "lik": 3671,
      "provided": 3672,
      "AC": 3673,
      "Federal": 3674,
      "James": 3675,
      "fig": 3676,
      "erous": 3677,
      "atives": 3678,
      "idents": 3679,
      "189": 3680,
      "bul": 3681,
      "ledge": 3682,
      "Eis": 3683,
      "Most": 3684,
      "express": 3685,
      ".,": 3686,
      "manag": 3687,
      "radio": 3688,
      "mad": 3689,
      "empire": 3690,
      "territory": 3691,
      "announced": 3692,
      "taken": 3693,
      "office": 3694,
      "passed": 3695,
      "Idol": 3696,
      "whose": 3697,
      "Congress": 3698,
      "ream": 3699,
      "imp": 3700,
      "means": 3701,
      "beginning": 3702,
      "described": 3703,
      "Gal": 3704,
      "compon": 3705,
      "standing": 3706,
      "believe": 3707,
      "television": 3708,
      "ique": 3709,
      "lay": 3710,
      "structure": 3711,
      "lack": 3712,
      "isto": 3713,
      "seven": 3714,
      "iger": 3715,
      "create": 3716,
      "Russia": 3717,
      "ximately": 3718,
      "Times": 3719,
      "father": 3720,
      "augh": 3721,
      "lost": 3722,
      "abs": 3723,
      "dise": 3724,
      "universities": 3725,
      "Washington": 3726,
      "\"?": 3727,
      "If": 3728,
      "Ire": 3729,
      "Pu": 3730,
      "Slav": 3731,
      "bey": 3732,
      "function": 3733,
      "thodox": 3734,
      "together": 3735,
      "except": 3736,
      "classical": 3737,
      "Ser": 3738,
      "gain": 3739,
      "vo": 3740,
      "atch": 3741,
      "reason": 3742,
      "elected": 3743,
      "Italy": 3744,
      "Company": 3745,
      "Alexand": 3746,
      "brain": 3747,
      "Philip": 3748,
      "docu": 3749,
      "itor": 3750,
      "expand": 3751,
      "eastern": 3752,
      "ming": 3753,
      "complex": 3754,
      "Cr": 3755,
      "Mont": 3756,
      "past": 3757,
      "technology": 3758,
      "reported": 3759,
      "broadcast": 3760,
      "benef": 3761,
      "uel": 3762,
      "commonly": 3763,
      "Italian": 3764,
      "cript": 3765,
      "Dr": 3766,
      "might": 3767,
      "acters": 3768,
      "teen": 3769,
      "meaning": 3770,
      "Since": 3771,
      "next": 3772,
      "counter": 3773,
      "powers": 3774,
      "forced": 3775,
      "continent": 3776,
      "Ireland": 3777,
      "Gl": 3778,
      "sit": 3779,
      "ford": 3780,
      "forman": 3781,
      "diffic": 3782,
      "legisl": 3783,
      "network": 3784,
      "45": 3785,
      "iding": 3786,
      "believed": 3787,
      "yl": 3788,
      "188": 3789,
      "Islamic": 3790,
      "Nan": 3791,
      "street": 3792,
      "share": 3793,
      "enhower": 3794,
      "Eisenhower": 3795,
      "pite": 3796,
      "thus": 3797,
      "insect": 3798,
      "itch": 3799,
      "Fir": 3800,
      "destroy": 3801,
      "Lou": 3802,
      "rise": 3803,
      "limited": 3804,
      "Ste": 3805,
      "money": 3806,
      "replaced": 3807,
      "involved": 3808,
      "instead": 3809,
      "Bron": 3810,
      "Olym": 3811,
      "fre": 3812,
      "release": 3813,
      "Apple": 3814,
      "difficult": 3815,
      "Olymp": 3816,
      "Bel": 3817,
      "PC": 3818,
      "oks": 3819,
      "away": 3820,
      "Ca": 3821,
      "uals": 3822,
      "vin": 3823,
      "aps": 3824,
      "green": 3825,
      "ping": 3826,
      "larger": 3827,
      "organism": 3828,
      "remained": 3829,
      "responsible": 3830,
      "ousand": 3831,
      "cele": 3832,
      "cred": 3833,
      "characters": 3834,
      "animals": 3835,
      "Plym": 3836,
      "uk": 3837,
      "ampton": 3838,
      "close": 3839,
      "paper": 3840,
      "ste": 3841,
      "exper": 3842,
      "ocr": 3843,
      "ills": 3844,
      "above": 3845,
      "quality": 3846,
      "target": 3847,
      "Black": 3848,
      "temperature": 3849,
      "stor": 3850,
      "ceed": 3851,
      "plied": 3852,
      "studies": 3853,
      "birth": 3854,
      "AD": 3855,
      "bed": 3856,
      "gas": 3857,
      "never": 3858,
      "issue": 3859,
      "bourne": 3860,
      "cross": 3861,
      "gave": 3862,
      "ida": 3863,
      "ets": 3864,
      "Cypr": 3865,
      "police": 3866,
      "independence": 3867,
      "First": 3868,
      "CD": 3869,
      "mostly": 3870,
      "engine": 3871,
      "itation": 3872,
      "afi": 3873,
      "earth": 3874,
      "tware": 3875,
      "spread": 3876,
      "prior": 3877,
      "Thom": 3878,
      "campaign": 3879,
      "alt": 3880,
      "contribut": 3881,
      "performan": 3882,
      "transport": 3883,
      "hydro": 3884,
      "ane": 3885,
      "oul": 3886,
      "igen": 3887,
      "vert": 3888,
      "widely": 3889,
      "Atlantic": 3890,
      "don": 3891,
      "ert": 3892,
      "society": 3893,
      "Gadd": 3894,
      "Univers": 3895,
      "particip": 3896,
      "iest": 3897,
      "sell": 3898,
      "expect": 3899,
      "necess": 3900,
      "died": 3901,
      "youn": 3902,
      "fri": 3903,
      "break": 3904,
      "Do": 3905,
      "battle": 3906,
      "emot": 3907,
      "iang": 3908,
      "doct": 3909,
      "polog": 3910,
      "includes": 3911,
      "Protest": 3912,
      "teams": 3913,
      "rich": 3914,
      "threat": 3915,
      "asse": 3916,
      "valu": 3917,
      "claimed": 3918,
      "months": 3919,
      "square": 3920,
      "infr": 3921,
      "anth": 3922,
      "obal": 3923,
      "surv": 3924,
      "Dav": 3925,
      "mach": 3926,
      "climate": 3927,
      "Mu": 3928,
      "inent": 3929,
      "ula": 3930,
      "ney": 3931,
      "print": 3932,
      "berg": 3933,
      "require": 3934,
      "influenced": 3935,
      "Windows": 3936,
      "nal": 3937,
      "wards": 3938,
      "atively": 3939,
      "behav": 3940,
      "estimated": 3941,
      "celebr": 3942,
      "Pers": 3943,
      "border": 3944,
      "famil": 3945,
      "opened": 3946,
      "Melbourne": 3947,
      "hot": 3948,
      "princ": 3949,
      "symb": 3950,
      "Grand": 3951,
      "relationship": 3952,
      "Hou": 3953,
      "uit": 3954,
      "Southampton": 3955,
      "Plymouth": 3956,
      "Kerry": 3957,
      "ires": 3958,
      "commit": 3959,
      "ength": 3960,
      "Supreme": 3961,
      "Carolina": 3962,
      "gar": 3963,
      "ns": 3964,
      "demo": 3965,
      "Gaddafi": 3966,
      "tom": 3967,
      "evidence": 3968,
      "glass": 3969,
      "Museum": 3970,
      "excl": 3971,
      "primarily": 3972,
      "aving": 3973,
      "originally": 3974,
      "fire": 3975,
      "mother": 3976,
      "ibility": 3977,
      "18th": 3978,
      "keep": 3979,
      "week": 3980,
      "greater": 3981,
      "potential": 3982,
      "che": 3983,
      "Institute": 3984,
      "Assoc": 3985,
      "domestic": 3986,
      "you": 3987,
      "chemical": 3988,
      "Jes": 3989,
      "isions": 3990,
      "demon": 3991,
      "approv": 3992,
      "invas": 3993,
      "separate": 3994,
      "cé": 3995,
      "solar": 3996,
      "distinct": 3997,
      "She": 3998,
      "portion": 3999,
      "box": 4000,
      "kingdom": 4001,
      "Portugu": 4002,
      "killed": 4003,
      "thousand": 4004,
      "practice": 4005,
      "nature": 4006,
      "iter": 4007,
      "uda": 4008,
      "Spain": 4009,
      "Ir": 4010,
      "Mal": 4011,
      "drop": 4012,
      "lic": 4013,
      "inte": 4014,
      "2003": 4015,
      "regular": 4016,
      "personal": 4017,
      "levels": 4018,
      "Henry": 4019,
      "Portuguese": 4020,
      "Cup": 4021,
      "eneg": 4022,
      "Canadian": 4023,
      "software": 4024,
      "Detro": 4025,
      "wall": 4026,
      "theast": 4027,
      "ito": 4028,
      "perform": 4029,
      "actions": 4030,
      "ference": 4031,
      "effic": 4032,
      "records": 4033,
      "physical": 4034,
      "Democr": 4035,
      "ror": 4036,
      "Under": 4037,
      "added": 4038,
      "Houston": 4039,
      "Detroit": 4040,
      "Yale": 4041,
      "thes": 4042,
      "determin": 4043,
      "estival": 4044,
      "award": 4045,
      "Portugal": 4046,
      "likely": 4047,
      "cut": 4048,
      "give": 4049,
      "ograph": 4050,
      "tition": 4051,
      "decre": 4052,
      "istics": 4053,
      "serve": 4054,
      "adium": 4055,
      "annual": 4056,
      "habit": 4057,
      "LE": 4058,
      "usion": 4059,
      "Catal": 4060,
      "Treat": 4061,
      "room": 4062,
      "track": 4063,
      "historical": 4064,
      "knowledge": 4065,
      "Niger": 4066,
      "night": 4067,
      "peace": 4068,
      "Beyon": 4069,
      "pal": 4070,
      "pun": 4071,
      "went": 4072,
      "ises": 4073,
      "construct": 4074,
      "deal": 4075,
      "aval": 4076,
      "elements": 4077,
      "supported": 4078,
      "vention": 4079,
      "divided": 4080,
      "labor": 4081,
      "institutions": 4082,
      "demonstr": 4083,
      "Hist": 4084,
      "Mich": 4085,
      "iot": 4086,
      "nuc": 4087,
      "ering": 4088,
      "183": 4089,
      "Constitution": 4090,
      "AF": 4091,
      "Dev": 4092,
      "Law": 4093,
      "van": 4094,
      "DNA": 4095,
      "von": 4096,
      "Beyoncé": 4097,
      "\")": 4098,
      "ying": 4099,
      "mot": 4100,
      "parties": 4101,
      "plement": 4102,
      "eventually": 4103,
      "die": 4104,
      "travel": 4105,
      "abe": 4106,
      "bal": 4107,
      "agric": 4108,
      "ife": 4109,
      "mond": 4110,
      "adopted": 4111,
      "Ter": 4112,
      "site": 4113,
      "ission": 4114,
      "paren": 4115,
      "infect": 4116,
      "ille": 4117,
      "ays": 4118,
      "humans": 4119,
      "75": 4120,
      "Flor": 4121,
      "super": 4122,
      "notable": 4123,
      "Marsh": 4124,
      "defined": 4125,
      "Delhi": 4126,
      "bacteria": 4127,
      "agricult": 4128,
      "nearly": 4129,
      "conf": 4130,
      "arts": 4131,
      "longer": 4132,
      "helped": 4133,
      "48": 4134,
      "Str": 4135,
      "god": 4136,
      "hon": 4137,
      "hism": 4138,
      "agreement": 4139,
      "experience": 4140,
      "fight": 4141,
      "gun": 4142,
      "sens": 4143,
      "plann": 4144,
      "azi": 4145,
      "MP": 4146,
      "formal": 4147,
      "oldest": 4148,
      "value": 4149,
      "little": 4150,
      "changed": 4151,
      "approach": 4152,
      "earlier": 4153,
      "discovered": 4154,
      "itzer": 4155,
      "ropolog": 4156,
      "operations": 4157,
      "suffer": 4158,
      "sil": 4159,
      "comes": 4160,
      "spir": 4161,
      "Hay": 4162,
      "lying": 4163,
      "code": 4164,
      "earliest": 4165,
      "altern": 4166,
      "itness": 4167,
      "crim": 4168,
      "regional": 4169,
      "gradu": 4170,
      "Red": 4171,
      "eight": 4172,
      "hunt": 4173,
      "stations": 4174,
      "declared": 4175,
      "mosa": 4176,
      "pon": 4177,
      "spr": 4178,
      "Sum": 4179,
      "contr": 4180,
      "reached": 4181,
      "anc": 4182,
      "ipal": 4183,
      "2001": 4184,
      "identity": 4185,
      "migration": 4186,
      "igenous": 4187,
      "reject": 4188,
      "cean": 4189,
      "photo": 4190,
      "airs": 4191,
      "situ": 4192,
      "orient": 4193,
      "acts": 4194,
      "Art": 4195,
      "variety": 4196,
      "royal": 4197,
      "ibrary": 4198,
      "larg": 4199,
      "copper": 4200,
      "ean": 4201,
      "contem": 4202,
      "reflect": 4203,
      "Minister": 4204,
      "response": 4205,
      "Nations": 4206,
      "card": 4207,
      "Islands": 4208,
      "authority": 4209,
      "(\"": 4210,
      "No": 4211,
      "cand": 4212,
      "middle": 4213,
      "Prince": 4214,
      "Korea": 4215,
      "Louis": 4216,
      "clear": 4217,
      "fut": 4218,
      "ls": 4219,
      "lived": 4220,
      "ino": 4221,
      "too": 4222,
      "purpose": 4223,
      "approximately": 4224,
      "bes": 4225,
      "erc": 4226,
      "monarch": 4227,
      "dominant": 4228,
      "Pod": 4229,
      "annel": 4230,
      "directly": 4231,
      "tail": 4232,
      "firm": 4233,
      "spect": 4234,
      "Sal": 4235,
      "ention": 4236,
      "churches": 4237,
      "ready": 4238,
      "activity": 4239,
      "problems": 4240,
      "BM": 4241,
      "Mag": 4242,
      "Prem": 4243,
      "arian": 4244,
      "encies": 4245,
      "miles": 4246,
      "league": 4247,
      "warz": 4248,
      "numbers": 4249,
      "belief": 4250,
      "Force": 4251,
      "features": 4252,
      "Switzer": 4253,
      "Schwarz": 4254,
      "discuss": 4255,
      "whether": 4256,
      "largely": 4257,
      "Dell": 4258,
      "Die": 4259,
      "Mod": 4260,
      "erve": 4261,
      "Darwin": 4262,
      "Spe": 4263,
      "icle": 4264,
      "writing": 4265,
      "Orthodox": 4266,
      "join": 4267,
      "enegger": 4268,
      "Schwarzenegger": 4269,
      "Second": 4270,
      "iverse": 4271,
      "scale": 4272,
      "Ash": 4273,
      "Du": 4274,
      "lers": 4275,
      "via": 4276,
      "ift": 4277,
      "Northern": 4278,
      "rapid": 4279,
      "Switzerland": 4280,
      "format": 4281,
      "izations": 4282,
      "recording": 4283,
      "ark": 4284,
      "pattern": 4285,
      "recorded": 4286,
      "cotton": 4287,
      "products": 4288,
      "signed": 4289,
      "better": 4290,
      "neighbor": 4291,
      "Cal": 4292,
      "Dig": 4293,
      "Hall": 4294,
      "dou": 4295,
      "hop": 4296,
      "mis": 4297,
      "iance": 4298,
      "interpre": 4299,
      "Music": 4300,
      "scholars": 4301,
      "Nanjing": 4302,
      "ains": 4303,
      "communities": 4304,
      "bomb": 4305,
      "Thomas": 4306,
      "integr": 4307,
      "names": 4308,
      "else": 4309,
      "Station": 4310,
      "belong": 4311,
      "rupt": 4312,
      "People": 4313,
      "Association": 4314,
      "Bro": 4315,
      "Pac": 4316,
      "adoles": 4317,
      "tee": 4318,
      "ampion": 4319,
      "DS": 4320,
      "categ": 4321,
      "owned": 4322,
      "ranked": 4323,
      "Angl": 4324,
      "aur": 4325,
      "rat": 4326,
      "aring": 4327,
      "drug": 4328,
      "transfer": 4329,
      "ordin": 4330,
      "Mo": 4331,
      "players": 4332,
      "folk": 4333,
      "division": 4334,
      "receive": 4335,
      "iami": 4336,
      "industrial": 4337,
      "houses": 4338,
      "iPod": 4339,
      "rew": 4340,
      "stream": 4341,
      "adult": 4342,
      "astic": 4343,
      "mainly": 4344,
      "dogs": 4345,
      "Miami": 4346,
      "ctions": 4347,
      "ern": 4348,
      "antenna": 4349,
      "newsp": 4350,
      "operation": 4351,
      "smaller": 4352,
      "remains": 4353,
      "hours": 4354,
      "Mah": 4355,
      "psy": 4356,
      "2002": 4357,
      "ieval": 4358,
      "towards": 4359,
      "focus": 4360,
      "kil": 4361,
      "ishing": 4362,
      "issues": 4363,
      "devices": 4364,
      "Bronx": 4365,
      "fle": 4366,
      "qual": 4367,
      "conditions": 4368,
      "undred": 4369,
      "literature": 4370,
      "spoken": 4371,
      "Treaty": 4372,
      "isation": 4373,
      "definition": 4374,
      "Hel": 4375,
      "Kh": 4376,
      "ech": 4377,
      "attract": 4378,
      "compared": 4379,
      "copy": 4380,
      "wrest": 4381,
      "stated": 4382,
      "concl": 4383,
      "aily": 4384,
      "occurred": 4385,
      "Jesus": 4386,
      "Premier": 4387,
      "Mor": 4388,
      "saf": 4389,
      "USB": 4390,
      "bell": 4391,
      "mut": 4392,
      "phen": 4393,
      "location": 4394,
      "Sea": 4395,
      "subsequ": 4396,
      "currently": 4397,
      "Florida": 4398,
      "Cap": 4399,
      "cod": 4400,
      "acu": 4401,
      "avo": 4402,
      "aves": 4403,
      "programs": 4404,
      "Universal": 4405,
      "ita": 4406,
      "iles": 4407,
      "auto": 4408,
      "Common": 4409,
      "Department": 4410,
      "residents": 4411,
      "artists": 4412,
      "expans": 4413,
      "torch": 4414,
      "future": 4415,
      "purch": 4416,
      "aspect": 4417,
      "content": 4418,
      "idea": 4419,
      "ideas": 4420,
      "Estonia": 4421,
      "Virgin": 4422,
      "gree": 4423,
      "isis": 4424,
      "poly": 4425,
      "anye": 4426,
      "ennes": 4427,
      "burg": 4428,
      "31": 4429,
      "300": 4430,
      "400": 4431,
      "65": 4432,
      "iations": 4433,
      "river": 4434,
      "stone": 4435,
      "poor": 4436,
      "books": 4437,
      "Seattle": 4438,
      "officially": 4439,
      "launched": 4440,
      "Southern": 4441,
      "native": 4442,
      "islands": 4443,
      "protest": 4444,
      "Stud": 4445,
      "always": 4446,
      "contest": 4447,
      "1980s": 4448,
      "Buddhism": 4449,
      "SR": 4450,
      "stren": 4451,
      "ellig": 4452,
      "surround": 4453,
      "Valenc": 4454,
      "eas": 4455,
      "nia": 4456,
      "zinc": 4457,
      "match": 4458,
      "performance": 4459,
      "Dame": 4460,
      "Kanye": 4461,
      "fif": 4462,
      "rom": 4463,
      "incorpor": 4464,
      "amed": 4465,
      "Def": 4466,
      "iqu": 4467,
      "abad": 4468,
      "phon": 4469,
      "And": 4470,
      "Armenian": 4471,
      "female": 4472,
      "invasion": 4473,
      "Day": 4474,
      "marked": 4475,
      ",\"": 4476,
      "Qu": 4477,
      "nob": 4478,
      "degree": 4479,
      "motor": 4480,
      "Inter": 4481,
      "electron": 4482,
      "memory": 4483,
      "matter": 4484,
      "Earth": 4485,
      "minority": 4486,
      "Football": 4487,
      "bound": 4488,
      "rank": 4489,
      "Frank": 4490,
      "Eliz": 4491,
      "uranium": 4492,
      "citizens": 4493,
      "hind": 4494,
      "ria": 4495,
      "ya": 4496,
      "izing": 4497,
      "resulted": 4498,
      "himself": 4499,
      "Airport": 4500,
      "David": 4501,
      "Pacific": 4502,
      "LED": 4503,
      "Hell": 4504,
      "Mc": 4505,
      "Pat": 4506,
      "Albert": 4507,
      "populations": 4508,
      "metal": 4509,
      "holds": 4510,
      "anthropolog": 4511,
      "IS": 4512,
      "sun": 4513,
      "volt": 4514,
      "animal": 4515,
      "Government": 4516,
      "revolution": 4517,
      "cretary": 4518,
      "Elizabe": 4519,
      "ging": 4520,
      "hit": 4521,
      "atom": 4522,
      "restrict": 4523,
      "creation": 4524,
      "180": 4525,
      "college": 4526,
      "summer": 4527,
      "mbly": 4528,
      "administration": 4529,
      "Braz": 4530,
      "streng": 4531,
      "PA": 4532,
      "makes": 4533,
      "crisis": 4534,
      "speaking": 4535,
      "coll": 4536,
      "cells": 4537,
      "sources": 4538,
      "nov": 4539,
      "ara": 4540,
      "tered": 4541,
      "ension": 4542,
      "1970s": 4543,
      "problem": 4544,
      "Prussia": 4545,
      "Green": 4546,
      "Bay": 4547,
      "Lab": 4548,
      "mill": 4549,
      "nations": 4550,
      "heavy": 4551,
      "store": 4552,
      "reign": 4553,
      "iberal": 4554,
      "describe": 4555,
      "competition": 4556,
      "individuals": 4557,
      "Richard": 4558,
      "Irish": 4559,
      "gold": 4560,
      "anced": 4561,
      "demand": 4562,
      "resour": 4563,
      "transmit": 4564,
      "direction": 4565,
      "Tibetan": 4566,
      "Protestant": 4567,
      "Diego": 4568,
      "path": 4569,
      "conserv": 4570,
      "surface": 4571,
      "controlled": 4572,
      "look": 4573,
      "property": 4574,
      "professional": 4575,
      "Notre": 4576,
      "hunting": 4577,
      "cis": 4578,
      "fix": 4579,
      "step": 4580,
      "centre": 4581,
      "politan": 4582,
      "Robert": 4583,
      "Techn": 4584,
      "ols": 4585,
      "assist": 4586,
      "Conf": 4587,
      "respond": 4588,
      "Bu": 4589,
      "pie": 4590,
      "vote": 4591,
      "olin": 4592,
      "granted": 4593,
      "1990s": 4594,
      "allows": 4595,
      "Avenue": 4596,
      "Jer": 4597,
      "perman": 4598,
      "jour": 4599,
      "headquar": 4600,
      "complete": 4601,
      "families": 4602,
      "Ming": 4603,
      "ners": 4604,
      "thedr": 4605,
      "highly": 4606,
      "student": 4607,
      "disease": 4608,
      "mir": 4609,
      "centr": 4610,
      "soldiers": 4611,
      "44": 4612,
      "Civil": 4613,
      "Over": 4614,
      "Tito": 4615,
      "Tennes": 4616,
      "sam": 4617,
      "tu": 4618,
      "antib": 4619,
      "quant": 4620,
      "soon": 4621,
      "County": 4622,
      "expansion": 4623,
      "CE": 4624,
      "Mil": 4625,
      "Wal": 4626,
      "ingu": 4627,
      "ems": 4628,
      "ume": 4629,
      "worldwide": 4630,
      "contemporary": 4631,
      "complet": 4632,
      "involv": 4633,
      "previously": 4634,
      "Liby": 4635,
      "digital": 4636,
      "AS": 4637,
      "Fort": 4638,
      "eg": 4639,
      "mob": 4640,
      "proposed": 4641,
      "Armenia": 4642,
      "examples": 4643,
      "length": 4644,
      "nd": 4645,
      "indigenous": 4646,
      "clubs": 4647,
      "Whitehead": 4648,
      "winter": 4649,
      "income": 4650,
      "units": 4651,
      "cannot": 4652,
      "global": 4653,
      "azine": 4654,
      "appointed": 4655,
      "Elizabeth": 4656,
      "Tennessee": 4657,
      "Fol": 4658,
      "rang": 4659,
      "ym": 4660,
      "weap": 4661,
      "decline": 4662,
      "Richmond": 4663,
      "Imperial": 4664,
      "impact": 4665,
      "document": 4666,
      "Apol": 4667,
      "rid": 4668,
      "voc": 4669,
      "umb": 4670,
      "flo": 4671,
      "Turk": 4672,
      "Marshall": 4673,
      "Hayek": 4674,
      "78": 4675,
      "mas": 4676,
      "ivity": 4677,
      "blood": 4678,
      "goal": 4679,
      "Class": 4680,
      "HD": 4681,
      "Human": 4682,
      "ky": 4683,
      "repe": 4684,
      "becoming": 4685,
      "contract": 4686,
      "phere": 4687,
      "genetic": 4688,
      "encour": 4689,
      "ruled": 4690,
      "Sir": 4691,
      "VI": 4692,
      "forts": 4693,
      "conver": 4694,
      "byter": 4695,
      "Alask": 4696,
      "province": 4697,
      "provides": 4698,
      "decade": 4699,
      "Pope": 4700,
      "Ages": 4701,
      "fell": 4702,
      "chief": 4703,
      "academ": 4704,
      "relatively": 4705,
      "metro": 4706,
      "defeated": 4707,
      "training": 4708,
      "racial": 4709,
      "95": 4710,
      "igation": 4711,
      "bish": 4712,
      "dens": 4713,
      "alle": 4714,
      "icago": 4715,
      "umann": 4716,
      "Parliament": 4717,
      "graphy": 4718,
      "device": 4719,
      "reduced": 4720,
      "branch": 4721,
      "hydrogen": 4722,
      "sports": 4723,
      "anta": 4724,
      "Greeks": 4725,
      "1960s": 4726,
      "account": 4727,
      "33": 4728,
      "script": 4729,
      "edom": 4730,
      "stage": 4731,
      "security": 4732,
      "adel": 4733,
      "themat": 4734,
      "decided": 4735,
      "growing": 4736,
      "attacks": 4737,
      "micro": 4738,
      "Mic": 4739,
      "Sen": 4740,
      "appeared": 4741,
      "advant": 4742,
      "philosoph": 4743,
      "Burke": 4744,
      "question": 4745,
      "hundred": 4746,
      "opt": 4747,
      "Intern": 4748,
      "Chicago": 4749,
      "ieties": 4750,
      "basis": 4751,
      "basic": 4752,
      "dialects": 4753,
      "Div": 4754,
      "Mountain": 4755,
      "aser": 4756,
      "prison": 4757,
      "publican": 4758,
      "supply": 4759,
      "contains": 4760,
      "oples": 4761,
      "Asian": 4762,
      "address": 4763,
      "Are": 4764,
      "gel": 4765,
      "ients": 4766,
      "duc": 4767,
      "below": 4768,
      "musical": 4769,
      "continue": 4770,
      "Trans": 4771,
      "Catalan": 4772,
      "Oper": 4773,
      "gather": 4774,
      "hun": 4775,
      "exts": 4776,
      "presence": 4777,
      "parliament": 4778,
      "rules": 4779,
      "territories": 4780,
      "happened": 4781,
      "young": 4782,
      "sus": 4783,
      "sense": 4784,
      "emphas": 4785,
      "quake": 4786,
      "Christianity": 4787,
      "Tuvalu": 4788,
      "Hyder": 4789,
      "FB": 4790,
      "atre": 4791,
      "applied": 4792,
      "relations": 4793,
      "bring": 4794,
      "Ant": 4795,
      "1991": 4796,
      "Society": 4797,
      "numerous": 4798,
      "operating": 4799,
      "satell": 4800,
      "favor": 4801,
      "Jose": 4802,
      "Quran": 4803,
      "section": 4804,
      "Another": 4805,
      "medical": 4806,
      "element": 4807,
      "course": 4808,
      "effects": 4809,
      "fiel": 4810,
      "Polish": 4811,
      "psych": 4812,
      "Av": 4813,
      "implement": 4814,
      "quick": 4815,
      "blue": 4816,
      "county": 4817,
      "charge": 4818,
      "bird": 4819,
      "existence": 4820,
      "campus": 4821,
      "activities": 4822,
      "audio": 4823,
      "argued": 4824,
      "Hellen": 4825,
      "Elect": 4826,
      "orial": 4827,
      "limit": 4828,
      "tribution": 4829,
      "load": 4830,
      "letter": 4831,
      "Barcel": 4832,
      "Cyprus": 4833,
      "Barcelona": 4834,
      "sales": 4835,
      "oute": 4836,
      "brew": 4837,
      "Byz": 4838,
      "multiple": 4839,
      "resistance": 4840,
      "Fin": 4841,
      "performed": 4842,
      "fully": 4843,
      "inner": 4844,
      "mixed": 4845,
      "Hyderabad": 4846,
      "PS": 4847,
      "ey": 4848,
      "think": 4849,
      "unit": 4850,
      "true": 4851,
      "bank": 4852,
      "officials": 4853,
      "faith": 4854,
      "done": 4855,
      "tes": 4856,
      "beer": 4857,
      "subs": 4858,
      "1990": 4859,
      "films": 4860,
      "covered": 4861,
      "Byzant": 4862,
      "sal": 4863,
      "ctic": 4864,
      "department": 4865,
      "ulation": 4866,
      "compl": 4867,
      "essential": 4868,
      "possess": 4869,
      "initially": 4870,
      "Brazil": 4871,
      "Bill": 4872,
      "wear": 4873,
      "behind": 4874,
      "contrast": 4875,
      "peoples": 4876,
      "Francis": 4877,
      "Off": 4878,
      "zech": 4879,
      "organisms": 4880,
      "ield": 4881,
      "sac": 4882,
      "things": 4883,
      "occas": 4884,
      "Recor": 4885,
      "Play": 4886,
      "methods": 4887,
      "Czech": 4888,
      "cu": 4889,
      "ously": 4890,
      "compar": 4891,
      "airport": 4892,
      "differences": 4893,
      "lighten": 4894,
      "49": 4895,
      "Domin": 4896,
      "Qing": 4897,
      "job": 4898,
      "derived": 4899,
      "irect": 4900,
      "Antar": 4901,
      "Christians": 4902,
      "audi": 4903,
      "System": 4904,
      "Alexander": 4905,
      "destroyed": 4906,
      "Rock": 4907,
      "attend": 4908,
      "provin": 4909,
      "ruption": 4910,
      "resulting": 4911,
      "settlement": 4912,
      "Serv": 4913,
      "ape": 4914,
      "already": 4915,
      "imon": 4916,
      "otes": 4917,
      "render": 4918,
      "observ": 4919,
      "cultures": 4920,
      "instrument": 4921,
      "consum": 4922,
      "obtain": 4923,
      "fourth": 4924,
      "Presbyter": 4925,
      "Berm": 4926,
      "Prussian": 4927,
      "necessary": 4928,
      "Jo": 4929,
      "Ur": 4930,
      "mm": 4931,
      "endo": 4932,
      "cles": 4933,
      "identified": 4934,
      "Order": 4935,
      "measure": 4936,
      "behavior": 4937,
      "fields": 4938,
      "Sol": 4939,
      "Tuc": 4940,
      "bot": 4941,
      "inking": 4942,
      "progress": 4943,
      "ciences": 4944,
      "nuclear": 4945,
      "lightenment": 4946,
      "Kar": 4947,
      "sov": 4948,
      "conqu": 4949,
      "player": 4950,
      "District": 4951,
      "doctr": 4952,
      "Mass": 4953,
      "want": 4954,
      "inet": 4955,
      "retain": 4956,
      "heat": 4957,
      "ereign": 4958,
      "exhib": 4959,
      "genes": 4960,
      "Bei": 4961,
      "Beyonce": 4962,
      "36": 4963,
      "fan": 4964,
      "aging": 4965,
      "peak": 4966,
      "phia": 4967,
      "phone": 4968,
      "igned": 4969,
      "practices": 4970,
      "joined": 4971,
      "reduce": 4972,
      "farm": 4973,
      "rates": 4974,
      "icine": 4975,
      "mod": 4976,
      "worth": 4977,
      "compress": 4978,
      "pressure": 4979,
      "movie": 4980,
      "150": 4981,
      "Neumann": 4982,
      "equip": 4983,
      "rare": 4984,
      "aled": 4985,
      "heart": 4986,
      "oph": 4987,
      "places": 4988,
      "elections": 4989,
      "prominent": 4990,
      "labour": 4991,
      "sector": 4992,
      "frequently": 4993,
      "failed": 4994,
      "democr": 4995,
      "Lord": 4996,
      "ike": 4997,
      "zone": 4998,
      "rect": 4999,
      "outheast": 5000,
      "elop": 5001,
      "geograph": 5002,
      "prefer": 5003,
      "Arsen": 5004,
      "flag": 5005,
      "glac": 5006,
      "Austria": 5007,
      "critical": 5008,
      "songs": 5009,
      "Publ": 5010,
      "Liber": 5011,
      "Po": 5012,
      "review": 5013,
      "uls": 5014,
      "cloth": 5015,
      "ella": 5016,
      "BCE": 5017,
      "Vi": 5018,
      "mel": 5019,
      "concentr": 5020,
      "Ann": 5021,
      "Commit": 5022,
      "results": 5023,
      "downtown": 5024,
      "Charl": 5025,
      "46": 5026,
      "Bas": 5027,
      "Cons": 5028,
      "ni": 5029,
      "older": 5030,
      "migrants": 5031,
      "Philadel": 5032,
      "agreed": 5033,
      "Arsenal": 5034,
      "BBC": 5035,
      "Cam": 5036,
      "More": 5037,
      "Rev": 5038,
      "wides": 5039,
      "reserv": 5040,
      "compr": 5041,
      "prec": 5042,
      "desc": 5043,
      "Lee": 5044,
      "decision": 5045,
      "Somali": 5046,
      "instruments": 5047,
      "ospital": 5048,
      "Its": 5049,
      "YU": 5050,
      "male": 5051,
      "tend": 5052,
      "apart": 5053,
      "elled": 5054,
      "ounds": 5055,
      "council": 5056,
      "lowing": 5057,
      "Because": 5058,
      "install": 5059,
      "carbon": 5060,
      "candid": 5061,
      "Apollo": 5062,
      "Internet": 5063,
      "Philadelphia": 5064,
      "32": 5065,
      "ault": 5066,
      "fill": 5067,
      "snow": 5068,
      "heav": 5069,
      "imin": 5070,
      "prob": 5071,
      "whole": 5072,
      "Secretary": 5073,
      "organizations": 5074,
      "secondary": 5075,
      "Australian": 5076,
      "insects": 5077,
      "spring": 5078,
      "aker": 5079,
      "contro": 5080,
      "build": 5081,
      "ception": 5082,
      "breed": 5083,
      "Egyptian": 5084,
      "Slavic": 5085,
      "42": 5086,
      "vill": 5087,
      "institution": 5088,
      "Chief": 5089,
      "affic": 5090,
      "block": 5091,
      "Commission": 5092,
      "completed": 5093,
      "38": 5094,
      "Sm": 5095,
      "slav": 5096,
      "oft": 5097,
      "bridge": 5098,
      "transition": 5099,
      "dollar": 5100,
      "internal": 5101,
      "expected": 5102,
      "Ashken": 5103,
      "99": 5104,
      "BYU": 5105,
      "latter": 5106,
      "nine": 5107,
      "taking": 5108,
      "seg": 5109,
      "immed": 5110,
      "intended": 5111,
      "factors": 5112,
      "returned": 5113,
      "communication": 5114,
      "executive": 5115,
      "controvers": 5116,
      "Bapt": 5117,
      "dance": 5118,
      "oral": 5119,
      "Constant": 5120,
      "standards": 5121,
      "Academ": 5122,
      "additional": 5123,
      "Cro": 5124,
      "Nam": 5125,
      "Ze": 5126,
      "spl": 5127,
      "dem": 5128,
      "gene": 5129,
      "composed": 5130,
      "Olympic": 5131,
      "Nigeria": 5132,
      "Tucson": 5133,
      "Goth": 5134,
      "Mart": 5135,
      "ees": 5136,
      "nel": 5137,
      "zh": 5138,
      "story": 5139,
      "display": 5140,
      "gency": 5141,
      "speech": 5142,
      "minim": 5143,
      "feel": 5144,
      "offered": 5145,
      "47": 5146,
      "Rh": 5147,
      "onic": 5148,
      "absor": 5149,
      "thousands": 5150,
      "Tele": 5151,
      "reasons": 5152,
      "ables": 5153,
      "shown": 5154,
      "izes": 5155,
      "Somal": 5156,
      "regarding": 5157,
      "friend": 5158,
      "Alaska": 5159,
      "thedral": 5160,
      "Festival": 5161,
      "ga": 5162,
      "edition": 5163,
      "traffic": 5164,
      "noted": 5165,
      "fund": 5166,
      "Swiss": 5167,
      "materials": 5168,
      "Palace": 5169,
      "Following": 5170,
      "FBI": 5171,
      "Mem": 5172,
      "ellect": 5173,
      "iant": 5174,
      "Georg": 5175,
      "alifor": 5176,
      "featured": 5177,
      "...": 5178,
      "capacity": 5179,
      "mention": 5180,
      "Organ": 5181,
      "minister": 5182,
      "Two": 5183,
      "DP": 5184,
      "icated": 5185,
      "oman": 5186,
      "note": 5187,
      "park": 5188,
      "Cont": 5189,
      "Group": 5190,
      "occupied": 5191,
      "Califor": 5192,
      "You": 5193,
      "gained": 5194,
      "vary": 5195,
      "kept": 5196,
      "developing": 5197,
      "178": 5198,
      "governments": 5199,
      "Poland": 5200,
      "colonies": 5201,
      "Galic": 5202,
      "experiment": 5203,
      "Gold": 5204,
      "onian": 5205,
      "enj": 5206,
      "detail": 5207,
      "abol": 5208,
      "ayed": 5209,
      "1920": 5210,
      "effective": 5211,
      "distingu": 5212,
      "constitutional": 5213,
      "components": 5214,
      "prime": 5215,
      "encod": 5216,
      "signal": 5217,
      "lingu": 5218,
      "orientation": 5219,
      ");": 5220,
      "grand": 5221,
      "1997": 5222,
      "operate": 5223,
      "ysis": 5224,
      "write": 5225,
      "shows": 5226,
      "issued": 5227,
      "listed": 5228,
      "slaves": 5229,
      "37": 5230,
      "prin": 5231,
      "intellig": 5232,
      "efforts": 5233,
      "marri": 5234,
      "medieval": 5235,
      "insula": 5236,
      "points": 5237,
      "learning": 5238,
      "Super": 5239,
      "competit": 5240,
      "Modern": 5241,
      "widespread": 5242,
      "Kath": 5243,
      "opposed": 5244,
      "ternal": 5245,
      "sym": 5246,
      "maxim": 5247,
      "Spiel": 5248,
      "tribes": 5249,
      "grew": 5250,
      "running": 5251,
      "Bern": 5252,
      "recognized": 5253,
      "interpret": 5254,
      "quickly": 5255,
      "55": 5256,
      "BS": 5257,
      "ias": 5258,
      "za": 5259,
      "reve": 5260,
      "ansk": 5261,
      "worked": 5262,
      "Command": 5263,
      "importance": 5264,
      "starting": 5265,
      "carried": 5266,
      "colonial": 5267,
      "Despite": 5268,
      "Spielberg": 5269,
      "Rad": 5270,
      "Sax": 5271,
      "nutr": 5272,
      "rd": 5273,
      "thers": 5274,
      "ining": 5275,
      "ams": 5276,
      "apers": 5277,
      "invad": 5278,
      "1989": 5279,
      "passeng": 5280,
      "phase": 5281,
      "constructed": 5282,
      "adolescent": 5283,
      "sovereign": 5284,
      "Nint": 5285,
      "ee": 5286,
      "museum": 5287,
      "ini": 5288,
      "star": 5289,
      "17th": 5290,
      "Nept": 5291,
      "temperatures": 5292,
      "risk": 5293,
      "Nintendo": 5294,
      "Pan": 5295,
      "eh": 5296,
      "los": 5297,
      "captured": 5298,
      "Turkish": 5299,
      "Records": 5300,
      "Ham": 5301,
      "ware": 5302,
      "wild": 5303,
      "ata": 5304,
      "chall": 5305,
      "iron": 5306,
      "mole": 5307,
      "osis": 5308,
      "ideal": 5309,
      "patent": 5310,
      "neighborhood": 5311,
      "CO": 5312,
      "texts": 5313,
      "replace": 5314,
      "degre": 5315,
      "utes": 5316,
      "phy": 5317,
      "mandolin": 5318,
      "tributed": 5319,
      "frequency": 5320,
      "diction": 5321,
      "Korean": 5322,
      "degrees": 5323,
      "ij": 5324,
      "pa": 5325,
      "slow": 5326,
      "pron": 5327,
      "feed": 5328,
      "tainment": 5329,
      "closed": 5330,
      "recently": 5331,
      "defeat": 5332,
      "beyond": 5333,
      "resources": 5334,
      "Bet": 5335,
      "Cast": 5336,
      "Four": 5337,
      "oting": 5338,
      "frame": 5339,
      "extin": 5340,
      "pression": 5341,
      "historic": 5342,
      "represented": 5343,
      "connected": 5344,
      "accepted": 5345,
      "victory": 5346,
      "ederation": 5347,
      "California": 5348,
      "600": 5349,
      "IV": 5350,
      "coup": 5351,
      "iary": 5352,
      "prop": 5353,
      "collection": 5354,
      "Edward": 5355,
      "zo": 5356,
      "Enlightenment": 5357,
      "borough": 5358,
      "courts": 5359,
      "generation": 5360,
      "Book": 5361,
      "management": 5362,
      "120": 5363,
      "Erit": 5364,
      "Go": 5365,
      "wanted": 5366,
      "istry": 5367,
      "suit": 5368,
      "mathemat": 5369,
      "1999": 5370,
      "Neptune": 5371,
      "Age": 5372,
      "Just": 5373,
      "core": 5374,
      "reform": 5375,
      "ening": 5376,
      "olf": 5377,
      "ocks": 5378,
      "iff": 5379,
      "understanding": 5380,
      "organized": 5381,
      "dipl": 5382,
      "64": 5383,
      "Ev": 5384,
      "census": 5385,
      "gent": 5386,
      "wan": 5387,
      "wave": 5388,
      "ero": 5389,
      "oslav": 5390,
      "positive": 5391,
      "playing": 5392,
      "therefore": 5393,
      "Prime": 5394,
      "hys": 5395,
      "16th": 5396,
      "tribute": 5397,
      "sequence": 5398,
      "Cubs": 5399,
      "Histor": 5400,
      "planned": 5401,
      "err": 5402,
      "uris": 5403,
      "uded": 5404,
      "osex": 5405,
      "herit": 5406,
      "factor": 5407,
      "Arabic": 5408,
      "newspaper": 5409,
      "novel": 5410,
      "permanent": 5411,
      "Educ": 5412,
      "Hill": 5413,
      "Ira": 5414,
      "lamp": 5415,
      "enough": 5416,
      "artist": 5417,
      "umen": 5418,
      "moving": 5419,
      "1992": 5420,
      "turned": 5421,
      "Byzantine": 5422,
      "Bermuda": 5423,
      "Fam": 5424,
      "Sever": 5425,
      "Sansk": 5426,
      "giving": 5427,
      "ried": 5428,
      "ato": 5429,
      "meant": 5430,
      "upper": 5431,
      "overs": 5432,
      "raised": 5433,
      "workers": 5434,
      "finally": 5435,
      "structures": 5436,
      "remaining": 5437,
      "combined": 5438,
      "Democratic": 5439,
      "NES": 5440,
      "rout": 5441,
      "consists": 5442,
      "weight": 5443,
      "vey": 5444,
      "expanded": 5445,
      "Committee": 5446,
      "Sanskrit": 5447,
      "onto": 5448,
      "astr": 5449,
      "graduate": 5450,
      "headquarters": 5451,
      "fast": 5452,
      "hum": 5453,
      "thr": 5454,
      "imperial": 5455,
      "constant": 5456,
      "ulf": 5457,
      "Carn": 5458,
      "greatly": 5459,
      "serious": 5460,
      "Club": 5461,
      "Presbyterian": 5462,
      "Kathmand": 5463,
      "Eritre": 5464,
      "Dou": 5465,
      "Ocean": 5466,
      "ael": 5467,
      "removed": 5468,
      "1998": 5469,
      "Northwestern": 5470,
      "testing": 5471,
      "Popper": 5472,
      "affected": 5473,
      "Iraq": 5474,
      "Kathmandu": 5475,
      "Wil": 5476,
      "tect": 5477,
      "intellect": 5478,
      "cerem": 5479,
      "officers": 5480,
      "Romans": 5481,
      "magazine": 5482,
      "onomy": 5483,
      "Persian": 5484,
      "itnesses": 5485,
      "EC": 5486,
      "Mong": 5487,
      "iency": 5488,
      "inhabit": 5489,
      "image": 5490,
      "users": 5491,
      "colleg": 5492,
      "Burma": 5493,
      "Hispan": 5494,
      "antibiot": 5495,
      "Namib": 5496,
      "Dan": 5497,
      "renew": 5498,
      "ada": 5499,
      "union": 5500,
      "uck": 5501,
      "initial": 5502,
      "establishment": 5503,
      "negative": 5504,
      "Joseph": 5505,
      "Office": 5506,
      "Tor": 5507,
      "Up": 5508,
      "da": 5509,
      "liber": 5510,
      "eston": 5511,
      "umin": 5512,
      "label": 5513,
      "characteristics": 5514,
      "protection": 5515,
      "Muslims": 5516,
      "Governor": 5517,
      "damage": 5518,
      "increasingly": 5519,
      "Scotland": 5520,
      "Virginia": 5521,
      "iques": 5522,
      "advantage": 5523,
      "2nd": 5524,
      "34": 5525,
      "DC": 5526,
      "Fore": 5527,
      "Pak": 5528,
      "lat": 5529,
      "paid": 5530,
      "imm": 5531,
      "deep": 5532,
      "ranean": 5533,
      "causes": 5534,
      "multi": 5535,
      "exclus": 5536,
      "Valencia": 5537,
      "osexual": 5538,
      "Navy": 5539,
      "eks": 5540,
      "affil": 5541,
      "regarded": 5542,
      "Estonian": 5543,
      "clothing": 5544,
      "BA": 5545,
      "Raj": 5546,
      "mes": 5547,
      "san": 5548,
      "unique": 5549,
      "preced": 5550,
      "ancestry": 5551,
      "Gothic": 5552,
      "68": 5553,
      "Bank": 5554,
      "andon": 5555,
      "utive": 5556,
      "actually": 5557,
      "feet": 5558,
      "forest": 5559,
      "1994": 5560,
      "simple": 5561,
      "titles": 5562,
      "About": 5563,
      "IBM": 5564,
      "Metro": 5565,
      "orate": 5566,
      "icles": 5567,
      "ull": 5568,
      "poll": 5569,
      "dominated": 5570,
      "Buddhist": 5571,
      "closely": 5572,
      "Rel": 5573,
      "Tai": 5574,
      "daily": 5575,
      "pack": 5576,
      "Comcast": 5577,
      "allowing": 5578,
      "policies": 5579,
      "punk": 5580,
      "metropolitan": 5581,
      "Public": 5582,
      "Several": 5583,
      "Land": 5584,
      "Mid": 5585,
      "Pun": 5586,
      "Sto": 5587,
      "fish": 5588,
      "lives": 5589,
      "tree": 5590,
      "ule": 5591,
      "vacu": 5592,
      "itors": 5593,
      "strateg": 5594,
      "flight": 5595,
      "governor": 5596,
      "issance": 5597,
      "request": 5598,
      "Mark": 5599,
      "iterranean": 5600,
      "Time": 5601,
      "Uk": 5602,
      "mbl": 5603,
      "sort": 5604,
      "wal": 5605,
      "arrest": 5606,
      "consu": 5607,
      "opposition": 5608,
      "disci": 5609,
      "attan": 5610,
      "scholar": 5611,
      "strength": 5612,
      "burn": 5613,
      "mind": 5614,
      "poses": 5615,
      "classified": 5616,
      "influential": 5617,
      "stores": 5618,
      "penal": 5619,
      "But": 5620,
      "Mos": 5621,
      "OS": 5622,
      "Tex": 5623,
      "icial": 5624,
      "leave": 5625,
      "ivals": 5626,
      "pet": 5627,
      "crime": 5628,
      "Arts": 5629,
      "news": 5630,
      "commission": 5631,
      "Asse": 5632,
      "encing": 5633,
      "greatest": 5634,
      "literary": 5635,
      "completely": 5636,
      "Tom": 5637,
      "mur": 5638,
      "ram": 5639,
      "route": 5640,
      "yet": 5641,
      "iny": 5642,
      "itude": 5643,
      "dead": 5644,
      "ulate": 5645,
      "earch": 5646,
      "coal": 5647,
      "equal": 5648,
      "munic": 5649,
      "scientists": 5650,
      "Myan": 5651,
      "component": 5652,
      "academic": 5653,
      "Micros": 5654,
      "satellite": 5655,
      "Ukrain": 5656,
      "Native": 5657,
      "batt": 5658,
      "jun": 5659,
      "mam": 5660,
      "rot": 5661,
      "sey": 5662,
      "unity": 5663,
      "decor": 5664,
      "Int": 5665,
      "strate": 5666,
      "notably": 5667,
      "decades": 5668,
      "Hot": 5669,
      "oud": 5670,
      "ads": 5671,
      "accur": 5672,
      "resident": 5673,
      "alloy": 5674,
      "1950s": 5675,
      "refused": 5676,
      "towns": 5677,
      "profit": 5678,
      "Mediterranean": 5679,
      "Iranian": 5680,
      "Helena": 5681,
      "Myanmar": 5682,
      "Science": 5683,
      "Viet": 5684,
      "scre": 5685,
      "tried": 5686,
      "emperor": 5687,
      "contact": 5688,
      "Mexican": 5689,
      "speakers": 5690,
      "earthquake": 5691,
      "principle": 5692,
      "Develop": 5693,
      "Academy": 5694,
      "Sony": 5695,
      "ki": 5696,
      "obl": 5697,
      "sought": 5698,
      "table": 5699,
      "ils": 5700,
      "abandon": 5701,
      "ellow": 5702,
      "relay": 5703,
      "publish": 5704,
      "substant": 5705,
      "extrem": 5706,
      "dependent": 5707,
      "values": 5708,
      "avoid": 5709,
      "Libya": 5710,
      "floor": 5711,
      "density": 5712,
      "marriage": 5713,
      "Jack": 5714,
      "Mer": 5715,
      "och": 5716,
      "179": 5717,
      "simply": 5718,
      "housing": 5719,
      "Holy": 5720,
      "application": 5721,
      "mechanism": 5722,
      "awarded": 5723,
      "alternative": 5724,
      "mosaic": 5725,
      "situation": 5726,
      "split": 5727,
      "66": 5728,
      "Hung": 5729,
      "Pen": 5730,
      "Santa": 5731,
      "pine": 5732,
      "Republican": 5733,
      "foundation": 5734,
      "arrang": 5735,
      "Prin": 5736,
      "traditions": 5737,
      "1945": 5738,
      "ficient": 5739,
      "chester": 5740,
      "Turkey": 5741,
      "weapons": 5742,
      "39": 5743,
      "Bes": 5744,
      "Both": 5745,
      "Found": 5746,
      "Maced": 5747,
      "Sat": 5748,
      "crop": 5749,
      "here": 5750,
      "recomm": 5751,
      "stress": 5752,
      "stead": 5753,
      "ceived": 5754,
      "verse": 5755,
      "extended": 5756,
      "refers": 5757,
      "treatment": 5758,
      "voltage": 5759,
      "Microsoft": 5760,
      "TO": 5761,
      "fought": 5762,
      "tons": 5763,
      "assu": 5764,
      "resh": 5765,
      "ety": 5766,
      "output": 5767,
      "creating": 5768,
      "views": 5769,
      "nickn": 5770,
      "suggested": 5771,
      "applications": 5772,
      "settled": 5773,
      "spirit": 5774,
      "fifth": 5775,
      "Charleston": 5776,
      ".:": 5777,
      "Hindu": 5778,
      "TC": 5779,
      "bud": 5780,
      "theories": 5781,
      "chron": 5782,
      "ibly": 5783,
      "movements": 5784,
      "defence": 5785,
      "employed": 5786,
      "appearance": 5787,
      "emerged": 5788,
      "vacuum": 5789,
      "isol": 5790,
      "ocide": 5791,
      "iph": 5792,
      "effort": 5793,
      "identify": 5794,
      "1970": 5795,
      "Nether": 5796,
      "runs": 5797,
      "Valley": 5798,
      "Freder": 5799,
      "achieved": 5800,
      "negot": 5801,
      "electrical": 5802,
      "Education": 5803,
      "85": 5804,
      "Os": 5805,
      "Year": 5806,
      "entered": 5807,
      "opport": 5808,
      "trial": 5809,
      "osen": 5810,
      "weeks": 5811,
      "depict": 5812,
      "1988": 5813,
      "veh": 5814,
      "going": 5815,
      "sched": 5816,
      "objects": 5817,
      "administrative": 5818,
      "meeting": 5819,
      "Camp": 5820,
      "Fl": 5821,
      "GDP": 5822,
      "bill": 5823,
      "ders": 5824,
      "aland": 5825,
      "ips": 5826,
      "pher": 5827,
      "owners": 5828,
      "classes": 5829,
      "mitted": 5830,
      "determined": 5831,
      "agriculture": 5832,
      "discipl": 5833,
      "Fil": 5834,
      "Game": 5835,
      "comment": 5836,
      "ensions": 5837,
      "despite": 5838,
      "politics": 5839,
      "difference": 5840,
      "significantly": 5841,
      "attempted": 5842,
      "elevator": 5843,
      "freedom": 5844,
      "rejected": 5845,
      "Assembly": 5846,
      "Vietnam": 5847,
      "AA": 5848,
      "Ob": 5849,
      "gam": 5850,
      "insp": 5851,
      "alco": 5852,
      "seas": 5853,
      "Stand": 5854,
      "Germans": 5855,
      "analysis": 5856,
      "aught": 5857,
      ".)": 5858,
      "800": 5859,
      "IC": 5860,
      "gs": 5861,
      "tun": 5862,
      "seasons": 5863,
      "imately": 5864,
      "exchange": 5865,
      "forming": 5866,
      "correct": 5867,
      "ologies": 5868,
      "cycl": 5869,
      "showed": 5870,
      "slave": 5871,
      "Early": 5872,
      "symbol": 5873,
      "Bush": 5874,
      "Card": 5875,
      "Zh": 5876,
      "bn": 5877,
      "bio": 5878,
      "sport": 5879,
      "til": 5880,
      "user": 5881,
      "lighting": 5882,
      "Russians": 5883,
      "Freem": 5884,
      "translation": 5885,
      "equipment": 5886,
      "master": 5887,
      "ua": 5888,
      "online": 5889,
      "alleg": 5890,
      "ureau": 5891,
      "cry": 5892,
      "married": 5893,
      "porters": 5894,
      "Columb": 5895,
      "existing": 5896,
      "computers": 5897,
      "selection": 5898,
      "respectively": 5899,
      "machine": 5900,
      "Croat": 5901,
      "diplom": 5902,
      "Pakistan": 5903,
      "Lod": 5904,
      "Sim": 5905,
      "dang": 5906,
      "lov": 5907,
      "erson": 5908,
      "propos": 5909,
      "corruption": 5910,
      "1996": 5911,
      "banks": 5912,
      "typical": 5913,
      "carry": 5914,
      "custom": 5915,
      "benefit": 5916,
      "Anglo": 5917,
      "77": 5918,
      "Don": 5919,
      "Sand": 5920,
      "ii": 5921,
      "woman": 5922,
      "usal": 5923,
      "attention": 5924,
      "letters": 5925,
      "Manch": 5926,
      "bands": 5927,
      "properties": 5928,
      "teaching": 5929,
      "Muham": 5930,
      "Namibia": 5931,
      "fair": 5932,
      "nes": 5933,
      "exerc": 5934,
      "plans": 5935,
      "overall": 5936,
      "flow": 5937,
      "Thir": 5938,
      "1940": 5939,
      "Research": 5940,
      "quarter": 5941,
      "achieve": 5942,
      "Scott": 5943,
      "environmental": 5944,
      "incorporated": 5945,
      "Texas": 5946,
      "Fur": 5947,
      "ores": 5948,
      "producing": 5949,
      "ugoslav": 5950,
      "extensive": 5951,
      "functions": 5952,
      "ordered": 5953,
      "electricity": 5954,
      "truct": 5955,
      "maximum": 5956,
      "bann": 5957,
      "liberal": 5958,
      "ween": 5959,
      "iced": 5960,
      "staff": 5961,
      "urai": 5962,
      "udes": 5963,
      "evolved": 5964,
      "ogue": 5965,
      "distribution": 5966,
      "predict": 5967,
      "lie": 5968,
      "viewed": 5969,
      "versions": 5970,
      "Plan": 5971,
      "presidential": 5972,
      "communications": 5973,
      "leadership": 5974,
      "mountains": 5975,
      "storage": 5976,
      "Michael": 5977,
      "fighting": 5978,
      "journal": 5979,
      "Mountains": 5980,
      "Zealand": 5981,
      "1st": 5982,
      "Yugoslav": 5983,
      "onia": 5984,
      "illa": 5985,
      "phr": 5986,
      "weather": 5987,
      "advanced": 5988,
      "invented": 5989,
      "thesis": 5990,
      "provinces": 5991,
      "Between": 5992,
      "43": 5993,
      "Jeh": 5994,
      "Long": 5995,
      "Rail": 5996,
      "elimin": 5997,
      "proto": 5998,
      "ichuan": 5999,
      "1995": 6000,
      "normal": 6001,
      "toward": 6002,
      "instance": 6003,
      "attacked": 6004,
      "Social": 6005,
      "anthropology": 6006,
      "Broad": 6007,
      "fel": 6008,
      "rival": 6009,
      "thetic": 6010,
      "armed": 6011,
      "arrow": 6012,
      "Angel": 6013,
      "Norfolk": 6014,
      "1979": 6015,
      "orders": 6016,
      "equival": 6017,
      "Israeli": 6018,
      "Cork": 6019,
      "Gall": 6020,
      "Square": 6021,
      "agree": 6022,
      "Three": 6023,
      "webs": 6024,
      "publication": 6025,
      "double": 6026,
      "copyright": 6027,
      "heavily": 6028,
      "probably": 6029,
      "Muhammad": 6030,
      "greg": 6031,
      "ll": 6032,
      "vast": 6033,
      "reforms": 6034,
      "amb": 6035,
      "owl": 6036,
      "withdraw": 6037,
      "weak": 6038,
      "1950": 6039,
      "defense": 6040,
      "authorities": 6041,
      "biggest": 6042,
      "Development": 6043,
      "Hu": 6044,
      "Near": 6045,
      "Rights": 6046,
      "enem": 6047,
      "asc": 6048,
      "uration": 6049,
      "neutr": 6050,
      "price": 6051,
      "grade": 6052,
      "Stadium": 6053,
      "wars": 6054,
      "specif": 6055,
      "innov": 6056,
      "writers": 6057,
      "educational": 6058,
      "iable": 6059,
      "ses": 6060,
      "ville": 6061,
      "inary": 6062,
      "oration": 6063,
      "stadium": 6064,
      "cht": 6065,
      "champion": 6066,
      "diss": 6067,
      "ovah": 6068,
      "technical": 6069,
      "techniques": 6070,
      "claims": 6071,
      "Disc": 6072,
      "DST": 6073,
      "Division": 6074,
      "Bus": 6075,
      "Er": 6076,
      "Rena": 6077,
      "juris": 6078,
      "library": 6079,
      "nom": 6080,
      "rum": 6081,
      "rural": 6082,
      "agon": 6083,
      "iana": 6084,
      "shared": 6085,
      "door": 6086,
      "strug": 6087,
      "ultan": 6088,
      "discrim": 6089,
      "relative": 6090,
      "inside": 6091,
      "Monte": 6092,
      "surrounding": 6093,
      "Ashkenazi": 6094,
      "Netherlands": 6095,
      "Jehovah": 6096,
      "vest": 6097,
      "eme": 6098,
      "doing": 6099,
      "ached": 6100,
      "positions": 6101,
      "spons": 6102,
      "visited": 6103,
      "Manh": 6104,
      "Guam": 6105,
      "compression": 6106,
      "MS": 6107,
      "Power": 6108,
      "Rale": 6109,
      "Sur": 6110,
      "diet": 6111,
      "mn": 6112,
      "height": 6113,
      "determ": 6114,
      "twent": 6115,
      "crib": 6116,
      "Alps": 6117,
      "virt": 6118,
      "architectural": 6119,
      "failure": 6120,
      "Samo": 6121,
      "ceeded": 6122,
      "contributed": 6123,
      "parents": 6124,
      "Commonwealth": 6125,
      "Besides": 6126,
      "determine": 6127,
      "\"),": 6128,
      "Census": 6129,
      "Jul": 6130,
      "Op": 6131,
      "RA": 6132,
      "cab": 6133,
      "takes": 6134,
      "ulated": 6135,
      "external": 6136,
      "ciples": 6137,
      "175": 6138,
      "operated": 6139,
      "traditionally": 6140,
      "popularity": 6141,
      "formerly": 6142,
      "employment": 6143,
      "relationships": 6144,
      "acquired": 6145,
      "budget": 6146,
      "Frederick": 6147,
      "Raleigh": 6148,
      "360": 6149,
      "Hong": 6150,
      "Loc": 6151,
      "Witnesses": 6152,
      "bad": 6153,
      "hall": 6154,
      "winning": 6155,
      "stain": 6156,
      "iano": 6157,
      "actual": 6158,
      "sole": 6159,
      "1949": 6160,
      "opening": 6161,
      "1930s": 6162,
      "Feyn": 6163,
      "Communist": 6164,
      "Technology": 6165,
      "Manhattan": 6166,
      "clar": 6167,
      "acted": 6168,
      "Stat": 6169,
      "colony": 6170,
      "reference": 6171,
      "calend": 6172,
      "secular": 6173,
      "maintained": 6174,
      "debate": 6175,
      "credit": 6176,
      "approved": 6177,
      "doctrine": 6178,
      "Feynman": 6179,
      "Library": 6180,
      "Laser": 6181,
      "fest": 6182,
      "iately": 6183,
      "revenue": 6184,
      "emit": 6185,
      "article": 6186,
      "inea": 6187,
      "extent": 6188,
      "temporary": 6189,
      "director": 6190,
      "1939": 6191,
      "netic": 6192,
      "graphic": 6193,
      "Duke": 6194,
      "converted": 6195,
      "Renaissance": 6196,
      "Bible": 6197,
      "GB": 6198,
      "Ty": 6199,
      "trop": 6200,
      "taught": 6201,
      "wise": 6202,
      "dex": 6203,
      "avel": 6204,
      "genome": 6205,
      "Also": 6206,
      "newly": 6207,
      "presented": 6208,
      "joint": 6209,
      "improved": 6210,
      "selling": 6211,
      "inspired": 6212,
      "3rd": 6213,
      "pm": 6214,
      "rig": 6215,
      "wa": 6216,
      "wing": 6217,
      "inj": 6218,
      "leaving": 6219,
      "ctica": 6220,
      "comics": 6221,
      "elling": 6222,
      "powerful": 6223,
      "milit": 6224,
      "expensive": 6225,
      "Swed": 6226,
      "bury": 6227,
      "dated": 6228,
      "cha": 6229,
      "channel": 6230,
      "immigrants": 6231,
      "norm": 6232,
      "Forces": 6233,
      "12th": 6234,
      "processes": 6235,
      "occurs": 6236,
      "Peter": 6237,
      "brother": 6238,
      "km2": 6239,
      "Antarctica": 6240,
      "inhabitants": 6241,
      "Best": 6242,
      "tall": 6243,
      "tration": 6244,
      "priest": 6245,
      "roughly": 6246,
      "Leg": 6247,
      "trading": 6248,
      "biological": 6249,
      "investment": 6250,
      "Major": 6251,
      "criticism": 6252,
      "79": 6253,
      "Ever": 6254,
      "Life": 6255,
      "ka": 6256,
      "pure": 6257,
      "arg": 6258,
      "olve": 6259,
      "apse": 6260,
      "otion": 6261,
      "akh": 6262,
      "facilities": 6263,
      "circum": 6264,
      "suffered": 6265,
      "fleet": 6266,
      "subsequent": 6267,
      "Sa": 6268,
      "Southeast": 6269,
      "ji": 6270,
      "ois": 6271,
      "sites": 6272,
      "toms": 6273,
      "depart": 6274,
      "preserv": 6275,
      "Thus": 6276,
      "Security": 6277,
      "transmission": 6278,
      "Buddha": 6279,
      "Senate": 6280,
      "Baptist": 6281,
      "41": 6282,
      "Net": 6283,
      "cable": 6284,
      "naval": 6285,
      "edy": 6286,
      "deploy": 6287,
      "formally": 6288,
      "Arth": 6289,
      "console": 6290,
      "annex": 6291,
      "condition": 6292,
      "declined": 6293,
      "investig": 6294,
      "Corpor": 6295,
      "subjects": 6296,
      "goods": 6297,
      "Sing": 6298,
      "Xbox": 6299,
      "dark": 6300,
      "lu": 6301,
      "icians": 6302,
      "stance": 6303,
      "seem": 6304,
      "ado": 6305,
      "tric": 6306,
      "shop": 6307,
      "grant": 6308,
      "providing": 6309,
      "aug": 6310,
      "Convention": 6311,
      "Health": 6312,
      "classification": 6313,
      "missions": 6314,
      "ruler": 6315,
      "distinction": 6316,
      "conducted": 6317,
      "mentioned": 6318,
      "strategy": 6319,
      "Direct": 6320,
      "Los": 6321,
      "Sub": 6322,
      "diverse": 6323,
      "mess": 6324,
      "inals": 6325,
      "alph": 6326,
      "chosen": 6327,
      "traction": 6328,
      "Whose": 6329,
      "offices": 6330,
      "switch": 6331,
      "engineering": 6332,
      "licens": 6333,
      "agricultural": 6334,
      "EU": 6335,
      "Free": 6336,
      "Later": 6337,
      "Lake": 6338,
      "Men": 6339,
      "Miss": 6340,
      "Tour": 6341,
      "Tower": 6342,
      "Taj": 6343,
      "mort": 6344,
      "aters": 6345,
      "asked": 6346,
      "presents": 6347,
      "cool": 6348,
      "paralle": 6349,
      "1993": 6350,
      "societies": 6351,
      "1974": 6352,
      "gradually": 6353,
      "holding": 6354,
      "career": 6355,
      "phenomen": 6356,
      "aspects": 6357,
      "fundament": 6358,
      "Carnival": 6359,
      "Princess": 6360,
      "dates": 6361,
      "aspir": 6362,
      "ola": 6363,
      "agan": 6364,
      "agencies": 6365,
      "ogen": 6366,
      "prey": 6367,
      "aware": 6368,
      "marks": 6369,
      "lowest": 6370,
      "capable": 6371,
      "concerns": 6372,
      "railway": 6373,
      "Further": 6374,
      "76": 6375,
      "Nob": 6376,
      "Sil": 6377,
      "anch": 6378,
      "arms": 6379,
      "chain": 6380,
      "adapt": 6381,
      "conquest": 6382,
      "gender": 6383,
      "1980": 6384,
      "restaur": 6385,
      "distance": 6386,
      "historians": 6387,
      "advance": 6388,
      "datab": 6389,
      "grounds": 6390,
      "dedicated": 6391,
      "figure": 6392,
      "5th": 6393,
      "RI": 6394,
      "Tem": 6395,
      "diversity": 6396,
      "foot": 6397,
      "got": 6398,
      "ho": 6399,
      "kin": 6400,
      "lies": 6401,
      "pestic": 6402,
      "races": 6403,
      "pub": 6404,
      "cape": 6405,
      "Germanic": 6406,
      "1941": 6407,
      "13th": 6408,
      "divisions": 6409,
      "copies": 6410,
      "Guinea": 6411,
      "advoc": 6412,
      "experienced": 6413,
      "manufacturing": 6414,
      "precip": 6415,
      "colleges": 6416,
      "Hispanic": 6417,
      "penalty": 6418,
      "Columbia": 6419,
      "Athan": 6420,
      "Den": 6421,
      "Harr": 6422,
      "Mount": 6423,
      "Ver": 6424,
      "asph": 6425,
      "usage": 6426,
      "clo": 6427,
      "ishes": 6428,
      "assent": 6429,
      "Board": 6430,
      "models": 6431,
      "improve": 6432,
      "continental": 6433,
      "legislation": 6434,
      "LEDs": 6435,
      "CC": 6436,
      "Sc": 6437,
      "Tod": 6438,
      "ais": 6439,
      "crow": 6440,
      "etry": 6441,
      "ff": 6442,
      "iy": 6443,
      "ube": 6444,
      "vere": 6445,
      "rebel": 6446,
      "omer": 6447,
      "secret": 6448,
      "urr": 6449,
      "agency": 6450,
      "Aristo": 6451,
      "2016": 6452,
      "contained": 6453,
      "Road": 6454,
      "happens": 6455,
      "trecht": 6456,
      "homes": 6457,
      "Balk": 6458,
      "citizen": 6459,
      "occasion": 6460,
      "extremely": 6461,
      "98": 6462,
      "Wall": 6463,
      "nav": 6464,
      "rhy": 6465,
      "ari": 6466,
      "rose": 6467,
      "ira": 6468,
      "pool": 6469,
      "proved": 6470,
      "industries": 6471,
      "styles": 6472,
      "separation": 6473,
      "measures": 6474,
      "Luther": 6475,
      "patterns": 6476,
      "ratio": 6477,
      "Defence": 6478,
      "enjoy": 6479,
      "alcohol": 6480,
      "Athanas": 6481,
      "Did": 6482,
      "rating": 6483,
      "send": 6484,
      "theless": 6485,
      "alone": 6486,
      "avian": 6487,
      "plies": 6488,
      "ody": 6489,
      "Child": 6490,
      "ultimately": 6491,
      "genre": 6492,
      "marine": 6493,
      "studied": 6494,
      "retail": 6495,
      "markets": 6496,
      "coastal": 6497,
      "mobile": 6498,
      "Bon": 6499,
      "Econom": 6500,
      "Utrecht": 6501,
      "ba": 6502,
      "vard": 6503,
      "wife": 6504,
      "ange": 6505,
      "ione": 6506,
      "semi": 6507,
      "Theatre": 6508,
      "odes": 6509,
      "ump": 6510,
      "rent": 6511,
      "colors": 6512,
      "spent": 6513,
      "existed": 6514,
      "calcul": 6515,
      "accused": 6516,
      "debt": 6517,
      "nobility": 6518,
      "bishop": 6519,
      "Hellenistic": 6520,
      "principles": 6521,
      "Py": 6522,
      "Sichuan": 6523,
      "dim": 6524,
      "dut": 6525,
      "mom": 6526,
      "resto": 6527,
      "ounder": 6528,
      "serves": 6529,
      "USA": 6530,
      "Marvel": 6531,
      "broke": 6532,
      "focused": 6533,
      "districts": 6534,
      "rapidly": 6535,
      "audience": 6536,
      "nickname": 6537,
      "Cur": 6538,
      "Penn": 6539,
      "gil": 6540,
      "reh": 6541,
      "orn": 6542,
      "icism": 6543,
      "mental": 6544,
      "shift": 6545,
      "prem": 6546,
      "posure": 6547,
      "Thuring": 6548,
      "News": 6549,
      "venues": 6550,
      "simpl": 6551,
      "radiation": 6552,
      "Berlin": 6553,
      "combat": 6554,
      "honor": 6555,
      "consumption": 6556,
      "\").": 6557,
      "73": 6558,
      "Greg": 6559,
      "SA": 6560,
      "Sah": 6561,
      "Wales": 6562,
      "gir": 6563,
      "pil": 6564,
      "sciences": 6565,
      "enforce": 6566,
      "convent": 6567,
      "acid": 6568,
      "arden": 6569,
      "Enter": 6570,
      "promoted": 6571,
      "intelligence": 6572,
      "Arthur": 6573,
      "700": 6574,
      "Each": 6575,
      "FI": 6576,
      "Ibn": 6577,
      "Spect": 6578,
      "cies": 6579,
      "dy": 6580,
      "oon": 6581,
      "pict": 6582,
      "smo": 6583,
      "editor": 6584,
      "advis": 6585,
      "bear": 6586,
      "ithic": 6587,
      "acing": 6588,
      "shif": 6589,
      "dry": 6590,
      "serving": 6591,
      "cycle": 6592,
      "successfully": 6593,
      "gods": 6594,
      "Foundation": 6595,
      "Athanasius": 6596,
      "din": 6597,
      "lose": 6598,
      "chrom": 6599,
      "genocide": 6600,
      "arrived": 6601,
      "periods": 6602,
      "roads": 6603,
      "universal": 6604,
      "describes": 6605,
      "figures": 6606,
      "Buil": 6607,
      "Standard": 6608,
      "Ven": 6609,
      "push": 6610,
      "yan": 6611,
      "icy": 6612,
      "alliance": 6613,
      "compreh": 6614,
      "Through": 6615,
      "plays": 6616,
      "250": 6617,
      "changing": 6618,
      "purposes": 6619,
      "introduction": 6620,
      "losses": 6621,
      "criticized": 6622,
      "kilomet": 6623,
      "Galicia": 6624,
      "Bir": 6625,
      "Mat": 6626,
      "cam": 6627,
      "cogn": 6628,
      "daugh": 6629,
      "jab": 6630,
      "ker": 6631,
      "page": 6632,
      "slight": 6633,
      "entity": 6634,
      "severe": 6635,
      "medicine": 6636,
      "1985": 6637,
      "originated": 6638,
      "solid": 6639,
      "treaties": 6640,
      "connection": 6641,
      "analy": 6642,
      "Montana": 6643,
      "dropped": 6644,
      "efficient": 6645,
      "sacr": 6646,
      "Service": 6647,
      "intellectual": 6648,
      "Lin": 6649,
      "tim": 6650,
      "uge": 6651,
      "perfect": 6652,
      "Chap": 6653,
      "1987": 6654,
      "1960": 6655,
      "lavery": 6656,
      "matches": 6657,
      "Shell": 6658,
      "carriers": 6659,
      "bourg": 6660,
      "discovery": 6661,
      "manufactur": 6662,
      "Constantin": 6663,
      "63": 6664,
      "Bef": 6665,
      "Jef": 6666,
      "barr": 6667,
      "icas": 6668,
      "ician": 6669,
      "ador": 6670,
      "brief": 6671,
      "14th": 6672,
      "funding": 6673,
      "armies": 6674,
      "Among": 6675,
      "projects": 6676,
      "protected": 6677,
      "Cathedral": 6678,
      "Summer": 6679,
      "subsid": 6680,
      "Mongol": 6681,
      "Before": 6682,
      "Games": 6683,
      "gn": 6684,
      "tical": 6685,
      "wire": 6686,
      "zy": 6687,
      "orig": 6688,
      "icon": 6689,
      "iting": 6690,
      "hem": 6691,
      "uni": 6692,
      "allies": 6693,
      "quad": 6694,
      "shape": 6695,
      "rena": 6696,
      "liqu": 6697,
      "intosh": 6698,
      "annually": 6699,
      "hypo": 6700,
      "surrender": 6701,
      "limits": 6702,
      "Medical": 6703,
      "happen": 6704,
      "walls": 6705,
      "efficiency": 6706,
      "guns": 6707,
      "silver": 6708,
      "Digimon": 6709,
      "subsequently": 6710,
      "PlayStation": 6711,
      "descend": 6712,
      "specifically": 6713,
      "Eth": 6714,
      "Out": 6715,
      "cence": 6716,
      "ode": 6717,
      "ras": 6718,
      "reaction": 6719,
      "Their": 6720,
      "managed": 6721,
      "disput": 6722,
      "dram": 6723,
      "setting": 6724,
      "1969": 6725,
      "1948": 6726,
      "association": 6727,
      "strongly": 6728,
      "executed": 6729,
      "settlers": 6730,
      "MP3": 6731,
      "ancest": 6732,
      "susp": 6733,
      "Conserv": 6734,
      "equivalent": 6735,
      "calendar": 6736,
      "Vol": 6737,
      "file": 6738,
      "fresh": 6739,
      "kings": 6740,
      "sle": 6741,
      "ture": 6742,
      "inf": 6743,
      "amin": 6744,
      "depos": 6745,
      "abilities": 6746,
      "Champion": 6747,
      "itionally": 6748,
      "renamed": 6749,
      "desert": 6750,
      "medium": 6751,
      "studio": 6752,
      "variation": 6753,
      "funds": 6754,
      "directed": 6755,
      "volume": 6756,
      "combination": 6757,
      "Somer": 6758,
      "profession": 6759,
      "sufficient": 6760,
      "Community": 6761,
      "transportation": 6762,
      "emotion": 6763,
      "mosaics": 6764,
      "conquered": 6765,
      "municipal": 6766,
      "Montevideo": 6767,
      "Corporation": 6768,
      "59": 6769,
      "?\"": 6770,
      "Mill": 6771,
      "Tun": 6772,
      "fear": 6773,
      "ighter": 6774,
      "strial": 6775,
      "minster": 6776,
      "choice": 6777,
      "subur": 6778,
      "Prize": 6779,
      "visible": 6780,
      "1986": 6781,
      "1976": 6782,
      "membership": 6783,
      "employees": 6784,
      "circuit": 6785,
      "indicate": 6786,
      "entirely": 6787,
      "bombing": 6788,
      "samurai": 6789,
      "Avic": 6790,
      "asphalt": 6791,
      "56": 6792,
      "Ben": 6793,
      "Clar": 6794,
      "Ho": 6795,
      "Rus": 6796,
      "iar": 6797,
      "ja": 6798,
      "erto": 6799,
      "chap": 6800,
      "tery": 6801,
      "terror": 6802,
      "confer": 6803,
      "oppos": 6804,
      "merch": 6805,
      "drive": 6806,
      "electro": 6807,
      "myth": 6808,
      "1984": 6809,
      "depending": 6810,
      "1968": 6811,
      "appropr": 6812,
      "internet": 6813,
      "capture": 6814,
      "documents": 6815,
      "CBC": 6816,
      "IA": 6817,
      "tur": 6818,
      "rep": 6819,
      "stim": 6820,
      "cious": 6821,
      "something": 6822,
      "longest": 6823,
      "160": 6824,
      "aza": 6825,
      "persons": 6826,
      "Austrian": 6827,
      "continues": 6828,
      "radical": 6829,
      "Guard": 6830,
      "protein": 6831,
      "separated": 6832,
      "attempts": 6833,
      "Sumer": 6834,
      "drugs": 6835,
      "safety": 6836,
      "invaded": 6837,
      "Nep": 6838,
      "Song": 6839,
      "gence": 6840,
      "ju": 6841,
      "aria": 6842,
      "olithic": 6843,
      "ims": 6844,
      "modif": 6845,
      "prices": 6846,
      "compounds": 6847,
      "1978": 6848,
      "writer": 6849,
      "ashion": 6850,
      "oxy": 6851,
      "trees": 6852,
      "Puerto": 6853,
      "credited": 6854,
      "piece": 6855,
      "Punjab": 6856,
      "felt": 6857,
      "origins": 6858,
      "4th": 6859,
      "Brown": 6860,
      "Field": 6861,
      "haps": 6862,
      "constitut": 6863,
      "ope": 6864,
      "Indo": 6865,
      "context": 6866,
      "causing": 6867,
      "roll": 6868,
      "ruling": 6869,
      "reading": 6870,
      "Macintosh": 6871,
      "Reserve": 6872,
      "Like": 6873,
      "exception": 6874,
      "antibiotics": 6875,
      "Everton": 6876,
      "Building": 6877,
      "Somerset": 6878,
      "6th": 6879,
      "drew": 6880,
      "nomin": 6881,
      "theore": 6882,
      "atmos": 6883,
      "stable": 6884,
      "amoun": 6885,
      "detect": 6886,
      "aya": 6887,
      "ayana": 6888,
      "plat": 6889,
      "ansas": 6890,
      "prep": 6891,
      "pubs": 6892,
      "perior": 6893,
      "1971": 6894,
      "score": 6895,
      "Hanover": 6896,
      "infring": 6897,
      "Labour": 6898,
      "Martin": 6899,
      "Bre": 6900,
      "bach": 6901,
      "eigh": 6902,
      "hub": 6903,
      "sail": 6904,
      "slavery": 6905,
      "roots": 6906,
      "igan": 6907,
      "oppon": 6908,
      "motion": 6909,
      "shap": 6910,
      "affirm": 6911,
      "Star": 6912,
      "cession": 6913,
      "athers": 6914,
      "understand": 6915,
      "USSR": 6916,
      "1967": 6917,
      "concerned": 6918,
      "Syria": 6919,
      "analog": 6920,
      "beliefs": 6921,
      "Constantinople": 6922,
      "Lith": 6923,
      "Nat": 6924,
      "Ta": 6925,
      "aer": 6926,
      "dress": 6927,
      "gor": 6928,
      "exposure": 6929,
      "ante": 6930,
      "ibn": 6931,
      "poetry": 6932,
      "offers": 6933,
      "ugu": 6934,
      "1982": 6935,
      "dependence": 6936,
      "matic": 6937,
      "effectively": 6938,
      "announce": 6939,
      "tourism": 6940,
      "palace": 6941,
      "motors": 6942,
      "Avicenna": 6943,
      "Crown": 6944,
      "Dal": 6945,
      "Fire": 6946,
      "Lis": 6947,
      "Town": 6948,
      "dic": 6949,
      "fuel": 6950,
      "recover": 6951,
      "ider": 6952,
      "iring": 6953,
      "opol": 6954,
      "proportion": 6955,
      "aining": 6956,
      "umn": 6957,
      "bercul": 6958,
      "meat": 6959,
      "ranking": 6960,
      "lights": 6961,
      "officer": 6962,
      "religions": 6963,
      "Westminster": 6964,
      "pursu": 6965,
      "electronic": 6966,
      "immediately": 6967,
      "Taiwan": 6968,
      "tropical": 6969,
      "Tajik": 6970,
      "8th": 6971,
      "Mov": 6972,
      "Ved": 6973,
      "mals": 6974,
      "pul": 6975,
      "paint": 6976,
      "ón": 6977,
      "asth": 6978,
      "iland": 6979,
      "1914": 6980,
      "useful": 6981,
      "boy": 6982,
      "pope": 6983,
      "web": 6984,
      "whereas": 6985,
      "15th": 6986,
      "goals": 6987,
      "nearby": 6988,
      "cription": 6989,
      "streets": 6990,
      "Radio": 6991,
      "battles": 6992,
      "Croatian": 6993,
      "92": 6994,
      "Award": 6995,
      "Cre": 6996,
      "Jud": 6997,
      "Ku": 6998,
      "bass": 6999,
      "cular": 7000,
      "fly": 7001,
      "rivers": 7002,
      "tren": 7003,
      "watch": 7004,
      "twice": 7005,
      "syl": 7006,
      "trying": 7007,
      "lock": 7008,
      "producer": 7009,
      "supporters": 7010,
      "requires": 7011,
      "linked": 7012,
      "metap": 7013,
      "technologies": 7014,
      "Blue": 7015,
      "massive": 7016,
      "expressed": 7017,
      "wrestling": 7018,
      "interpretation": 7019,
      "revealed": 7020,
      "Third": 7021,
      "Today": 7022,
      "Cross": 7023,
      "Due": 7024,
      "TB": 7025,
      "eat": 7026,
      "foss": 7027,
      "sq": 7028,
      "search": 7029,
      "advert": 7030,
      "iments": 7031,
      "etc": 7032,
      "compat": 7033,
      "Though": 7034,
      "ciation": 7035,
      "mayor": 7036,
      "11th": 7037,
      "reports": 7038,
      "researchers": 7039,
      "hosted": 7040,
      "occupation": 7041,
      "Belg": 7042,
      "categories": 7043,
      "jobs": 7044,
      "Beijing": 7045,
      "parallel": 7046,
      "%.": 7047,
      "Light": 7048,
      "Mand": 7049,
      "sides": 7050,
      "uits": 7051,
      "stances": 7052,
      "forward": 7053,
      "debut": 7054,
      "perceived": 7055,
      "ipp": 7056,
      "notes": 7057,
      "regime": 7058,
      "Americas": 7059,
      "Ancient": 7060,
      "supposed": 7061,
      "epis": 7062,
      "scen": 7063,
      "scene": 7064,
      "arent": 7065,
      "soft": 7066,
      "Architect": 7067,
      "neighbour": 7068,
      "diseases": 7069,
      "celebrated": 7070,
      "principal": 7071,
      "kingdoms": 7072,
      "rooms": 7073,
      "cardinal": 7074,
      "Somalia": 7075,
      "adolescents": 7076,
      "murder": 7077,
      "schedul": 7078,
      "%)": 7079,
      "62": 7080,
      "Hospital": 7081,
      "Il": 7082,
      "Pre": 7083,
      "festival": 7084,
      "founder": 7085,
      "jiang": 7086,
      "males": 7087,
      "pig": 7088,
      "cold": 7089,
      "founding": 7090,
      "defend": 7091,
      "bitumen": 7092,
      "truction": 7093,
      "repeated": 7094,
      "challeng": 7095,
      "DV": 7096,
      "Way": 7097,
      "fat": 7098,
      "gro": 7099,
      "gives": 7100,
      "mac": 7101,
      "rian": 7102,
      "alin": 7103,
      "chair": 7104,
      "universe": 7105,
      "Indu": 7106,
      "clock": 7107,
      "ishment": 7108,
      "angel": 7109,
      "cruc": 7110,
      "attended": 7111,
      "minutes": 7112,
      "Anth": 7113,
      "observed": 7114,
      "bodies": 7115,
      "stored": 7116,
      "practical": 7117,
      "icode": 7118,
      "Minor": 7119,
      "saying": 7120,
      "History": 7121,
      "easily": 7122,
      "quantum": 7123,
      "88": 7124,
      "Cop": 7125,
      "Kiev": 7126,
      "Low": 7127,
      "Nic": 7128,
      "Wood": 7129,
      "dé": 7130,
      "ocean": 7131,
      "eries": 7132,
      "eds": 7133,
      "seats": 7134,
      "tras": 7135,
      "resolution": 7136,
      "exact": 7137,
      "1918": 7138,
      "azz": 7139,
      "Johnson": 7140,
      "decisions": 7141,
      "Proto": 7142,
      "apparent": 7143,
      "AFL": 7144,
      "restricted": 7145,
      "pieces": 7146,
      "rhyth": 7147,
      "7th": 7148,
      "Far": 7149,
      "Ke": 7150,
      "Mes": 7151,
      "ano": 7152,
      "ancy": 7153,
      "itar": 7154,
      "stay": 7155,
      "omes": 7156,
      "utions": 7157,
      "etball": 7158,
      "1900": 7159,
      "plate": 7160,
      "bles": 7161,
      "partners": 7162,
      "ifications": 7163,
      "Norman": 7164,
      "gymn": 7165,
      "ski": 7166,
      "initi": 7167,
      "affairs": 7168,
      "fixed": 7169,
      "Smith": 7170,
      "KU": 7171,
      "Kong": 7172,
      "Ly": 7173,
      "Name": 7174,
      "fare": 7175,
      "gall": 7176,
      "ura": 7177,
      "agu": 7178,
      "shoot": 7179,
      "Chi": 7180,
      "pred": 7181,
      "awa": 7182,
      "That": 7183,
      "1972": 7184,
      "1975": 7185,
      "needs": 7186,
      "Gram": 7187,
      "reduction": 7188,
      "Greater": 7189,
      "oblig": 7190,
      "discrimination": 7191,
      "Spectre": 7192,
      "Ep": 7193,
      "Lev": 7194,
      "Met": 7195,
      "Top": 7196,
      "ny": 7197,
      "va": 7198,
      "itarian": 7199,
      "entry": 7200,
      "excess": 7201,
      "buy": 7202,
      "1944": 7203,
      "divine": 7204,
      "critics": 7205,
      "manager": 7206,
      "recordings": 7207,
      "ordinary": 7208,
      "collapse": 7209,
      "Eritrea": 7210,
      "website": 7211,
      "LaserDisc": 7212,
      "Big": 7213,
      "Boy": 7214,
      "EG": 7215,
      "Even": 7216,
      "Gar": 7217,
      "Juda": 7218,
      "gate": 7219,
      "kins": 7220,
      "oo": 7221,
      "sor": 7222,
      "republic": 7223,
      "orches": 7224,
      "seat": 7225,
      "absol": 7226,
      "ayer": 7227,
      "pra": 7228,
      "worship": 7229,
      "borders": 7230,
      "link": 7231,
      "laid": 7232,
      "technique": 7233,
      "Manchester": 7234,
      "characterized": 7235,
      "concert": 7236,
      "bellion": 7237,
      "normally": 7238,
      "fundamental": 7239,
      "kilometres": 7240,
      "Lithuan": 7241,
      "Arena": 7242,
      "Hz": 7243,
      "Lad": 7244,
      "Rog": 7245,
      "narrow": 7246,
      "pitch": 7247,
      "inches": 7248,
      "reality": 7249,
      "ald": 7250,
      "idal": 7251,
      "agement": 7252,
      "abul": 7253,
      "clim": 7254,
      "Unicode": 7255,
      "count": 7256,
      "collabor": 7257,
      "destruction": 7258,
      "Europeans": 7259,
      "parks": 7260,
      "powered": 7261,
      "asonry": 7262,
      "pressed": 7263,
      "descrip": 7264,
      "carrier": 7265,
      "printed": 7266,
      "Khan": 7267,
      "purchase": 7268,
      "Jackson": 7269,
      "Peninsula": 7270,
      "tructure": 7271,
      "berculosis": 7272,
      "Tim": 7273,
      "cos": 7274,
      "voted": 7275,
      "items": 7276,
      "agn": 7277,
      "ultural": 7278,
      "landing": 7279,
      "Arbor": 7280,
      "auth": 7281,
      "Lead": 7282,
      "1983": 7283,
      "veget": 7284,
      "1973": 7285,
      "1961": 7286,
      "promote": 7287,
      "historically": 7288,
      "characteristic": 7289,
      "accounts": 7290,
      "usalem": 7291,
      "Good": 7292,
      "Zhe": 7293,
      "votes": 7294,
      "ensure": 7295,
      "omb": 7296,
      "congreg": 7297,
      "acle": 7298,
      "thermal": 7299,
      "register": 7300,
      "courses": 7301,
      "appears": 7302,
      "physics": 7303,
      "cripts": 7304,
      "costs": 7305,
      "interests": 7306,
      "Sunday": 7307,
      "conservative": 7308,
      "democracy": 7309,
      "strategic": 7310,
      "database": 7311,
      "1000": 7312,
      "Mun": 7313,
      "Ron": 7314,
      "fict": 7315,
      "phe": 7316,
      "revers": 7317,
      "itz": 7318,
      "tox": 7319,
      "usual": 7320,
      "proced": 7321,
      "export": 7322,
      "centers": 7323,
      "Stalin": 7324,
      "update": 7325,
      "ampions": 7326,
      "Wars": 7327,
      "Police": 7328,
      "Code": 7329,
      "sounds": 7330,
      "judge": 7331,
      "mechanical": 7332,
      "teenth": 7333,
      "protests": 7334,
      "Jerusalem": 7335,
      "preferred": 7336,
      "Business": 7337,
      "'?": 7338,
      "52": 7339,
      "Di": 7340,
      "bil": 7341,
      "bra": 7342,
      "bought": 7343,
      "pines": 7344,
      "ti": 7345,
      "attributed": 7346,
      "firmed": 7347,
      "crew": 7348,
      "Bridge": 7349,
      "denomin": 7350,
      "Congo": 7351,
      "albums": 7352,
      "considerable": 7353,
      "Virgil": 7354,
      "balance": 7355,
      "passengers": 7356,
      "extinction": 7357,
      "mammals": 7358,
      "substantial": 7359,
      "Ak": 7360,
      "Eton": 7361,
      "MA": 7362,
      "Rob": 7363,
      "Water": 7364,
      "cat": 7365,
      "vow": 7366,
      "amic": 7367,
      "why": 7368,
      "heter": 7369,
      "otic": 7370,
      "Alf": 7371,
      "warm": 7372,
      "Prof": 7373,
      "operates": 7374,
      "1981": 7375,
      "1962": 7376,
      "generated": 7377,
      "judges": 7378,
      "regulations": 7379,
      "concluded": 7380,
      "PS3": 7381,
      "Yugoslavia": 7382,
      "argue": 7383,
      "Az": 7384,
      "Haw": 7385,
      "Live": 7386,
      "Love": 7387,
      "Post": 7388,
      "Sic": 7389,
      "cin": 7390,
      "hair": 7391,
      "soul": 7392,
      "thal": 7393,
      "theme": 7394,
      "aris": 7395,
      "touch": 7396,
      "stal": 7397,
      "iled": 7398,
      "beat": 7399,
      "acres": 7400,
      "Ali": 7401,
      "driven": 7402,
      "signals": 7403,
      "1966": 7404,
      "Afgh": 7405,
      "tempor": 7406,
      "hosts": 7407,
      "Offic": 7408,
      "rainfall": 7409,
      "Tube": 7410,
      "suggests": 7411,
      "emotions": 7412,
      "category": 7413,
      "abandoned": 7414,
      "moment": 7415,
      "Jeff": 7416,
      "69": 7417,
      "Bul": 7418,
      "ET": 7419,
      "Fle": 7420,
      "Pur": 7421,
      "Pict": 7422,
      "cm": 7423,
      "becomes": 7424,
      "superior": 7425,
      "assic": 7426,
      "correspond": 7427,
      "refuge": 7428,
      "containing": 7429,
      "composition": 7430,
      "selected": 7431,
      "translated": 7432,
      "Slavs": 7433,
      "requirements": 7434,
      "eggs": 7435,
      "hundreds": 7436,
      "precipitation": 7437,
      "asthma": 7438,
      "IT": 7439,
      "Mr": 7440,
      "Merc": 7441,
      "lod": 7442,
      "loyal": 7443,
      "pap": 7444,
      "zen": 7445,
      "inations": 7446,
      "represents": 7447,
      "astructure": 7448,
      "neo": 7449,
      "shire": 7450,
      "acknow": 7451,
      "polar": 7452,
      "ologists": 7453,
      "leads": 7454,
      "1977": 7455,
      "icket": 7456,
      "coverage": 7457,
      "grown": 7458,
      "representatives": 7459,
      "experiences": 7460,
      "execution": 7461,
      "truth": 7462,
      "branches": 7463,
      "Classical": 7464,
      "encouraged": 7465,
      "minimum": 7466,
      "heritage": 7467,
      "Judaism": 7468,
      "pup": 7469,
      "sper": 7470,
      "inian": 7471,
      "theastern": 7472,
      "ati": 7473,
      "edge": 7474,
      "ala": 7475,
      "sets": 7476,
      "shot": 7477,
      "boys": 7478,
      "brand": 7479,
      "mainstream": 7480,
      "cultiv": 7481,
      "Centre": 7482,
      "programming": 7483,
      "sections": 7484,
      "stock": 7485,
      "sequences": 7486,
      "Allied": 7487,
      "magn": 7488,
      "width": 7489,
      "Palest": 7490,
      "ifying": 7491,
      "demonstrated": 7492,
      "planning": 7493,
      "monarchy": 7494,
      "Angeles": 7495,
      "daughter": 7496,
      "slightly": 7497,
      "affirmative": 7498,
      "53": 7499,
      "Ban": 7500,
      "Bab": 7501,
      "DA": 7502,
      "Down": 7503,
      "Fer": 7504,
      "Lit": 7505,
      "Rod": 7506,
      "Sem": 7507,
      "Var": 7508,
      "fashion": 7509,
      "tel": 7510,
      "reme": 7511,
      "escent": 7512,
      "olas": 7513,
      "neur": 7514,
      "grass": 7515,
      "Stone": 7516,
      "predominant": 7517,
      "Prior": 7518,
      "Warsaw": 7519,
      "designated": 7520,
      "possibly": 7521,
      "rulers": 7522,
      "Add": 7523,
      "sixth": 7524,
      "businesses": 7525,
      "digest": 7526,
      "homosexual": 7527,
      "screen": 7528,
      "Ha": 7529,
      "yellow": 7530,
      "stig": 7531,
      "urally": 7532,
      "ares": 7533,
      "1911": 7534,
      "flat": 7535,
      "descent": 7536,
      "Real": 7537,
      "stitu": 7538,
      "1964": 7539,
      "headed": 7540,
      "letic": 7541,
      "processing": 7542,
      "ika": 7543,
      "Polit": 7544,
      "hands": 7545,
      "capacitors": 7546,
      "friends": 7547,
      "philosophical": 7548,
      "retained": 7549,
      "YouTube": 7550,
      "assumed": 7551,
      "Scottish": 7552,
      "phrase": 7553,
      "oxygen": 7554,
      "Zhejiang": 7555,
      "Afghan": 7556,
      "Che": 7557,
      "Fox": 7558,
      "Gulf": 7559,
      "Ken": 7560,
      "NY": 7561,
      "Youn": 7562,
      "batter": 7563,
      "gle": 7564,
      "ved": 7565,
      "instruct": 7566,
      "org": 7567,
      "otherwise": 7568,
      "preval": 7569,
      "uset": 7570,
      "flower": 7571,
      "Project": 7572,
      "singer": 7573,
      "casual": 7574,
      "receiving": 7575,
      "household": 7576,
      "Ministry": 7577,
      "facility": 7578,
      "traits": 7579,
      "hardware": 7580,
      "capacitor": 7581,
      "violence": 7582,
      "spoke": 7583,
      "visitors": 7584,
      "behavi": 7585,
      "approval": 7586,
      "parent": 7587,
      "Stras": 7588,
      "purchased": 7589,
      "Organization": 7590,
      "twenty": 7591,
      "Aristotle": 7592,
      "Bos": 7593,
      "Ele": 7594,
      "Jim": 7595,
      "Umay": 7596,
      "hus": 7597,
      "tan": 7598,
      "acent": 7599,
      "1912": 7600,
      "actor": 7601,
      "illery": 7602,
      "hero": 7603,
      "Conne": 7604,
      "visual": 7605,
      "1963": 7606,
      "matters": 7607,
      "1953": 7608,
      "1956": 7609,
      "skin": 7610,
      "opinion": 7611,
      "discs": 7612,
      "21st": 7613,
      "clean": 7614,
      "emphasis": 7615,
      "cuis": 7616,
      "nutrition": 7617,
      "residential": 7618,
      "Awards": 7619,
      "Bureau": 7620,
      "RO": 7621,
      "Sultan": 7622,
      "inher": 7623,
      "perception": 7624,
      "assess": 7625,
      "ells": 7626,
      "apping": 7627,
      "privile": 7628,
      "cules": 7629,
      "judicial": 7630,
      "Serb": 7631,
      "fantry": 7632,
      "installed": 7633,
      "candidates": 7634,
      "pronoun": 7635,
      "89": 7636,
      "CP": 7637,
      "Fair": 7638,
      "Moh": 7639,
      "Seven": 7640,
      "Wu": 7641,
      "mist": 7642,
      "tas": 7643,
      "zing": 7644,
      "enge": 7645,
      "anda": 7646,
      "empir": 7647,
      "oty": 7648,
      "aints": 7649,
      "extra": 7650,
      "perhaps": 7651,
      "artific": 7652,
      "predat": 7653,
      "correspon": 7654,
      "Around": 7655,
      "Conference": 7656,
      "increases": 7657,
      "Origin": 7658,
      "1958": 7659,
      "successor": 7660,
      "statement": 7661,
      "networks": 7662,
      "responsibility": 7663,
      "violent": 7664,
      "benefits": 7665,
      "Territ": 7666,
      "hunter": 7667,
      "Dominican": 7668,
      "Thuringia": 7669,
      "liquid": 7670,
      "Dur": 7671,
      "Gor": 7672,
      "Mach": 7673,
      "march": 7674,
      "inch": 7675,
      "atol": 7676,
      "adap": 7677,
      "exists": 7678,
      "endment": 7679,
      "compass": 7680,
      "achuset": 7681,
      "mont": 7682,
      "succeeded": 7683,
      "elevators": 7684,
      "emotional": 7685,
      "1920s": 7686,
      "enemy": 7687,
      "Strasbourg": 7688,
      "Him": 7689,
      "Ol": 7690,
      "Sports": 7691,
      "Vide": 7692,
      "cort": 7693,
      "fans": 7694,
      "gi": 7695,
      "iology": 7696,
      "lad": 7697,
      "sav": 7698,
      "winner": 7699,
      "theater": 7700,
      "rein": 7701,
      "conference": 7702,
      "emen": 7703,
      "ota": 7704,
      "sustain": 7705,
      "intens": 7706,
      "locations": 7707,
      "insur": 7708,
      "10th": 7709,
      "filament": 7710,
      "influences": 7711,
      "incident": 7712,
      "unders": 7713,
      "philosopher": 7714,
      "wider": 7715,
      "measured": 7716,
      "expression": 7717,
      "Philippines": 7718,
      "steel": 7719,
      "infrastructure": 7720,
      "keeping": 7721,
      "decrease": 7722,
      "zhou": 7723,
      "mathematics": 7724,
      "lamps": 7725,
      "routes": 7726,
      "ceremony": 7727,
      "renewable": 7728,
      "festivals": 7729,
      "achusetts": 7730,
      "%),": 7731,
      "Mur": 7732,
      "UE": 7733,
      "brow": 7734,
      "solution": 7735,
      "vess": 7736,
      "tole": 7737,
      "images": 7738,
      "peas": 7739,
      "prising": 7740,
      "endum": 7741,
      "Report": 7742,
      "extreme": 7743,
      "iege": 7744,
      "supporting": 7745,
      "valley": 7746,
      "deliver": 7747,
      "begun": 7748,
      "1955": 7749,
      "Abd": 7750,
      "favour": 7751,
      "noble": 7752,
      "vocal": 7753,
      "Massachusetts": 7754,
      "Entertainment": 7755,
      "comprehensive": 7756,
      "71": 7757,
      "74": 7758,
      "Dyn": 7759,
      "IN": 7760,
      "Jos": 7761,
      "Jean": 7762,
      "Link": 7763,
      "NP": 7764,
      "Nich": 7765,
      "Ray": 7766,
      "Test": 7767,
      "diver": 7768,
      "fit": 7769,
      "rice": 7770,
      "rational": 7771,
      "rob": 7772,
      "seems": 7773,
      "amber": 7774,
      "condem": 7775,
      "prohib": 7776,
      "ulty": 7777,
      "phal": 7778,
      "flour": 7779,
      "Anton": 7780,
      "arrhe": 7781,
      "charter": 7782,
      "legit": 7783,
      "cert": 7784,
      "borrow": 7785,
      "1965": 7786,
      "guar": 7787,
      "Trade": 7788,
      "alongside": 7789,
      "Exec": 7790,
      "concern": 7791,
      "says": 7792,
      "companied": 7793,
      "taxes": 7794,
      "legislative": 7795,
      "infrared": 7796,
      "integrated": 7797,
      "throne": 7798,
      "spiritual": 7799,
      "diplomatic": 7800,
      "Lodge": 7801,
      "alpha": 7802,
      "Nepal": 7803,
      "%,": 7804,
      "54": 7805,
      "72": 7806,
      "Ga": 7807,
      "Max": 7808,
      "Ptole": 7809,
      "XX": 7810,
      "tact": 7811,
      "ani": 7812,
      "remove": 7813,
      "lets": 7814,
      "conversion": 7815,
      "unable": 7816,
      "aggress": 7817,
      "accompanied": 7818,
      "assigned": 7819,
      "Staff": 7820,
      "someone": 7821,
      "diff": 7822,
      "files": 7823,
      "representation": 7824,
      "plane": 7825,
      "Olympics": 7826,
      "Does": 7827,
      "Labor": 7828,
      "assistance": 7829,
      "comparison": 7830,
      "controversy": 7831,
      "Foreign": 7832,
      "61": 7833,
      "Es": 7834,
      "Hit": 7835,
      "Nazi": 7836,
      "Por": 7837,
      "Sar": 7838,
      "lan": 7839,
      "inity": 7840,
      "inaug": 7841,
      "toler": 7842,
      "oured": 7843,
      "adian": 7844,
      "immun": 7845,
      "aret": 7846,
      "1910": 7847,
      "overseas": 7848,
      "asts": 7849,
      "owner": 7850,
      "monu": 7851,
      "brid": 7852,
      "writes": 7853,
      "learn": 7854,
      "historian": 7855,
      "recognition": 7856,
      "bacterial": 7857,
      "huge": 7858,
      "filled": 7859,
      "consumer": 7860,
      "Film": 7861,
      "neutral": 7862,
      "urrican": 7863,
      "Fun": 7864,
      "Slov": 7865,
      "rpm": 7866,
      "esty": 7867,
      "acting": 7868,
      "shut": 7869,
      "conson": 7870,
      "archae": 7871,
      "vised": 7872,
      "Maria": 7873,
      "ennium": 7874,
      "incand": 7875,
      "temple": 7876,
      "patron": 7877,
      "iveness": 7878,
      "plicit": 7879,
      "concepts": 7880,
      "Alexandria": 7881,
      "tuberculosis": 7882,
      "geographical": 7883,
      "Vienna": 7884,
      "900": 7885,
      "Daily": 7886,
      "GE": 7887,
      "Special": 7888,
      "sister": 7889,
      "reput": 7890,
      "orm": 7891,
      "itals": 7892,
      "ulpt": 7893,
      "verte": 7894,
      "assass": 7895,
      "2000s": 7896,
      "mail": 7897,
      "finished": 7898,
      "governed": 7899,
      "produces": 7900,
      "portr": 7901,
      "sculpt": 7902,
      "prompt": 7903,
      "adopt": 7904,
      "transferred": 7905,
      "Confeder": 7906,
      "ranges": 7907,
      "Francisco": 7908,
      "breeding": 7909,
      "proposal": 7910,
      "incandescent": 7911,
      "FC": 7912,
      "Pit": 7913,
      "Van": 7914,
      "hospital": 7915,
      "map": 7916,
      "sand": 7917,
      "scr": 7918,
      "uter": 7919,
      "leuc": 7920,
      "abled": 7921,
      "exceed": 7922,
      "iful": 7923,
      "canon": 7924,
      "kee": 7925,
      "Als": 7926,
      "survey": 7927,
      "scar": 7928,
      "diarrhe": 7929,
      "reducing": 7930,
      "NATO": 7931,
      "Appro": 7932,
      "faces": 7933,
      "senior": 7934,
      "assets": 7935,
      "contestants": 7936,
      "candidate": 7937,
      "Freemasonry": 7938,
      "pesticides": 7939,
      "Chihu": 7940,
      "Umayy": 7941,
      "Bol": 7942,
      "Biss": 7943,
      "Est": 7944,
      "NBC": 7945,
      "Rol": 7946,
      "TA": 7947,
      "Was": 7948,
      "dating": 7949,
      "faced": 7950,
      "harm": 7951,
      "iop": 7952,
      "pione": 7953,
      "theatre": 7954,
      "olid": 7955,
      "adjust": 7956,
      "agues": 7957,
      "1917": 7958,
      "grav": 7959,
      "Seleuc": 7960,
      "hydr": 7961,
      "Hebrew": 7962,
      "variations": 7963,
      "goes": 7964,
      "apply": 7965,
      "1952": 7966,
      "define": 7967,
      "commander": 7968,
      "Caes": 7969,
      "assembly": 7970,
      "infection": 7971,
      "criminal": 7972,
      "Species": 7973,
      "safe": 7974,
      "obtained": 7975,
      "Saxon": 7976,
      "restaurants": 7977,
      "Profess": 7978,
      "Executive": 7979,
      "Alsace": 7980,
      "Chihuah": 7981,
      "Cab": 7982,
      "Gra": 7983,
      "Kr": 7984,
      "Kansas": 7985,
      "Late": 7986,
      "Spr": 7987,
      "cant": 7988,
      "assum": 7989,
      "roles": 7990,
      "unciation": 7991,
      "embr": 7992,
      "mann": 7993,
      "artillery": 7994,
      "ours": 7995,
      "worn": 7996,
      "affe": 7997,
      "merged": 7998,
      "transist": 7999,
      "Space": 8000,
      "loan": 8001,
      "referendum": 8002,
      "idden": 8003,
      "damaged": 8004,
      "moral": 8005,
      "onomous": 8006,
      "voice": 8007,
      "Brook": 8008,
      "vehicles": 8009,
      "chromos": 8010,
      "58": 8011,
      "Bor": 8012,
      "Bou": 8013,
      "Dam": 8014,
      "Hal": 8015,
      "Liberal": 8016,
      "Ts": 8017,
      "piano": 8018,
      "ustr": 8019,
      "ermo": 8020,
      "aling": 8021,
      "oust": 8022,
      "ilit": 8023,
      "residence": 8024,
      "comput": 8025,
      "seek": 8026,
      "Poly": 8027,
      "scheme": 8028,
      "bask": 8029,
      "households": 8030,
      "tourists": 8031,
      "bulb": 8032,
      "committed": 8033,
      "bishops": 8034,
      "Justice": 8035,
      "FL": 8036,
      "Ox": 8037,
      "Pass": 8038,
      "Ram": 8039,
      "wr": 8040,
      "wine": 8041,
      "elve": 8042,
      "bean": 8043,
      "frag": 8044,
      "Independence": 8045,
      "1930": 8046,
      "iants": 8047,
      "prise": 8048,
      "somewhat": 8049,
      "spend": 8050,
      "shipping": 8051,
      "Only": 8052,
      "perspect": 8053,
      "economics": 8054,
      "guard": 8055,
      "1947": 8056,
      "brevi": 8057,
      "Swaz": 8058,
      "videos": 8059,
      "broken": 8060,
      "Global": 8061,
      "Michigan": 8062,
      "involving": 8063,
      "Network": 8064,
      "sleep": 8065,
      "Aust": 8066,
      "Jour": 8067,
      "Lo": 8068,
      "Six": 8069,
      "Tay": 8070,
      "Von": 8071,
      "bin": 8072,
      "covers": 8073,
      "lot": 8074,
      "py": 8075,
      "sess": 8076,
      "theology": 8077,
      "told": 8078,
      "idel": 8079,
      "pled": 8080,
      "umes": 8081,
      "neuro": 8082,
      "choose": 8083,
      "feat": 8084,
      "organic": 8085,
      "metres": 8086,
      "1942": 8087,
      "planet": 8088,
      "initiated": 8089,
      "Monica": 8090,
      "Williams": 8091,
      "ethnicity": 8092,
      "targets": 8093,
      "suffering": 8094,
      "atomic": 8095,
      "crops": 8096,
      "occasionally": 8097,
      "Afghanistan": 8098,
      "casualties": 8099,
      "Bissau": 8100,
      "82": 8101,
      "Jr": 8102,
      "Such": 8103,
      "iat": 8104,
      "nights": 8105,
      "waves": 8106,
      "immigration": 8107,
      "util": 8108,
      "plus": 8109,
      "Until": 8110,
      "Program": 8111,
      "1954": 8112,
      "Adminis": 8113,
      "connections": 8114,
      "establishing": 8115,
      "invention": 8116,
      "vinyl": 8117,
      "threatened": 8118,
      "Memorial": 8119,
      "amounts": 8120,
      "vertebr": 8121,
      "Swaziland": 8122,
      "9th": 8123,
      "Master": 8124,
      "voting": 8125,
      "thinking": 8126,
      "outer": 8127,
      "trust": 8128,
      "accompl": 8129,
      "abbrevi": 8130,
      "strike": 8131,
      "conscious": 8132,
      "ologist": 8133,
      "relev": 8134,
      "continuous": 8135,
      "agreements": 8136,
      "entertainment": 8137,
      "tracks": 8138,
      "spectrum": 8139,
      "newspapers": 8140,
      "rarely": 8141,
      "segment": 8142,
      "exercise": 8143,
      "authors": 8144,
      "predators": 8145,
      "UEFA": 8146,
      "CS": 8147,
      "CBS": 8148,
      "Pont": 8149,
      "RS": 8150,
      "pair": 8151,
      "pick": 8152,
      "sn": 8153,
      "sin": 8154,
      "chart": 8155,
      "ilight": 8156,
      "deleg": 8157,
      "ocking": 8158,
      "ulture": 8159,
      "Unlike": 8160,
      "daylight": 8161,
      "paras": 8162,
      "1946": 8163,
      "oxide": 8164,
      "plication": 8165,
      "frequent": 8166,
      "offering": 8167,
      "bombers": 8168,
      "questions": 8169,
      "autonomy": 8170,
      "morph": 8171,
      "elevation": 8172,
      "females": 8173,
      "legislature": 8174,
      "vania": 8175,
      "Jersey": 8176,
      "restored": 8177,
      "suburbs": 8178,
      "Tajikistan": 8179,
      "Fu": 8180,
      "RNA": 8181,
      "],": 8182,
      "ography": 8183,
      "sale": 8184,
      "altit": 8185,
      "ett": 8186,
      "colog": 8187,
      "nothing": 8188,
      "Indones": 8189,
      "background": 8190,
      "begins": 8191,
      "1936": 8192,
      "deaths": 8193,
      "evolutionary": 8194,
      "Corps": 8195,
      "consisting": 8196,
      "besides": 8197,
      "boundaries": 8198,
      "Franklin": 8199,
      "Operation": 8200,
      "cuisine": 8201,
      "Athen": 8202,
      "Bish": 8203,
      "FM": 8204,
      "Kenn": 8205,
      "Ul": 8206,
      "fine": 8207,
      "haz": 8208,
      "iological": 8209,
      "je": 8210,
      "kes": 8211,
      "mile": 8212,
      "mese": 8213,
      "orph": 8214,
      "forb": 8215,
      "trig": 8216,
      "manus": 8217,
      "franch": 8218,
      "shr": 8219,
      "ultane": 8220,
      "Artic": 8221,
      "reloc": 8222,
      "flood": 8223,
      "calls": 8224,
      "drinking": 8225,
      "varies": 8226,
      "funded": 8227,
      "Country": 8228,
      "Bras": 8229,
      "Burmese": 8230,
      "Baltic": 8231,
      "layer": 8232,
      "committee": 8233,
      "bringing": 8234,
      "concentration": 8235,
      "village": 8236,
      "Georgia": 8237,
      "discipline": 8238,
      "Nobel": 8239,
      "platform": 8240,
      "Cel": 8241,
      "Jay": 8242,
      "Jones": 8243,
      "Liver": 8244,
      "Non": 8245,
      "Ru": 8246,
      "Yang": 8247,
      "cars": 8248,
      "fib": 8249,
      "love": 8250,
      "mers": 8251,
      "ilation": 8252,
      "tribe": 8253,
      "ager": 8254,
      "mode": 8255,
      "overty": 8256,
      "ibl": 8257,
      "prepar": 8258,
      "bron": 8259,
      "populous": 8260,
      "heads": 8261,
      "promotion": 8262,
      "1938": 8263,
      "Peace": 8264,
      "representative": 8265,
      "circul": 8266,
      "explain": 8267,
      "tourist": 8268,
      "Cubism": 8269,
      "conflicts": 8270,
      "implemented": 8271,
      "Urugu": 8272,
      "controversial": 8273,
      "encoding": 8274,
      "neighborhoods": 8275,
      "hysics": 8276,
      "Hungary": 8277,
      "FIFA": 8278,
      "DVD": 8279,
      "Young": 8280,
      "Video": 8281,
      "Chihuahua": 8282,
      "Uruguay": 8283,
      "57": 8284,
      "Bah": 8285,
      "Sky": 8286,
      "Yuan": 8287,
      "iod": 8288,
      "wavel": 8289,
      "your": 8290,
      "ancing": 8291,
      "icks": 8292,
      "convict": 8293,
      "uns": 8294,
      "abstr": 8295,
      "explan": 8296,
      "1922": 8297,
      "quir": 8298,
      "quite": 8299,
      "shel": 8300,
      "sharing": 8301,
      "phony": 8302,
      "uez": 8303,
      "consolid": 8304,
      "bright": 8305,
      "aust": 8306,
      "developments": 8307,
      "170": 8308,
      "USAF": 8309,
      "musicians": 8310,
      "personnel": 8311,
      "1931": 8312,
      "Soviets": 8313,
      "northwest": 8314,
      "burgh": 8315,
      "estimates": 8316,
      "Twilight": 8317,
      "survived": 8318,
      "regularly": 8319,
      "adults": 8320,
      "mutual": 8321,
      "Studies": 8322,
      "Military": 8323,
      "Walter": 8324,
      "involves": 8325,
      "Billboard": 8326,
      "dollars": 8327,
      "exclusive": 8328,
      "Rajas": 8329,
      "recommended": 8330,
      "Similar": 8331,
      "Economic": 8332,
      "opposite": 8333,
      "sylvania": 8334,
      "absolute": 8335,
      "abulary": 8336,
      "Bond": 8337,
      "Fund": 8338,
      "bind": 8339,
      "cited": 8340,
      "lach": 8341,
      "oid": 8342,
      "tent": 8343,
      "édé": 8344,
      "atus": 8345,
      "leagues": 8346,
      "entities": 8347,
      "illegal": 8348,
      "elite": 8349,
      "constitu": 8350,
      "united": 8351,
      "manner": 8352,
      "1919": 8353,
      "dismiss": 8354,
      "acks": 8355,
      "counties": 8356,
      "varieties": 8357,
      "Mayor": 8358,
      "compete": 8359,
      "telephone": 8360,
      "teachings": 8361,
      "mixture": 8362,
      "Mahayana": 8363,
      "Solar": 8364,
      "BeiDou": 8365,
      "concentrated": 8366,
      "Golden": 8367,
      "passenger": 8368,
      "junction": 8369,
      "Obama": 8370,
      "banned": 8371,
      "aspirated": 8372,
      "Additionally": 8373,
      "wavelength": 8374,
      "51": 8375,
      "Bowl": 8376,
      "Tam": 8377,
      "gers": 8378,
      "ée": 8379,
      "trained": 8380,
      "placing": 8381,
      "aka": 8382,
      "coron": 8383,
      "Armed": 8384,
      "coins": 8385,
      "consult": 8386,
      "charged": 8387,
      "decide": 8388,
      "1957": 8389,
      "currency": 8390,
      "reaching": 8391,
      "fewer": 8392,
      "Armenians": 8393,
      "peninsula": 8394,
      "satis": 8395,
      "drawn": 8396,
      "settlements": 8397,
      "stein": 8398,
      "assembl": 8399,
      "decreased": 8400,
      "motiv": 8401,
      "restrictions": 8402,
      "cticut": 8403,
      "Continent": 8404,
      "molecular": 8405,
      "customers": 8406,
      "struggle": 8407,
      "cribed": 8408,
      "Pennsylvania": 8409,
      "trend": 8410,
      "Connecticut": 8411,
      "Taylor": 8412,
      "Rajasthan": 8413,
      "Cold": 8414,
      "TS": 8415,
      "flying": 8416,
      "inth": 8417,
      "orbit": 8418,
      "eler": 8419,
      "eless": 8420,
      "acre": 8421,
      "acial": 8422,
      "resign": 8423,
      "permit": 8424,
      "Energy": 8425,
      "Leon": 8426,
      "soil": 8427,
      "writings": 8428,
      "1943": 8429,
      "Palermo": 8430,
      "recognize": 8431,
      "treated": 8432,
      "contributions": 8433,
      "machines": 8434,
      "printing": 8435,
      "adolescence": 8436,
      "Anglican": 8437,
      "prisoners": 8438,
      "farmers": 8439,
      "sovereignty": 8440,
      "losing": 8441,
      "coalition": 8442,
      "alleged": 8443,
      "conventional": 8444,
      "descendants": 8445,
      "Natural": 8446,
      "67": 8447,
      "AR": 8448,
      "Ba": 8449,
      "Buc": 8450,
      "Duch": 8451,
      "Pale": 8452,
      "sed": 8453,
      "thick": 8454,
      "theor": 8455,
      "rely": 8456,
      "whites": 8457,
      "uted": 8458,
      "utical": 8459,
      "exposed": 8460,
      "ockey": 8461,
      "pole": 8462,
      "substance": 8463,
      "Dean": 8464,
      "classic": 8465,
      "rossing": 8466,
      "designs": 8467,
      "passage": 8468,
      "nationality": 8469,
      "patients": 8470,
      "ministers": 8471,
      "criter": 8472,
      "carrying": 8473,
      "conception": 8474,
      "Coast": 8475,
      "vertical": 8476,
      "participate": 8477,
      "performing": 8478,
      "coding": 8479,
      "ranging": 8480,
      "immune": 8481,
      "isolated": 8482,
      "Temple": 8483,
      "girls": 8484,
      ",[": 8485,
      "Kur": 8486,
      "Main": 8487,
      "Tal": 8488,
      "bapt": 8489,
      "cue": 8490,
      "iro": 8491,
      "ninet": 8492,
      "onial": 8493,
      "ora": 8494,
      "orthodox": 8495,
      "stages": 8496,
      "stret": 8497,
      "chlor": 8498,
      "convention": 8499,
      "agent": 8500,
      "isted": 8501,
      "Inc": 8502,
      "cler": 8503,
      "dub": 8504,
      "displayed": 8505,
      "cord": 8506,
      "fled": 8507,
      "spending": 8508,
      "invade": 8509,
      "controls": 8510,
      "metals": 8511,
      "passing": 8512,
      "independently": 8513,
      "Medicine": 8514,
      "wrestler": 8515,
      "strengthen": 8516,
      "accurate": 8517,
      "Caesar": 8518,
      "',": 8519,
      "91": 8520,
      "Gil": 8521,
      "ko": 8522,
      "pella": 8523,
      "input": 8524,
      "stating": 8525,
      "stories": 8526,
      "adj": 8527,
      "adher": 8528,
      "confirmed": 8529,
      "Inn": 8530,
      "monaster": 8531,
      "relief": 8532,
      "populated": 8533,
      "Reformation": 8534,
      "interior": 8535,
      "capita": 8536,
      "Leban": 8537,
      "varied": 8538,
      "Tri": 8539,
      "Trad": 8540,
      "Author": 8541,
      "130": 8542,
      "Carib": 8543,
      "1937": 8544,
      "Frédé": 8545,
      "civilization": 8546,
      "magnetic": 8547,
      "connecting": 8548,
      "denied": 8549,
      "harmon": 8550,
      "rising": 8551,
      "Luf": 8552,
      "varying": 8553,
      "Railway": 8554,
      "jurisdiction": 8555,
      "Samoa": 8556,
      "Balkans": 8557,
      "appropriate": 8558,
      "paintings": 8559,
      "Jefferson": 8560,
      "Frédéric": 8561,
      "iew": 8562,
      "salt": 8563,
      "aristo": 8564,
      "ima": 8565,
      "defic": 8566,
      "agar": 8567,
      "string": 8568,
      "twaffe": 8569,
      "crete": 8570,
      "cru": 8571,
      "Head": 8572,
      "loans": 8573,
      "Canal": 8574,
      "buried": 8575,
      "explor": 8576,
      "professor": 8577,
      "teacher": 8578,
      "horse": 8579,
      "Crime": 8580,
      "necessarily": 8581,
      "nucle": 8582,
      "discussed": 8583,
      "geographic": 8584,
      "Television": 8585,
      "abolished": 8586,
      "distinguished": 8587,
      "opportun": 8588,
      "Sweden": 8589,
      "scheduled": 8590,
      "Mercury": 8591,
      "Oxford": 8592,
      "Luftwaffe": 8593,
      "Kill": 8594,
      "Ros": 8595,
      "SE": 8596,
      "Sciences": 8597,
      "ein": 8598,
      "moun": 8599,
      "pires": 8600,
      "swe": 8601,
      "voy": 8602,
      "incent": 8603,
      "error": 8604,
      "ched": 8605,
      "waste": 8606,
      "imposed": 8607,
      "artistic": 8608,
      "earn": 8609,
      "neither": 8610,
      "Champions": 8611,
      "bled": 8612,
      "disp": 8613,
      "distributed": 8614,
      "crimes": 8615,
      "Argent": 8616,
      "calling": 8617,
      "Ford": 8618,
      "argument": 8619,
      "voters": 8620,
      "reflected": 8621,
      "easy": 8622,
      "philosophers": 8623,
      "Control": 8624,
      "mathematical": 8625,
      "opportunity": 8626,
      "infringement": 8627,
      "Sicily": 8628,
      "relevant": 8629,
      "Caribbean": 8630,
      "Aud": 8631,
      "Carr": 8632,
      "Hor": 8633,
      "Hud": 8634,
      "Sud": 8635,
      "Saf": 8636,
      "Turn": 8637,
      "cow": 8638,
      "pav": 8639,
      "alum": 8640,
      "tools": 8641,
      "idency": 8642,
      "abbey": 8643,
      "exempt": 8644,
      "persec": 8645,
      "ardens": 8646,
      "Stan": 8647,
      "merely": 8648,
      "genet": 8649,
      "enses": 8650,
      "Ther": 8651,
      "mainland": 8652,
      "marry": 8653,
      "spot": 8654,
      "interface": 8655,
      "extend": 8656,
      "cappella": 8657,
      "Romance": 8658,
      "links": 8659,
      "follows": 8660,
      "apped": 8661,
      "educated": 8662,
      "dielectric": 8663,
      "civilian": 8664,
      "Method": 8665,
      "adesh": 8666,
      "stopped": 8667,
      "Protestants": 8668,
      "habitat": 8669,
      "Andrew": 8670,
      "revolutionary": 8671,
      "psychology": 8672,
      "pollution": 8673,
      "Relig": 8674,
      "denominations": 8675,
      "Liverpool": 8676,
      "aristocr": 8677,
      "Pact": 8678,
      "Sel": 8679,
      "Sher": 8680,
      "mouth": 8681,
      "sa": 8682,
      "uous": 8683,
      "infl": 8684,
      "encounter": 8685,
      "isters": 8686,
      "itan": 8687,
      "stan": 8688,
      "iday": 8689,
      "aments": 8690,
      "convert": 8691,
      "ista": 8692,
      "proof": 8693,
      "antenn": 8694,
      "osaur": 8695,
      "izona": 8696,
      "ometers": 8697,
      "aches": 8698,
      "1800": 8699,
      "Arizona": 8700,
      "intent": 8701,
      "Franco": 8702,
      "linear": 8703,
      "simultane": 8704,
      "aimed": 8705,
      "skills": 8706,
      "killing": 8707,
      "secure": 8708,
      "storm": 8709,
      "survive": 8710,
      "chemicals": 8711,
      "Electric": 8712,
      "humid": 8713,
      "Ukraine": 8714,
      "manufacturers": 8715,
      "compatible": 8716,
      "artificial": 8717,
      "diarrhea": 8718,
      "adjacent": 8719,
      "96": 8720,
      "AI": 8721,
      "Agency": 8722,
      "Bad": 8723,
      "Fron": 8724,
      "Home": 8725,
      "Ten": 8726,
      "VII": 8727,
      "len": 8728,
      "oe": 8729,
      "rick": 8730,
      "vacc": 8731,
      "rey": 8732,
      "remov": 8733,
      "alu": 8734,
      "icom": 8735,
      "itudes": 8736,
      "leaves": 8737,
      "elab": 8738,
      "ationally": 8739,
      "lyn": 8740,
      "conven": 8741,
      "aga": 8742,
      "comic": 8743,
      "Instead": 8744,
      "ifice": 8745,
      "shore": 8746,
      "partly": 8747,
      "awards": 8748,
      "regards": 8749,
      "originate": 8750,
      "missile": 8751,
      "1951": 8752,
      "kinds": 8753,
      "skill": 8754,
      "civilians": 8755,
      "bombs": 8756,
      "oultry": 8757,
      "rebels": 8758,
      "uniform": 8759,
      "Championship": 8760,
      "Little": 8761,
      "reputation": 8762,
      "featuring": 8763,
      "Line": 8764,
      "Nik": 8765,
      "Open": 8766,
      "Pap": 8767,
      "Wii": 8768,
      "bat": 8769,
      "hier": 8770,
      "rated": 8771,
      "sz": 8772,
      "siege": 8773,
      "alism": 8774,
      "tool": 8775,
      "urs": 8776,
      "unte": 8777,
      "ests": 8778,
      "uten": 8779,
      "tection": 8780,
      "compound": 8781,
      "mining": 8782,
      "ails": 8783,
      "annels": 8784,
      "warr": 8785,
      "arrive": 8786,
      "legally": 8787,
      "Heart": 8788,
      "engaged": 8789,
      "Marx": 8790,
      "inners": 8791,
      "Trust": 8792,
      "receives": 8793,
      "solo": 8794,
      "Media": 8795,
      "Revolutionary": 8796,
      "prevented": 8797,
      "performances": 8798,
      "avalry": 8799,
      "MPEG": 8800,
      "Digital": 8801,
      "testers": 8802,
      "Point": 8803,
      "immediate": 8804,
      "arrested": 8805,
      "Ukrainian": 8806,
      "Furthermore": 8807,
      "prepared": 8808,
      "Nicholas": 8809,
      "Hudson": 8810,
      "'.": 8811,
      "Cru": 8812,
      "EM": 8813,
      "Mot": 8814,
      "Mali": 8815,
      "Sk": 8816,
      "Sin": 8817,
      "Show": 8818,
      "fairs": 8819,
      "iates": 8820,
      "jan": 8821,
      "mart": 8822,
      "none": 8823,
      "poverty": 8824,
      "sphere": 8825,
      "xi": 8826,
      "eda": 8827,
      "olics": 8828,
      "abil": 8829,
      "exual": 8830,
      "plain": 8831,
      "evacu": 8832,
      "partner": 8833,
      "commem": 8834,
      "supplies": 8835,
      "noise": 8836,
      "Auto": 8837,
      "Carl": 8838,
      "amongst": 8839,
      "learned": 8840,
      "sky": 8841,
      "Arabs": 8842,
      "explo": 8843,
      "blacks": 8844,
      "Communic": 8845,
      "consistent": 8846,
      "situated": 8847,
      "Daniel": 8848,
      "exclusively": 8849,
      "shopping": 8850,
      "scenes": 8851,
      "Industrial": 8852,
      "Alfred": 8853,
      "acknowled": 8854,
      "alphabet": 8855,
      "Front": 8856,
      "DJ": 8857,
      "Lor": 8858,
      "Never": 8859,
      "hill": 8860,
      "ool": 8861,
      "ugh": 8862,
      "vul": 8863,
      "wer": 8864,
      "ende": 8865,
      "encompass": 8866,
      "channels": 8867,
      "doors": 8868,
      "worst": 8869,
      "Howard": 8870,
      "prestig": 8871,
      "ranks": 8872,
      "inton": 8873,
      "boards": 8874,
      "governing": 8875,
      "identical": 8876,
      "arrival": 8877,
      "charges": 8878,
      "Dec": 8879,
      "numbered": 8880,
      "valid": 8881,
      "expedition": 8882,
      "breaking": 8883,
      "lasted": 8884,
      "holders": 8885,
      "sentence": 8886,
      "closer": 8887,
      "synthesis": 8888,
      "broadcasting": 8889,
      "Valencian": 8890,
      "HDTV": 8891,
      "eye": 8892,
      "competitions": 8893,
      "commissioned": 8894,
      "eliminated": 8895,
      "Scout": 8896,
      "citizenship": 8897,
      "enforcement": 8898,
      "Ethiop": 8899,
      "description": 8900,
      "Approximately": 8901,
      "83": 8902,
      "Dest": 8903,
      "LP": 8904,
      "pel": 8905,
      "save": 8906,
      "wart": 8907,
      "youth": 8908,
      "refin": 8909,
      "iture": 8910,
      "iling": 8911,
      "urg": 8912,
      "urated": 8913,
      "terior": 8914,
      "1913": 8915,
      "allied": 8916,
      "pharm": 8917,
      "drum": 8918,
      "Marath": 8919,
      "operational": 8920,
      "Christo": 8921,
      "pointed": 8922,
      "Prov": 8923,
      "1959": 8924,
      "bases": 8925,
      "Catholics": 8926,
      "scientist": 8927,
      "specialized": 8928,
      "frequencies": 8929,
      "emergency": 8930,
      "Harbor": 8931,
      "joining": 8932,
      "Interstate": 8933,
      "encourage": 8934,
      "parliamentary": 8935,
      "Antarctic": 8936,
      "challenge": 8937,
      "prophe": 8938,
      "Metropolitan": 8939,
      "Broadway": 8940,
      "virtually": 8941,
      "annexed": 8942,
      "cognitive": 8943,
      "deposits": 8944,
      "Bulgar": 8945,
      "86": 8946,
      "Ath": 8947,
      "Ale": 8948,
      "Every": 8949,
      "Has": 8950,
      "Ky": 8951,
      "Mas": 8952,
      "PV": 8953,
      "Pius": 8954,
      "Sup": 8955,
      "ao": 8956,
      "fiber": 8957,
      "gal": 8958,
      "lob": 8959,
      "narr": 8960,
      "sel": 8961,
      "vit": 8962,
      "wound": 8963,
      "eras": 8964,
      "istr": 8965,
      "lywood": 8966,
      "acids": 8967,
      "istical": 8968,
      "overth": 8969,
      "grain": 8970,
      "centres": 8971,
      "geome": 8972,
      "ongo": 8973,
      "twelve": 8974,
      "attached": 8975,
      "warfare": 8976,
      "Warner": 8977,
      "technic": 8978,
      "Adam": 8979,
      "facilit": 8980,
      "accum": 8981,
      "judg": 8982,
      "rocket": 8983,
      "wealthy": 8984,
      "Series": 8985,
      "Crus": 8986,
      "shares": 8987,
      "participated": 8988,
      "attracted": 8989,
      "Capital": 8990,
      "weapon": 8991,
      "alloys": 8992,
      "mortg": 8993,
      "sacrifice": 8994,
      "opponents": 8995,
      "cinem": 8996,
      "NYC": 8997,
      "vessels": 8998,
      "Hitler": 8999,
      "Ah": 9000,
      "Cret": 9001,
      "Federation": 9002,
      "Lama": 9003,
      "Vat": 9004,
      "aes": 9005,
      "gross": 9006,
      "mol": 9007,
      "oir": 9008,
      "zz": 9009,
      "attribut": 9010,
      "stro": 9011,
      "chick": 9012,
      "eland": 9013,
      "sees": 9014,
      "advent": 9015,
      "contribute": 9016,
      "strip": 9017,
      "eva": 9018,
      "compens": 9019,
      "cathedral": 9020,
      "epic": 9021,
      "depends": 9022,
      "willing": 9023,
      "claiming": 9024,
      "trait": 9025,
      "1876": 9026,
      "panel": 9027,
      "commerce": 9028,
      "autiful": 9029,
      "Samuel": 9030,
      "synthetic": 9031,
      "functional": 9032,
      "Montini": 9033,
      "broadcasts": 9034,
      "difficulty": 9035,
      "neighboring": 9036,
      "Defense": 9037,
      "HDI": 9038,
      "farming": 9039,
      "details": 9040,
      "linguistic": 9041,
      "Castle": 9042,
      "forests": 9043,
      "picture": 9044,
      "basketball": 9045,
      "Journal": 9046,
      "Kennedy": 9047,
      "Cas": 9048,
      "Cau": 9049,
      "Mol": 9050,
      "Rico": 9051,
      "Tel": 9052,
      "Vis": 9053,
      "Wild": 9054,
      "dio": 9055,
      "fold": 9056,
      "fishing": 9057,
      "rub": 9058,
      "waters": 9059,
      "intr": 9060,
      "react": 9061,
      "reverse": 9062,
      "arose": 9063,
      "ila": 9064,
      "seed": 9065,
      "congress": 9066,
      "emigr": 9067,
      "explicit": 9068,
      "cla": 9069,
      "desire": 9070,
      "transit": 9071,
      "borne": 9072,
      "Once": 9073,
      "myst": 9074,
      "Attic": 9075,
      "Shah": 9076,
      "funeral": 9077,
      "Color": 9078,
      "structural": 9079,
      "possibility": 9080,
      "Engine": 9081,
      "consisted": 9082,
      "logical": 9083,
      "campaigns": 9084,
      "ISO": 9085,
      "collaps": 9086,
      "reserves": 9087,
      "Georgian": 9088,
      "slowly": 9089,
      "pronunciation": 9090,
      "duties": 9091,
      "stimul": 9092,
      "Continental": 9093,
      "Dor": 9094,
      "Hok": 9095,
      "Lie": 9096,
      "Naz": 9097,
      "Sab": 9098,
      "bis": 9099,
      "faster": 9100,
      "ien": 9101,
      "rib": 9102,
      "task": 9103,
      "vice": 9104,
      "inated": 9105,
      "alter": 9106,
      "roc": 9107,
      "defect": 9108,
      "option": 9109,
      "trip": 9110,
      "agh": 9111,
      "complic": 9112,
      "aph": 9113,
      "earned": 9114,
      "tech": 9115,
      "ibilities": 9116,
      "indirect": 9117,
      "coin": 9118,
      "kness": 9119,
      "oked": 9120,
      "osevel": 9121,
      "publicly": 9122,
      "Declar": 9123,
      "Marg": 9124,
      "Russell": 9125,
      "appeal": 9126,
      "busiest": 9127,
      "1934": 9128,
      "readers": 9129,
      "planes": 9130,
      "Roosevel": 9131,
      "literacy": 9132,
      "explained": 9133,
      "foods": 9134,
      "Turks": 9135,
      "Mugh": 9136,
      "infectious": 9137,
      "molecules": 9138,
      "affiliated": 9139,
      "Sumerian": 9140,
      "shaped": 9141,
      "registered": 9142,
      "toxic": 9143,
      "Dynasty": 9144,
      "perspective": 9145,
      "antennas": 9146,
      "szlach": 9147,
      "Beng": 9148,
      "Cir": 9149,
      "Cla": 9150,
      "Dom": 9151,
      "Much": 9152,
      "Pas": 9153,
      "Women": 9154,
      "bits": 9155,
      "lake": 9156,
      "oque": 9157,
      "raw": 9158,
      "inherit": 9159,
      "index": 9160,
      "ensu": 9161,
      "imag": 9162,
      "unlike": 9163,
      "deed": 9164,
      "protesters": 9165,
      "1925": 9166,
      "outube": 9167,
      "partially": 9168,
      "coln": 9169,
      "undergraduate": 9170,
      "opera": 9171,
      "140": 9172,
      "factory": 9173,
      "Shan": 9174,
      "Trib": 9175,
      "technological": 9176,
      "Fried": 9177,
      "migrate": 9178,
      "authorized": 9179,
      "Madrid": 9180,
      "concerning": 9181,
      "Ottomans": 9182,
      "investigation": 9183,
      "1909": 9184,
      "logic": 9185,
      "regulation": 9186,
      "windows": 9187,
      "layers": 9188,
      "symbols": 9189,
      "cardinals": 9190,
      "exhibition": 9191,
      "distinguish": 9192,
      "symme": 9193,
      "extinct": 9194,
      "message": 9195,
      "Lincoln": 9196,
      "opportunities": 9197,
      "Vatican": 9198,
      "Roosevelt": 9199,
      "Abu": 9200,
      "CIA": 9201,
      "Gi": 9202,
      "Iber": 9203,
      "Set": 9204,
      "Sect": 9205,
      "Yong": 9206,
      "cens": 9207,
      "crown": 9208,
      "lia": 9209,
      "revenues": 9210,
      "iva": 9211,
      "imped": 9212,
      "estimate": 9213,
      "uty": 9214,
      "prosper": 9215,
      "ighters": 9216,
      "centered": 9217,
      "owns": 9218,
      "boom": 9219,
      "Isles": 9220,
      "invited": 9221,
      "extension": 9222,
      "signif": 9223,
      "tests": 9224,
      "Neolithic": 9225,
      "declar": 9226,
      "Queens": 9227,
      "Medieval": 9228,
      "Madison": 9229,
      "Within": 9230,
      "1871": 9231,
      "minorities": 9232,
      "victims": 9233,
      "Brah": 9234,
      "ukary": 9235,
      "distinctive": 9236,
      "absorbed": 9237,
      "detailed": 9238,
      "chronic": 9239,
      "modified": 9240,
      "Administration": 9241,
      "81": 9242,
      "AN": 9243,
      "CII": 9244,
      "Kir": 9245,
      "Rem": 9246,
      "So": 9247,
      "Tang": 9248,
      "Vill": 9249,
      "hosp": 9250,
      "southeast": 9251,
      "erals": 9252,
      "enabled": 9253,
      "editions": 9254,
      "Whit": 9255,
      "adding": 9256,
      "agents": 9257,
      "acular": 9258,
      "fruit": 9259,
      "etary": 9260,
      "osy": 9261,
      "notion": 9262,
      "meters": 9263,
      "aceutical": 9264,
      "mines": 9265,
      "spaces": 9266,
      "finite": 9267,
      "Priv": 9268,
      "northeast": 9269,
      "studying": 9270,
      "federalism": 9271,
      "explos": 9272,
      "recognised": 9273,
      "acceptable": 9274,
      "Freedom": 9275,
      "1861": 9276,
      "horiz": 9277,
      "conservation": 9278,
      "optim": 9279,
      "Area": 9280,
      "Opera": 9281,
      "Karl": 9282,
      "Rhine": 9283,
      "Macedonian": 9284,
      "sponsored": 9285,
      "circumstances": 9286,
      "Belgium": 9287,
      "prevalent": 9288,
      "Sudan": 9289,
      "Declaration": 9290,
      "PN": 9291,
      "Syn": 9292,
      "WW": 9293,
      "cub": 9294,
      "uct": 9295,
      "thood": 9296,
      "thew": 9297,
      "atically": 9298,
      "esh": 9299,
      "stars": 9300,
      "osph": 9301,
      "akers": 9302,
      "ritual": 9303,
      "aching": 9304,
      "boat": 9305,
      "annivers": 9306,
      "feud": 9307,
      "thereby": 9308,
      "signs": 9309,
      "filed": 9310,
      "tower": 9311,
      "followers": 9312,
      "backed": 9313,
      "Carth": 9314,
      "divor": 9315,
      "succession": 9316,
      "introduce": 9317,
      "handle": 9318,
      "Schol": 9319,
      "literally": 9320,
      "Abbey": 9321,
      "manufactured": 9322,
      "custo": 9323,
      "discussion": 9324,
      "looking": 9325,
      "vocabulary": 9326,
      "essentially": 9327,
      "villages": 9328,
      "Hotel": 9329,
      "protocol": 9330,
      "cabinet": 9331,
      "fossil": 9332,
      "Aqu": 9333,
      "GM": 9334,
      "Lat": 9335,
      "Mir": 9336,
      "ecolog": 9337,
      "flex": 9338,
      "ktop": 9339,
      "infantry": 9340,
      "attraction": 9341,
      "enacted": 9342,
      "orous": 9343,
      "itage": 9344,
      "consec": 9345,
      "deem": 9346,
      "decess": 9347,
      "accent": 9348,
      "etes": 9349,
      "permitted": 9350,
      "disaster": 9351,
      "predecess": 9352,
      "monks": 9353,
      "raise": 9354,
      "coordin": 9355,
      "adequ": 9356,
      "publishing": 9357,
      "eenth": 9358,
      "airports": 9359,
      "ugby": 9360,
      "parad": 9361,
      "engage": 9362,
      "faculty": 9363,
      "culmin": 9364,
      "Heritage": 9365,
      "indicated": 9366,
      "eyes": 9367,
      "Julian": 9368,
      "szlachta": 9369,
      "Base": 9370,
      "Bann": 9371,
      "Five": 9372,
      "FSR": 9373,
      "Hon": 9374,
      "Let": 9375,
      "MTV": 9376,
      "nit": 9377,
      "papers": 9378,
      "recept": 9379,
      "ander": 9380,
      "stability": 9381,
      "whel": 9382,
      "beings": 9383,
      "unemployment": 9384,
      "embar": 9385,
      "ocent": 9386,
      "phard": 9387,
      "disrupt": 9388,
      "aceous": 9389,
      "raids": 9390,
      "minute": 9391,
      "offensive": 9392,
      "aux": 9393,
      "curric": 9394,
      "publications": 9395,
      "kingham": 9396,
      "asonic": 9397,
      "promised": 9398,
      "Disney": 9399,
      "1907": 9400,
      "revival": 9401,
      "findings": 9402,
      "younger": 9403,
      "surviving": 9404,
      "familiar": 9405,
      "Calvin": 9406,
      "instrumental": 9407,
      "glaciers": 9408,
      "Hungarian": 9409,
      "Manchu": 9410,
      "preserved": 9411,
      "Movement": 9412,
      "heterosexual": 9413,
      "adapted": 9414,
      "Buckingham": 9415,
      "consecutive": 9416,
      "Bh": 9417,
      "Lam": 9418,
      "Sav": 9419,
      "Tar": 9420,
      "Writ": 9421,
      "aqu": 9422,
      "mble": 9423,
      "nt": 9424,
      "pin": 9425,
      "vac": 9426,
      "thin": 9427,
      "icop": 9428,
      "ented": 9429,
      "ching": 9430,
      "heating": 9431,
      "proclaimed": 9432,
      "grid": 9433,
      "oven": 9434,
      "suburban": 9435,
      "heres": 9436,
      "eleven": 9437,
      "seeking": 9438,
      "sequently": 9439,
      "Juan": 9440,
      "collected": 9441,
      "1870": 9442,
      "adoption": 9443,
      "teachers": 9444,
      "painting": 9445,
      "emergence": 9446,
      "UNF": 9447,
      "millions": 9448,
      "democratic": 9449,
      "priests": 9450,
      "licensed": 9451,
      "Dalai": 9452,
      "obligations": 9453,
      "Indonesia": 9454,
      "Ag": 9455,
      "Hom": 9456,
      "Hus": 9457,
      "Lar": 9458,
      "Wy": 9459,
      "bow": 9460,
      "bills": 9461,
      "dip": 9462,
      "lap": 9463,
      "sons": 9464,
      "tied": 9465,
      "tomb": 9466,
      "omination": 9467,
      "elle": 9468,
      "resigned": 9469,
      "apa": 9470,
      "apore": 9471,
      "etime": 9472,
      "plastic": 9473,
      "anger": 9474,
      "aws": 9475,
      "intention": 9476,
      "anything": 9477,
      "Newton": 9478,
      "intermed": 9479,
      "factories": 9480,
      "Affairs": 9481,
      "diagn": 9482,
      "competing": 9483,
      "availability": 9484,
      "dictator": 9485,
      "Hollywood": 9486,
      "experiments": 9487,
      "weekly": 9488,
      "millennium": 9489,
      "ASCII": 9490,
      "attendance": 9491,
      "glacier": 9492,
      "propag": 9493,
      "Famicom": 9494,
      "vehicle": 9495,
      "Locke": 9496,
      "RIBA": 9497,
      "dramatic": 9498,
      "conferencing": 9499,
      "recovery": 9500,
      "Leader": 9501,
      "transistor": 9502,
      "CN": 9503,
      "Dog": 9504,
      "Les": 9505,
      "Scient": 9506,
      "cavalry": 9507,
      "eukary": 9508,
      "fal": 9509,
      "gone": 9510,
      "atr": 9511,
      "remember": 9512,
      "icide": 9513,
      "tood": 9514,
      "secre": 9515,
      "amics": 9516,
      "impossible": 9517,
      "shar": 9518,
      "overwhel": 9519,
      "ipality": 9520,
      "pregn": 9521,
      "interactions": 9522,
      "stands": 9523,
      "expelled": 9524,
      "childhood": 9525,
      "sects": 9526,
      "architects": 9527,
      "justice": 9528,
      "maintaining": 9529,
      "appointment": 9530,
      "license": 9531,
      "elsewhere": 9532,
      "involvement": 9533,
      "fellow": 9534,
      "walk": 9535,
      "Intellig": 9536,
      "ownership": 9537,
      "deployed": 9538,
      "Gregor": 9539,
      "atmosphere": 9540,
      "understood": 9541,
      "Brooklyn": 9542,
      "Bishop": 9543,
      "Caucas": 9544,
      "anniversary": 9545,
      "UNFPA": 9546,
      "94": 9547,
      "Agr": 9548,
      "Barr": 9549,
      "Fred": 9550,
      "Garden": 9551,
      "HS": 9552,
      "Hard": 9553,
      "Liter": 9554,
      "Pom": 9555,
      "Pier": 9556,
      "Watch": 9557,
      "navy": 9558,
      "inhab": 9559,
      "eration": 9560,
      "tourn": 9561,
      "iders": 9562,
      "illy": 9563,
      "acles": 9564,
      "Init": 9565,
      "shor": 9566,
      "prev": 9567,
      "merc": 9568,
      "presidency": 9569,
      "math": 9570,
      "Ang": 9571,
      "ailand": 9572,
      "Commer": 9573,
      "capabilities": 9574,
      "movies": 9575,
      "Spir": 9576,
      "retreat": 9577,
      "guitar": 9578,
      "1940s": 9579,
      "particles": 9580,
      "singing": 9581,
      "patents": 9582,
      "castle": 9583,
      "biology": 9584,
      "bandwidth": 9585,
      "chemistry": 9586,
      "trains": 9587,
      "meetings": 9588,
      "crossed": 9589,
      "Termin": 9590,
      "kilometers": 9591,
      "suspect": 9592,
      "bankrupt": 9593,
      "possession": 9594,
      "Singapore": 9595,
      "ancestors": 9596,
      "Architecture": 9597,
      "urricane": 9598,
      "criteria": 9599,
      "Cretaceous": 9600,
      "Jac": 9601,
      "Kent": 9602,
      "Night": 9603,
      "OR": 9604,
      "gang": 9605,
      "inland": 9606,
      "rebellion": 9607,
      "alk": 9608,
      "isition": 9609,
      "stall": 9610,
      "clust": 9611,
      "ques": 9612,
      "portions": 9613,
      "Alban": 9614,
      "viewers": 9615,
      "olves": 9616,
      "instein": 9617,
      "continuing": 9618,
      "southwest": 9619,
      "productive": 9620,
      "connects": 9621,
      "lords": 9622,
      "denomination": 9623,
      "sugar": 9624,
      "interested": 9625,
      "finding": 9626,
      "customs": 9627,
      "Cape": 9628,
      "Nigerian": 9629,
      "hope": 9630,
      "surrounded": 9631,
      "ISP": 9632,
      "headquartered": 9633,
      "miral": 9634,
      "suitable": 9635,
[...]
