{
  "version": "1.0",
  "truncation": null,
  "padding": null,
  "added_tokens": [
    {
      "id": 0,
      "content": "[PAD]",
      "single_word": false,
      "lstrip": false,
      "rstrip": false,
      "normalized": false,
      "special": true
    },
    {
      "id": 1,
      "content": "[UNK]",
      "single_word": false,
      "lstrip": false,
      "rstrip": false,
      "normalized": false,
      "special": true
    },
    {
      "id": 2,
      "content": "[CLS]",
      "single_word": false,
      "lstrip": false,
      "rstrip": false,
      "normalized": false,
      "special": true
    },
    {
      "id": 3,
      "content": "[SEP]",
      "single_word": false,
      "lstrip": false,
      "rstrip": false,
      "normalized": false,
      "special": true
    },
    {
      "id": 4,
      "content": "[MASK]",
      "single_word": false,
      "lstrip": false,
      "rstrip": false,
      "normalized": false,
      "special": true
    }
  ],
  "normalizer": {
    "type": "Sequence",
    "normalizers": [
      {
        "type": "NFD"
      },
      {
        "type": "Lowercase"
      },
      {
        "type": "StripAccents"
      }
    ]
  },
  "pre_tokenizer": {
    "type": "Whitespace"
  },
  "post_processor": null,
  "decoder": null,
  "model": {
    "type": "BPE",
    "dropout": null,
    "unk_token": null,
    "continuing_subword_prefix": null,
    "end_of_word_suffix": null,
    "fuse_unk": false,
    "byte_fallback": false,
    "ignore_merges": false,
    "vocab": {
      "[PAD]": 0,
      "[UNK]": 1,
      "[CLS]": 2,
      "[SEP]": 3,
      "[MASK]": 4,
      "!": 5,
      "$": 6,
      "&": 7,
      "'": 8,
      ",": 9,
      "-": 10,
      ".": 11,
      "3": 12,
      ":": 13,
      ";": 14,
      "?": 15,
      "a": 16,
      "b": 17,
      "c": 18,
      "d": 19,
      "e": 20,
      "f": 21,
      "g": 22,
      "h": 23,
      "i": 24,
      "j": 25,
      "k": 26,
      "l": 27,
      "m": 28,
      "n": 29,
      "o": 30,
      "p": 31,
      "q": 32,
      "r": 33,
      "s": 34,
      "t": 35,
      "u": 36,
      "v": 37,
      "w": 38,
      "x": 39,
      "y": 40,
      "z": 41,
      "th": 42,
      "ou": 43,
      "an": 44,
      "er": 45,
      "in": 46,
      "the": 47,
      "or": 48,
      "en": 49,
      "ar": 50,
      "is": 51,
      "on": 52,
      "and": 53,
      "at": 54,
      "st": 55,
      "ll": 56,
      "to": 57,
      "me": 58,
      "you": 59,
      "es": 60,
      "no": 61,
      "ha": 62,
      "se": 63,
      "ing": 64,
      "of": 65,
      "he": 66,
      "le": 67,
      "be": 68,
      "re": 69,
      "wi": 70,
      "wh": 71,
      "ve": 72,
      "it": 73,
      "ch": 74,
      "ro": 75,
      "my": 76,
      "for": 77,
      "ce": 78,
      "as": 79,
      "ay": 80,
      "that": 81,
      "li": 82,
      "ed": 83,
      "ir": 84,
      "we": 85,
      "ere": 86,
      "ld": 87,
      "ut": 88,
      "ke": 89,
      "not": 90,
      "us": 91,
      "ri": 92,
      "de": 93,
      "lo": 94,
      "with": 95,
      "so": 96,
      "gh": 97,
      "ent": 98,
      "co": 99,
      "thou": 100,
      "your": 101,
      "go": 102,
      "hi": 103,
      "ow": 104,
      "our": 105,
      "al": 106,
      "et": 107,
      "ad": 108,
      "his": 109,
      "but": 110,
      "un": 111,
      "this": 112,
      "ther": 113,
      "io": 114,
      "all": 115,
      "have": 116,
      "ard": 117,
      "ly": 118,
      "do": 119,
      "ght": 120,
      "ur": 121,
      "ra": 122,
      "him": 123,
      "ma": 124,
      "king": 125,
      "ord": 126,
      "what": 127,
      "od": 128,
      "pe": 129,
      "now": 130,
      "thy": 131,
      "ess": 132,
      "am": 133,
      "are": 134,
      "fe": 135,
      "ver": 136,
      "sha": 137,
      "one": 138,
      "ti": 139,
      "will": 140,
      "ge": 141,
      "id": 142,
      "ould": 143,
      "fa": 144,
      "ue": 145,
      "ck": 146,
      "ne": 147,
      "man": 148,
      "her": 149,
      "by": 150,
      "la": 151,
      "ta": 152,
      "pr": 153,
      "su": 154,
      "come": 155,
      "if": 156,
      "po": 157,
      "con": 158,
      "ter": 159,
      "shall": 160,
      "lord": 161,
      "tr": 162,
      "end": 163,
      "sh": 164,
      "mor": 165,
      "thee": 166,
      "up": 167,
      "whi": 168,
      "ca": 169,
      "art": 170,
      "bo": 171,
      "ho": 172,
      "mo": 173,
      "let": 174,
      "good": 175,
      "ain": 176,
      "fro": 177,
      "ence": 178,
      "she": 179,
      "te": 180,
      "ust": 181,
      "si": 182,
      "oun": 183,
      "there": 184,
      "ous": 185,
      "du": 186,
      "sel": 187,
      "mar": 188,
      "ry": 189,
      "well": 190,
      "sir": 191,
      "pro": 192,
      "then": 193,
      "per": 194,
      "from": 195,
      "was": 196,
      "here": 197,
      "ius": 198,
      "than": 199,
      "ine": 200,
      "ath": 201,
      "who": 202,
      "more": 203,
      "um": 204,
      "com": 205,
      "ul": 206,
      "ble": 207,
      "ion": 208,
      "which": 209,
      "ant": 210,
      "would": 211,
      "ster": 212,
      "ven": 213,
      "ill": 214,
      "ate": 215,
      "row": 216,
      "can": 217,
      "they": 218,
      "ward": 219,
      "men": 220,
      "how": 221,
      "say": 222,
      "ong": 223,
      "ight": 224,
      "out": 225,
      "sa": 226,
      "see": 227,
      "wor": 228,
      "them": 229,
      "love": 230,
      "bro": 231,
      "know": 232,
      "self": 233,
      "ind": 234,
      "ak": 235,
      "il": 236,
      "ct": 237,
      "their": 238,
      "rich": 239,
      "gre": 240,
      "ie": 241,
      "wo": 242,
      "ive": 243,
      "duke": 244,
      "tis": 245,
      "gl": 246,
      "war": 247,
      "que": 248,
      "like": 249,
      "were": 250,
      "may": 251,
      "hath": 252,
      "ag": 253,
      "where": 254,
      "--": 255,
      "spe": 256,
      "when": 257,
      "ba": 258,
      "fo": 259,
      "fore": 260,
      "ok": 261,
      "nor": 262,
      "uch": 263,
      "vo": 264,
      "some": 265,
      "ep": 266,
      "fir": 267,
      "make": 268,
      "upon": 269,
      "ish": 270,
      "fri": 271,
      "way": 272,
      "should": 273,
      "must": 274,
      "uc": 275,
      "ves": 276,
      "richard": 277,
      "yet": 278,
      "time": 279,
      "did": 280,
      "had": 281,
      "queen": 282,
      "rome": 283,
      "ple": 284,
      "ink": 285,
      "ers": 286,
      "pa": 287,
      "qu": 288,
      "son": 289,
      "ii": 290,
      "br": 291,
      "gra": 292,
      "ure": 293,
      "thing": 294,
      "own": 295,
      "first": 296,
      "ear": 297,
      "why": 298,
      "der": 299,
      "father": 300,
      "au": 301,
      "god": 302,
      "ound": 303,
      "ci": 304,
      "vi": 305,
      "ady": 306,
      "take": 307,
      "use": 308,
      "edward": 309,
      "dis": 310,
      "again": 311,
      "cor": 312,
      "ity": 313,
      "blo": 314,
      "hast": 315,
      "entio": 316,
      "ty": 317,
      "day": 318,
      "el": 319,
      "death": 320,
      "gent": 321,
      "mis": 322,
      "speak": 323,
      "give": 324,
      "pet": 325,
      "ance": 326,
      "inc": 327,
      "too": 328,
      "hen": 329,
      "ince": 330,
      "off": 331,
      "ser": 332,
      "word": 333,
      "mer": 334,
      "na": 335,
      "swe": 336,
      "henry": 337,
      "ort": 338,
      "think": 339,
      "tell": 340,
      "heart": 341,
      "mine": 342,
      "gentle": 343,
      "ex": 344,
      "yor": 345,
      "york": 346,
      "these": 347,
      "sp": 348,
      "very": 349,
      "look": 350,
      "romeo": 351,
      "ful": 352,
      "hand": 353,
      "most": 354,
      "lan": 355,
      "such": 356,
      "hear": 357,
      "ange": 358,
      "hea": 359,
      "mon": 360,
      "cl": 361,
      "less": 362,
      "cester": 363,
      "ab": 364,
      "jo": 365,
      "oucester": 366,
      "str": 367,
      "gloucester": 368,
      "abe": 369,
      "di": 370,
      "ber": 371,
      "brother": 372,
      "land": 373,
      "des": 374,
      "gn": 375,
      "gr": 376,
      "lady": 377,
      "af": 378,
      "bre": 379,
      "blood": 380,
      "wick": 381,
      "ness": 382,
      "other": 383,
      "ju": 384,
      "coun": 385,
      "ac": 386,
      "ey": 387,
      "onour": 388,
      "any": 389,
      "lie": 390,
      "llow": 391,
      "ap": 392,
      "stand": 393,
      "life": 394,
      "made": 395,
      "new": 396,
      "friend": 397,
      "im": 398,
      "vinc": 399,
      "vincentio": 400,
      "warwick": 401,
      "oul": 402,
      "pray": 403,
      "pl": 404,
      "ts": 405,
      "ang": 406,
      "ving": 407,
      "fear": 408,
      "fair": 409,
      "lea": 410,
      "luc": 411,
      "call": 412,
      "urse": 413,
      "night": 414,
      "pre": 415,
      "much": 416,
      "iz": 417,
      "ans": 418,
      "honour": 419,
      "ling": 420,
      "ment": 421,
      "op": 422,
      "ss": 423,
      "never": 424,
      "ise": 425,
      "tion": 426,
      "lt": 427,
      "urn": 428,
      "ic": 429,
      "pla": 430,
      "wn": 431,
      "name": 432,
      "done": 433,
      "ol": 434,
      "inius": 435,
      "sweet": 436,
      "mi": 437,
      "great": 438,
      "tle": 439,
      "doth": 440,
      "est": 441,
      "part": 442,
      "ings": 443,
      "bear": 444,
      "true": 445,
      "heaven": 446,
      "corio": 447,
      "age": 448,
      "live": 449,
      "gar": 450,
      "ice": 451,
      "before": 452,
      "rown": 453,
      "petr": 454,
      "cond": 455,
      "thus": 456,
      "both": 457,
      "cannot": 458,
      "uchio": 459,
      "petruchio": 460,
      "wer": 461,
      "ina": 462,
      "bet": 463,
      "ation": 464,
      "prince": 465,
      "noble": 466,
      "head": 467,
      "cap": 468,
      "away": 469,
      "being": 470,
      "arm": 471,
      "set": 472,
      "fort": 473,
      "ford": 474,
      "lanus": 475,
      "coriolanus": 476,
      "res": 477,
      "ough": 478,
      "been": 479,
      "int": 480,
      "ham": 481,
      "hold": 482,
      "par": 483,
      "pri": 484,
      "ens": 485,
      "juli": 486,
      "enius": 487,
      "menenius": 488,
      "though": 489,
      ",--": 490,
      "fi": 491,
      "wr": 492,
      "juliet": 493,
      "fl": 494,
      "red": 495,
      "cut": 496,
      "ass": 497,
      "second": 498,
      "rest": 499,
      "grace": 500,
      "ase": 501,
      "tho": 502,
      "ouse": 503,
      "master": 504,
      "ever": 505,
      "pp": 506,
      "put": 507,
      "mad": 508,
      "bl": 509,
      "down": 510,
      "long": 511,
      "myself": 512,
      "ast": 513,
      "chi": 514,
      "broke": 515,
      "soul": 516,
      "leave": 517,
      "cour": 518,
      "comes": 519,
      "pt": 520,
      "therefore": 521,
      "ef": 522,
      "poor": 523,
      "world": 524,
      "aught": 525,
      "old": 526,
      "stay": 527,
      "ree": 528,
      "deed": 529,
      "against": 530,
      "dead": 531,
      "pres": 532,
      "ved": 533,
      "isabe": 534,
      "clo": 535,
      "gu": 536,
      "ian": 537,
      "wife": 538,
      "ite": 539,
      "angelo": 540,
      "ars": 541,
      "ret": 542,
      "mother": 543,
      "ies": 544,
      "ont": 545,
      "house": 546,
      "ach": 547,
      "bra": 548,
      "bid": 549,
      "cit": 550,
      "nay": 551,
      "ull": 552,
      "till": 553,
      "cause": 554,
      "ace": 555,
      "che": 556,
      "ga": 557,
      "ign": 558,
      "right": 559,
      "thought": 560,
      "might": 561,
      "nurse": 562,
      "clar": 563,
      "tri": 564,
      "atch": 565,
      "eyes": 566,
      "clarence": 567,
      "child": 568,
      "em": 569,
      "even": 570,
      "tra": 571,
      "die": 572,
      "beg": 573,
      "bes": 574,
      "daught": 575,
      "led": 576,
      "wel": 577,
      "ins": 578,
      "many": 579,
      "show": 580,
      "citiz": 581,
      "sc": 582,
      "ten": 583,
      "tre": 584,
      "nothing": 585,
      "friends": 586,
      "ft": 587,
      "boling": 588,
      "bolingbroke": 589,
      "cla": 590,
      "ud": 591,
      "lla": 592,
      "iii": 593,
      "crown": 594,
      "light": 595,
      "lords": 596,
      "whose": 597,
      "atter": 598,
      "gri": 599,
      "kes": 600,
      "lit": 601,
      "tal": 602,
      "peace": 603,
      "hence": 604,
      "better": 605,
      "isabella": 606,
      "buc": 607,
      "cal": 608,
      "kind": 609,
      "mur": 610,
      "leont": 611,
      "tran": 612,
      "friar": 613,
      "leontes": 614,
      "ks": 615,
      "unto": 616,
      "kingham": 617,
      "buckingham": 618,
      "ban": 619,
      "cli": 620,
      "gi": 621,
      "om": 622,
      "tong": 623,
      "ison": 624,
      "daughter": 625,
      "pow": 626,
      "pose": 627,
      "sic": 628,
      "comm": 629,
      "cious": 630,
      "those": 631,
      "cam": 632,
      "could": 633,
      "gone": 634,
      "face": 635,
      "hor": 636,
      "still": 637,
      "ps": 638,
      "sen": 639,
      "two": 640,
      "under": 641,
      "words": 642,
      "cy": 643,
      "iv": 644,
      "oud": 645,
      "eng": 646,
      "youn": 647,
      "hel": 648,
      "dear": 649,
      "fr": 650,
      "ates": 651,
      "best": 652,
      "keep": 653,
      "murder": 654,
      "tranio": 655,
      "marc": 656,
      "gentleman": 657,
      "sle": 658,
      "sent": 659,
      "cont": 660,
      "lucio": 661,
      "marcius": 662,
      "far": 663,
      "fare": 664,
      "ither": 665,
      "since": 666,
      "news": 667,
      "gue": 668,
      "hour": 669,
      "sla": 670,
      "mean": 671,
      "joy": 672,
      "little": 673,
      "sicinius": 674,
      "pur": 675,
      "thr": 676,
      "ond": 677,
      "une": 678,
      "full": 679,
      "char": 680,
      "ears": 681,
      "able": 682,
      "band": 683,
      "sor": 684,
      "margar": 685,
      "after": 686,
      "margaret": 687,
      "pard": 688,
      "ulet": 689,
      "vir": 690,
      "iss": 691,
      "forth": 692,
      "unt": 693,
      "tain": 694,
      "capulet": 695,
      "once": 696,
      "sub": 697,
      "came": 698,
      "young": 699,
      "pardon": 700,
      "ech": 701,
      "just": 702,
      "ot": 703,
      "happ": 704,
      "roy": 705,
      "liz": 706,
      "whom": 707,
      "back": 708,
      "else": 709,
      "cle": 710,
      "den": 711,
      "tend": 712,
      "himself": 713,
      "law": 714,
      "illo": 715,
      "please": 716,
      "clif": 717,
      "power": 718,
      "camillo": 719,
      "bus": 720,
      "find": 721,
      "vol": 722,
      "thine": 723,
      "high": 724,
      "tongue": 725,
      "cur": 726,
      "get": 727,
      "eliz": 728,
      "abeth": 729,
      "elizabeth": 730,
      "dre": 731,
      "hus": 732,
      "nat": 733,
      "none": 734,
      "iness": 735,
      "arina": 736,
      "need": 737,
      "hope": 738,
      "dr": 739,
      "kath": 740,
      "ason": 741,
      "ried": 742,
      "while": 743,
      "ield": 744,
      "earth": 745,
      "katharina": 746,
      "car": 747,
      "ted": 748,
      "wa": 749,
      "ye": 750,
      "ought": 751,
      "ark": 752,
      "conf": 753,
      "boy": 754,
      "follow": 755,
      "ben": 756,
      "je": 757,
      "fall": 758,
      "ors": 759,
      "comp": 760,
      "bring": 761,
      "place": 762,
      "madam": 763,
      "bal": 764,
      "bod": 765,
      "ces": 766,
      "lay": 767,
      "mind": 768,
      "ople": 769,
      "pat": 770,
      "sit": 771,
      "uck": 772,
      "people": 773,
      "fellow": 774,
      "pom": 775,
      "home": 776,
      "seem": 777,
      "qui": 778,
      "husband": 779,
      "ste": 780,
      "dra": 781,
      "ken": 782,
      "ni": 783,
      "mistr": 784,
      "farewell": 785,
      "dou": 786,
      "last": 787,
      "citizen": 788,
      "bor": 789,
      "bed": 790,
      "bap": 791,
      "lucentio": 792,
      "cous": 793,
      "every": 794,
      "kill": 795,
      "shi": 796,
      "ene": 797,
      "ister": 798,
      "shame": 799,
      "help": 800,
      "baptis": 801,
      "hort": 802,
      "reat": 803,
      "ird": 804,
      "tru": 805,
      "hastings": 806,
      "serv": 807,
      "baptista": 808,
      "dow": 809,
      "over": 810,
      "umber": 811,
      "said": 812,
      "ensio": 813,
      "hortensio": 814,
      "into": 815,
      "utus": 816,
      "morrow": 817,
      "acc": 818,
      "welcome": 819,
      "sun": 820,
      "tem": 821,
      "hands": 822,
      "ction": 823,
      "fal": 824,
      "turn": 825,
      "ory": 826,
      "provo": 827,
      "woman": 828,
      "brutus": 829,
      "about": 830,
      "cousin": 831,
      "servant": 832,
      "heard": 833,
      "reme": 834,
      "dost": 835,
      "try": 836,
      "bri": 837,
      "fer": 838,
      "rep": 839,
      "wit": 840,
      "tears": 841,
      "north": 842,
      "present": 843,
      "mistress": 844,
      "jest": 845,
      "sand": 846,
      "sper": 847,
      "maid": 848,
      "prosper": 849,
      "grum": 850,
      "answer": 851,
      "bur": 852,
      "stri": 853,
      "meet": 854,
      "uty": 855,
      "marry": 856,
      "wrong": 857,
      "sorrow": 858,
      "royal": 859,
      "provost": 860,
      "ren": 861,
      "indeed": 862,
      "state": 863,
      "cho": 864,
      "lies": 865,
      "weep": 866,
      "makes": 867,
      "fai": 868,
      "sign": 869,
      "bu": 870,
      "ru": 871,
      "vy": 872,
      "has": 873,
      "grumio": 874,
      "fid": 875,
      "gen": 876,
      "escal": 877,
      "wilt": 878,
      "vers": 879,
      "prison": 880,
      "cominius": 881,
      "eye": 882,
      "clifford": 883,
      "escalus": 884,
      "pey": 885,
      "selves": 886,
      "paul": 887,
      "gracious": 888,
      "play": 889,
      "pompey": 890,
      "vill": 891,
      "ready": 892,
      "thousand": 893,
      "prove": 894,
      "fortune": 895,
      "content": 896,
      "mio": 897,
      "ning": 898,
      "pi": 899,
      "vil": 900,
      "xt": 901,
      "its": 902,
      "ceive": 903,
      "hither": 904,
      "fool": 905,
      "doub": 906,
      "three": 907,
      "asure": 908,
      "within": 909,
      "gremio": 910,
      "mercut": 911,
      "bese": 912,
      "mercutio": 913,
      "sound": 914,
      "another": 915,
      "engl": 916,
      "only": 917,
      "herd": 918,
      "vice": 919,
      "grief": 920,
      "cus": 921,
      "poli": 922,
      "aufid": 923,
      "swear": 924,
      "spir": 925,
      "claud": 926,
      "happy": 927,
      "body": 928,
      "umberland": 929,
      "northumberland": 930,
      "aufidius": 931,
      "claudio": 932,
      "ged": 933,
      "hate": 934,
      "mb": 935,
      "sed": 936,
      "form": 937,
      "thank": 938,
      "anger": 939,
      "false": 940,
      "faith": 941,
      "min": 942,
      "pass": 943,
      "vere": 944,
      "chess": 945,
      "low": 946,
      "rather": 947,
      "duchess": 948,
      "comfort": 949,
      "sleep": 950,
      "ject": 951,
      "pati": 952,
      "cra": 953,
      "send": 954,
      "third": 955,
      "sto": 956,
      "talk": 957,
      "paulina": 958,
      "ouch": 959,
      "kne": 960,
      "ph": 961,
      "rel": 962,
      "itor": 963,
      "sold": 964,
      "got": 965,
      "faul": 966,
      "tybal": 967,
      "monta": 968,
      "virt": 969,
      "hang": 970,
      "matter": 971,
      "rant": 972,
      "vis": 973,
      "wish": 974,
      "arn": 975,
      "times": 976,
      "deser": 977,
      "arms": 978,
      "murderer": 979,
      "tybalt": 980,
      "care": 981,
      "ire": 982,
      "xen": 983,
      "ary": 984,
      "llo": 985,
      "belie": 986,
      "shalt": 987,
      "sure": 988,
      "grave": 989,
      "banish": 990,
      "beseech": 991,
      "bit": 992,
      "bow": 993,
      "fight": 994,
      "gon": 995,
      "reason": 996,
      "voli": 997,
      "remem": 998,
      "va": 999,
      "wis": 1000,
      "stra": 1001,
      "med": 1002,
      "sovere": 1003,
      "command": 1004,
      "benvoli": 1005,
      "villain": 1006,
      "polixen": 1007,
      "sovereign": 1008,
      "benvolio": 1009,
      "polixenes": 1010,
      "hone": 1011,
      "les": 1012,
      "spo": 1013,
      "ting": 1014,
      "vent": 1015,
      "toly": 1016,
      "autoly": 1017,
      "country": 1018,
      "dream": 1019,
      "montague": 1020,
      "autolycus": 1021,
      ",'": 1022,
      "bla": 1023,
      "pherd": 1024,
      "years": 1025,
      "reven": 1026,
      "holy": 1027,
      "shepherd": 1028,
      "business": 1029,
      "truth": 1030,
      "soldi": 1031,
      "cha": 1032,
      "ught": 1033,
      "want": 1034,
      "wind": 1035,
      "enough": 1036,
      "sea": 1037,
      "read": 1038,
      "bast": 1039,
      "nature": 1040,
      ".'": 1041,
      "bian": 1042,
      "ig": 1043,
      "ious": 1044,
      "went": 1045,
      "without": 1046,
      "common": 1047,
      "things": 1048,
      "gro": 1049,
      "hum": 1050,
      "pity": 1051,
      "yield": 1052,
      "ench": 1053,
      "bea": 1054,
      "lives": 1055,
      "saw": 1056,
      "breath": 1057,
      "clown": 1058,
      "prospero": 1059,
      "doubt": 1060,
      "bianca": 1061,
      "foul": 1062,
      "late": 1063,
      "force": 1064,
      "cold": 1065,
      "uncle": 1066,
      "fect": 1067,
      "proud": 1068,
      "aint": 1069,
      "save": 1070,
      "foot": 1071,
      "appe": 1072,
      "believe": 1073,
      "ah": 1074,
      "free": 1075,
      "kiss": 1076,
      "lf": 1077,
      "won": 1078,
      "ask": 1079,
      "laur": 1080,
      "worthy": 1081,
      "horse": 1082,
      "city": 1083,
      "kate": 1084,
      "sister": 1085,
      "watch": 1086,
      "ator": 1087,
      "ours": 1088,
      "pect": 1089,
      "born": 1090,
      "laurence": 1091,
      "fit": 1092,
      "fur": 1093,
      "tit": 1094,
      "win": 1095,
      "wat": 1096,
      "oft": 1097,
      "worn": 1098,
      "woe": 1099,
      "gods": 1100,
      "break": 1101,
      "subject": 1102,
      "draw": 1103,
      "honest": 1104,
      "cess": 1105,
      "lam": 1106,
      "mir": 1107,
      "ped": 1108,
      "sing": 1109,
      "anne": 1110,
      "deli": 1111,
      "enter": 1112,
      "yourself": 1113,
      "does": 1114,
      "quest": 1115,
      "serving": 1116,
      "return": 1117,
      "mus": 1118,
      "val": 1119,
      "wound": 1120,
      "erle": 1121,
      "toge": 1122,
      "means": 1123,
      "mess": 1124,
      "seen": 1125,
      "ush": 1126,
      "yours": 1127,
      "mark": 1128,
      "looks": 1129,
      "bloody": 1130,
      "plain": 1131,
      "court": 1132,
      "through": 1133,
      "justice": 1134,
      "aum": 1135,
      "oath": 1136,
      "ery": 1137,
      "left": 1138,
      "beat": 1139,
      "widow": 1140,
      "cks": 1141,
      "umni": 1142,
      "fol": 1143,
      "haste": 1144,
      "mercy": 1145,
      "children": 1146,
      "volumni": 1147,
      "ship": 1148,
      "remember": 1149,
      "together": 1150,
      "aumerle": 1151,
      "volumnia": 1152,
      "cry": 1153,
      "har": 1154,
      "pain": 1155,
      "told": 1156,
      "change": 1157,
      "fire": 1158,
      "traitor": 1159,
      "tender": 1160,
      "gener": 1161,
      "england": 1162,
      "cre": 1163,
      "fly": 1164,
      "hun": 1165,
      "ior": 1166,
      "run": 1167,
      "sin": 1168,
      "ition": 1169,
      "dem": 1170,
      "dest": 1171,
      "gold": 1172,
      "cons": 1173,
      "enger": 1174,
      "servingman": 1175,
      "bion": 1176,
      "ily": 1177,
      "lar": 1178,
      "ms": 1179,
      "ner": 1180,
      "sad": 1181,
      "sword": 1182,
      "half": 1183,
      "ents": 1184,
      "unes": 1185,
      "majest": 1186,
      "suf": 1187,
      "point": 1188,
      "person": 1189,
      "grey": 1190,
      "days": 1191,
      "thinks": 1192,
      "gaunt": 1193,
      "report": 1194,
      "messenger": 1195,
      "bon": 1196,
      "bat": 1197,
      "dare": 1198,
      "danger": 1199,
      "either": 1200,
      "hard": 1201,
      "obe": 1202,
      "because": 1203,
      "thyself": 1204,
      "sup": 1205,
      "sil": 1206,
      "sight": 1207,
      "promis": 1208,
      "warrant": 1209,
      "ices": 1210,
      "flor": 1211,
      "majesty": 1212,
      "cer": 1213,
      "cates": 1214,
      "dy": 1215,
      "fet": 1216,
      "hn": 1217,
      "wise": 1218,
      "ute": 1219,
      "dello": 1220,
      "near": 1221,
      "trust": 1222,
      "known": 1223,
      "john": 1224,
      "biondello": 1225,
      "ses": 1226,
      "twas": 1227,
      "touch": 1228,
      "ze": 1229,
      "toward": 1230,
      "heir": 1231,
      "soon": 1232,
      "bold": 1233,
      "heavy": 1234,
      "paris": 1235,
      "charge": 1236,
      "folk": 1237,
      "catesby": 1238,
      "air": 1239,
      "curse": 1240,
      "grow": 1241,
      "sm": 1242,
      "ist": 1243,
      "lest": 1244,
      "ters": 1245,
      "past": 1246,
      "pair": 1247,
      "strange": 1248,
      "pluck": 1249,
      "bles": 1250,
      "purpose": 1251,
      "athe": 1252,
      "found": 1253,
      "anti": 1254,
      "hed": 1255,
      "wear": 1256,
      "def": 1257,
      "deep": 1258,
      "lost": 1259,
      "alas": 1260,
      "says": 1261,
      "norfolk": 1262,
      "corn": 1263,
      "gentlemen": 1264,
      "thoughts": 1265,
      "signior": 1266,
      "igh": 1267,
      "ran": 1268,
      "ore": 1269,
      "behold": 1270,
      "ceed": 1271,
      "loss": 1272,
      "fast": 1273,
      "hermi": 1274,
      "canst": 1275,
      "blow": 1276,
      "strong": 1277,
      "liege": 1278,
      "izel": 1279,
      "quick": 1280,
      "bury": 1281,
      "spirit": 1282,
      "florizel": 1283,
      "hermione": 1284,
      "each": 1285,
      "mas": 1286,
      "sworn": 1287,
      "twent": 1288,
      "wall": 1289,
      "outh": 1290,
      "ats": 1291,
      "alone": 1292,
      "dom": 1293,
      "prof": 1294,
      "post": 1295,
      "married": 1296,
      "thanks": 1297,
      "loved": 1298,
      "women": 1299,
      "ground": 1300,
      "open": 1301,
      "confess": 1302,
      "twenty": 1303,
      "bour": 1304,
      "gs": 1305,
      "ied": 1306,
      "ide": 1307,
      "sur": 1308,
      "instr": 1309,
      "learn": 1310,
      "rivers": 1311,
      "devil": 1312,
      "entreat": 1313,
      "adv": 1314,
      "main": 1315,
      "worth": 1316,
      "quar": 1317,
      "brought": 1318,
      "used": 1319,
      "service": 1320,
      "jud": 1321,
      "stands": 1322,
      "claim": 1323,
      "ength": 1324,
      "slain": 1325,
      "strike": 1326,
      "bound": 1327,
      "dish": 1328,
      "oth": 1329,
      "having": 1330,
      "lead": 1331,
      "ross": 1332,
      "ides": 1333,
      "press": 1334,
      "suit": 1335,
      "cast": 1336,
      "hop": 1337,
      "knows": 1338,
      "richmon": 1339,
      "woo": 1340,
      "didst": 1341,
      "resol": 1342,
      "france": 1343,
      "fault": 1344,
      "straight": 1345,
      "beauty": 1346,
      "richmond": 1347,
      "ecut": 1348,
      "twi": 1349,
      "wed": 1350,
      "sebast": 1351,
      "lia": 1352,
      "lose": 1353,
      "order": 1354,
      "consu": 1355,
      "sion": 1356,
      "side": 1357,
      "same": 1358,
      "execut": 1359,
      "grant": 1360,
      "course": 1361,
      "hours": 1362,
      "enemy": 1363,
      "patience": 1364,
      "deliver": 1365,
      "general": 1366,
      "sebastian": 1367,
      "alo": 1368,
      "act": 1369,
      "cr": 1370,
      "dro": 1371,
      "four": 1372,
      "saint": 1373,
      "wd": 1374,
      "attend": 1375,
      "ley": 1376,
      "ash": 1377,
      "feel": 1378,
      "suc": 1379,
      "ends": 1380,
      "move": 1381,
      "anton": 1382,
      "work": 1383,
      "speed": 1384,
      "desire": 1385,
      "senator": 1386,
      "yea": 1387,
      "revenge": 1388,
      "water": 1389,
      "!'": 1390,
      "abo": 1391,
      "duty": 1392,
      "fie": 1393,
      "gain": 1394,
      "ls": 1395,
      "ox": 1396,
      "pen": 1397,
      "twere": 1398,
      "youth": 1399,
      "itself": 1400,
      "som": 1401,
      "counsel": 1402,
      "ments": 1403,
      "guil": 1404,
      "antonio": 1405,
      "ack": 1406,
      "burn": 1407,
      "field": 1408,
      "sal": 1409,
      "tro": 1410,
      "ua": 1411,
      "hell": 1412,
      "riage": 1413,
      "withal": 1414,
      "unless": 1415,
      "short": 1416,
      "sake": 1417,
      "ils": 1418,
      "pleasure": 1419,
      "serve": 1420,
      "counter": 1421,
      "prithee": 1422,
      "citizens": 1423,
      "given": 1424,
      "company": 1425,
      "ges": 1426,
      "ob": 1427,
      "sat": 1428,
      "tor": 1429,
      "wret": 1430,
      "met": 1431,
      "chance": 1432,
      "fection": 1433,
      "tale": 1434,
      "safe": 1435,
      "pale": 1436,
      "hearts": 1437,
      "fearful": 1438,
      "pret": 1439,
      "heavens": 1440,
      "flatter": 1441,
      "oxford": 1442,
      "bar": 1443,
      "dam": 1444,
      "lad": 1445,
      "vour": 1446,
      "yes": 1447,
      "stan": 1448,
      "stir": 1449,
      "lewis": 1450,
      "become": 1451,
      "loving": 1452,
      "cover": 1453,
      "mock": 1454,
      "test": 1455,
      "marriage": 1456,
      "something": 1457,
      "peter": 1458,
      "mies": 1459,
      "brave": 1460,
      "ched": 1461,
      "appear": 1462,
      "wonder": 1463,
      "flo": 1464,
      "hark": 1465,
      "pra": 1466,
      "pie": 1467,
      "vow": 1468,
      "whe": 1469,
      "wal": 1470,
      "wast": 1471,
      "zalo": 1472,
      "throw": 1473,
      "anta": 1474,
      "took": 1475,
      "rah": 1476,
      "mortal": 1477,
      "sick": 1478,
      "sirrah": 1479,
      "voices": 1480,
      "offic": 1481,
      "join": 1482,
      "breathe": 1483,
      "souls": 1484,
      "cheer": 1485,
      "trib": 1486,
      "highness": 1487,
      "virtue": 1488,
      "gonzalo": 1489,
      "cri": 1490,
      "ger": 1491,
      "kno": 1492,
      "knew": 1493,
      "soft": 1494,
      "thri": 1495,
      "orge": 1496,
      "lly": 1497,
      "held": 1498,
      "ita": 1499,
      "roman": 1500,
      "ween": 1501,
      "loves": 1502,
      "ally": 1503,
      "neither": 1504,
      "next": 1505,
      "perd": 1506,
      "coming": 1507,
      "worse": 1508,
      "strength": 1509,
      "div": 1510,
      "posed": 1511,
      "tempt": 1512,
      "suffer": 1513,
      "bad": 1514,
      "ff": 1515,
      "mit": 1516,
      "ined": 1517,
      "ised": 1518,
      "methinks": 1519,
      "forget": 1520,
      "cept": 1521,
      "lips": 1522,
      "alth": 1523,
      "rage": 1524,
      "kings": 1525,
      "poison": 1526,
      "ended": 1527,
      "caster": 1528,
      "hood": 1529,
      "seek": 1530,
      "elbow": 1531,
      "lancaster": 1532,
      "cloud": 1533,
      "gave": 1534,
      "enemies": 1535,
      "bless": 1536,
      "cred": 1537,
      "dor": 1538,
      "eper": 1539,
      "gates": 1540,
      "harm": 1541,
      "mow": 1542,
      "ose": 1543,
      "rat": 1544,
      "thor": 1545,
      "ished": 1546,
      "anda": 1547,
      "tower": 1548,
      "usur": 1549,
      "eter": 1550,
      "pos": 1551,
      "poss": 1552,
      "consent": 1553,
      "book": 1554,
      "march": 1555,
      "cian": 1556,
      "cient": 1557,
      "merry": 1558,
      "dire": 1559,
      "between": 1560,
      "ceived": 1561,
      "black": 1562,
      "further": 1563,
      "title": 1564,
      "miranda": 1565,
      "certain": 1566,
      "brow": 1567,
      "cure": 1568,
      "cham": 1569,
      "dden": 1570,
      "eld": 1571,
      "fill": 1572,
      "gard": 1573,
      "mouth": 1574,
      "pit": 1575,
      "pare": 1576,
      "spr": 1577,
      "vio": 1578,
      "stre": 1579,
      "stop": 1580,
      "often": 1581,
      "weak": 1582,
      "george": 1583,
      "bosom": 1584,
      "themselves": 1585,
      "chee": 1586,
      "grie": 1587,
      "virtu": 1588,
      "soldier": 1589,
      "cas": 1590,
      "ile": 1591,
      "sk": 1592,
      "inter": 1593,
      "arch": 1594,
      "ated": 1595,
      "along": 1596,
      "already": 1597,
      "proceed": 1598,
      "iel": 1599,
      "speech": 1600,
      "base": 1601,
      "foe": 1602,
      "bray": 1603,
      "office": 1604,
      "breast": 1605,
      "writ": 1606,
      "issue": 1607,
      "spoke": 1608,
      "satis": 1609,
      "tribunes": 1610,
      "lst": 1611,
      "pay": 1612,
      "ris": 1613,
      "sly": 1614,
      "request": 1615,
      "vel": 1616,
      "liant": 1617,
      "liber": 1618,
      "eds": 1619,
      "goes": 1620,
      "unk": 1621,
      "feast": 1622,
      "morning": 1623,
      "whilst": 1624,
      "hot": 1625,
      "marian": 1626,
      "hereford": 1627,
      "green": 1628,
      "sons": 1629,
      "offer": 1630,
      "fles": 1631,
      "thomas": 1632,
      "begin": 1633,
      "deny": 1634,
      "brief": 1635,
      "soldiers": 1636,
      "battle": 1637,
      "dangerous": 1638,
      "fetch": 1639,
      "quarrel": 1640,
      "stanley": 1641,
      "perdita": 1642,
      "mowbray": 1643,
      "bs": 1644,
      "fra": 1645,
      "hind": 1646,
      "ima": 1647,
      "kna": 1648,
      "plo": 1649,
      "pal": 1650,
      "pite": 1651,
      "ons": 1652,
      "cher": 1653,
      "forward": 1654,
      "west": 1655,
      "sum": 1656,
      "trou": 1657,
      "case": 1658,
      "frown": 1659,
      "sigh": 1660,
      "prop": 1661,
      "thence": 1662,
      "gree": 1663,
      "voice": 1664,
      "ways": 1665,
      "hadst": 1666,
      "vile": 1667,
      "vict": 1668,
      "scar": 1669,
      "patient": 1670,
      "visit": 1671,
      "wounds": 1672,
      "consul": 1673,
      "officer": 1674,
      "possess": 1675,
      "mariana": 1676,
      "bis": 1677,
      "din": 1678,
      "ding": 1679,
      "dark": 1680,
      "fres": 1681,
      "gall": 1682,
      "rup": 1683,
      "ones": 1684,
      "town": 1685,
      "mes": 1686,
      "ced": 1687,
      "cell": 1688,
      "keeper": 1689,
      "amp": 1690,
      "sible": 1691,
      "wash": 1692,
      "wars": 1693,
      "action": 1694,
      "mile": 1695,
      "respect": 1696,
      "presence": 1697,
      "close": 1698,
      "dread": 1699,
      "bride": 1700,
      "witness": 1701,
      "music": 1702,
      "promise": 1703,
      "cup": 1704,
      "da": 1705,
      "flow": 1706,
      "hy": 1707,
      "hur": 1708,
      "lond": 1709,
      "ned": 1710,
      "ost": 1711,
      "port": 1712,
      "wain": 1713,
      "ancient": 1714,
      "stain": 1715,
      "measure": 1716,
      "rever": 1717,
      "somer": 1718,
      "col": 1719,
      "gover": 1720,
      "hip": 1721,
      "sudden": 1722,
      "worship": 1723,
      "wherein": 1724,
      "wert": 1725,
      "heads": 1726,
      "deeds": 1727,
      "mighty": 1728,
      "beggar": 1729,
      "throne": 1730,
      "fully": 1731,
      "natur": 1732,
      "seems": 1733,
      "buy": 1734,
      "lament": 1735,
      "small": 1736,
      "success": 1737,
      "chamber": 1738,
      "london": 1739,
      "eat": 1740,
      "five": 1741,
      "ging": 1742,
      "plan": 1743,
      "swi": 1744,
      "sus": 1745,
      "scorn": 1746,
      "thither": 1747,
      "chur": 1748,
      "chang": 1749,
      "sol": 1750,
      "almost": 1751,
      "tius": 1752,
      "ided": 1753,
      "moon": 1754,
      "ions": 1755,
      "earl": 1756,
      "count": 1757,
      "prayers": 1758,
      "princely": 1759,
      "slave": 1760,
      "lawful": 1761,
      "bitter": 1762,
      "valiant": 1763,
      "ughter": 1764,
      "lartius": 1765,
      "somerset": 1766,
      "bly": 1767,
      "cent": 1768,
      "creat": 1769,
      "cross": 1770,
      "eth": 1771,
      "eas": 1772,
      "match": 1773,
      "spa": 1774,
      "sland": 1775,
      "tent": 1776,
      "ub": 1777,
      "whence": 1778,
      "lip": 1779,
      "coward": 1780,
      "til": 1781,
      "ider": 1782,
      "favour": 1783,
      "condem": 1784,
      "moved": 1785,
      "six": 1786,
      "umpet": 1787,
      "umph": 1788,
      "glad": 1789,
      "pleas": 1790,
      "ured": 1791,
      "abhor": 1792,
      "affection": 1793,
      "appro": 1794,
      "triumph": 1795,
      "cliff": 1796,
      "presently": 1797,
      "faults": 1798,
      "above": 1799,
      "pretty": 1800,
      "antage": 1801,
      "knock": 1802,
      "ratcliff": 1803,
      "flesh": 1804,
      "bishop": 1805,
      "apo": 1806,
      "dar": 1807,
      "fond": 1808,
      "kins": 1809,
      "mill": 1810,
      "ns": 1811,
      "ny": 1812,
      "oc": 1813,
      "pas": 1814,
      "patch": 1815,
      "tut": 1816,
      "uff": 1817,
      "wak": 1818,
      "stor": 1819,
      "stant": 1820,
      "forbid": 1821,
      "lic": 1822,
      "depart": 1823,
      "alack": 1824,
      "mali": 1825,
      "among": 1826,
      "willing": 1827,
      "gest": 1828,
      "tail": 1829,
      "princ": 1830,
      "tear": 1831,
      "mayor": 1832,
      "bawd": 1833,
      "firm": 1834,
      "grand": 1835,
      "least": 1836,
      "quiet": 1837,
      "deserved": 1838,
      "subjects": 1839,
      "obey": 1840,
      "towards": 1841,
      "whether": 1842,
      "church": 1843,
      "awhile": 1844,
      "bir": 1845,
      "ease": 1846,
      "fine": 1847,
      "mid": 1848,
      "anon": 1849,
      "ariel": 1850,
      "hap": 1851,
      "seal": 1852,
      "hemi": 1853,
      "beast": 1854,
      "living": 1855,
      "rid": 1856,
      "ghost": 1857,
      "hide": 1858,
      "add": 1859,
      "doing": 1860,
      "kingdom": 1861,
      "feit": 1862,
      "conce": 1863,
      "bohemi": 1864,
      "prov": 1865,
      "perform": 1866,
      "wouldst": 1867,
      "warm": 1868,
      "cience": 1869,
      "cians": 1870,
      "dispatch": 1871,
      "hearing": 1872,
      "mild": 1873,
      "fied": 1874,
      "guard": 1875,
      "brace": 1876,
      "gilia": 1877,
      "slaughter": 1878,
      "virgilia": 1879,
      "curtis": 1880,
      "drum": 1881,
      "wake": 1882,
      "weeping": 1883,
      "pier": 1884,
      "musi": 1885,
      "obedi": 1886,
      "defend": 1887,
      "dishonour": 1888,
      "execution": 1889,
      "viol": 1890,
      "virtuous": 1891,
      "barn": 1892,
      "fled": 1893,
      "ia": 1894,
      "wench": 1895,
      "year": 1896,
      "ines": 1897,
      "inno": 1898,
      "lect": 1899,
      "behind": 1900,
      "wild": 1901,
      "chris": 1902,
      "ourselves": 1903,
      "ties": 1904,
      "sho": 1905,
      "whither": 1906,
      "letters": 1907,
      "goodly": 1908,
      "teach": 1909,
      "proclaim": 1910,
      "perate": 1911,
      "worst": 1912,
      "greet": 1913,
      "ief": 1914,
      "wherefore": 1915,
      "offence": 1916,
      "extre": 1917,
      "greater": 1918,
      "masters": 1919,
      "besides": 1920,
      "ledge": 1921,
      "treason": 1922,
      "kindness": 1923,
      "commend": 1924,
      "drink": 1925,
      "stood": 1926,
      "kneel": 1927,
      "gonus": 1928,
      "antigonus": 1929,
      "blows": 1930,
      "quickly": 1931,
      "guilty": 1932,
      "ladies": 1933,
      "piece": 1934,
      "fresh": 1935,
      "govern": 1936,
      "slander": 1937,
      "birth": 1938,
      "bohemia": 1939,
      "cord": 1940,
      "dle": 1941,
      "dry": 1942,
      "gir": 1943,
      "kin": 1944,
      "mut": 1945,
      "moun": 1946,
      "ror": 1947,
      "rut": 1948,
      "rough": 1949,
      "sy": 1950,
      "ues": 1951,
      "yon": 1952,
      "zed": 1953,
      "anch": 1954,
      "isure": 1955,
      "leisure": 1956,
      "rew": 1957,
      "rebe": 1958,
      "reign": 1959,
      "aside": 1960,
      "ket": 1961,
      "note": 1962,
      "sole": 1963,
      "few": 1964,
      "neck": 1965,
      "neigh": 1966,
      "laid": 1967,
      "lack": 1968,
      "posit": 1969,
      "trumpet": 1970,
      "shed": 1971,
      "womb": 1972,
      "quit": 1973,
      "derby": 1974,
      "exeter": 1975,
      "spur": 1976,
      "cles": 1977,
      "died": 1978,
      "lands": 1979,
      "angry": 1980,
      "longer": 1981,
      "isabel": 1982,
      "shows": 1983,
      "slew": 1984,
      "contin": 1985,
      "needs": 1986,
      "truly": 1987,
      "knee": 1988,
      "banishment": 1989,
      "pedant": 1990,
      "golden": 1991,
      "usurp": 1992,
      "possible": 1993,
      "trouble": 1994,
      "natural": 1995,
      "rutland": 1996,
      "ale": 1997,
      "cret": 1998,
      "dance": 1999,
      "evil": 2000,
      "fat": 2001,
      "fing": 2002,
      "fam": 2003,
      "hat": 2004,
      "ker": 2005,
      "pad": 2006,
      "ring": 2007,
      "yond": 2008,
      "zen": 2009,
      "noise": 2010,
      "seiz": 2011,
      "reck": 2012,
      "remain": 2013,
      "white": 2014,
      "until": 2015,
      "dog": 2016,
      "doom": 2017,
      "ures": 2018,
      "pest": 2019,
      "amen": 2020,
      "tagen": 2021,
      "letter": 2022,
      "ument": 2023,
      "broad": 2024,
      "fright": 2025,
      "speaks": 2026,
      "sport": 2027,
      "ples": 2028,
      "courage": 2029,
      "banished": 2030,
      "sense": 2031,
      "sentence": 2032,
      "choose": 2033,
      "prisoner": 2034,
      "english": 2035,
      "ignor": 2036,
      "conscience": 2037,
      "walk": 2038,
      "clouds": 2039,
      "liberty": 2040,
      "plantagen": 2041,
      "padua": 2042,
      "plantagenet": 2043,
      ":'": 2044,
      "ather": 2045,
      "cing": 2046,
      "cried": 2047,
      "drown": 2048,
      "dred": 2049,
      "lend": 2050,
      "lust": 2051,
      "rise": 2052,
      "sort": 2053,
      "tar": 2054,
      "ugh": 2055,
      "ual": 2056,
      "vain": 2057,
      "xi": 2058,
      "eness": 2059,
      "enjoy": 2060,
      "ators": 2061,
      "stone": 2062,
      "step": 2063,
      "seat": 2064,
      "sever": 2065,
      "seven": 2066,
      "secret": 2067,
      "vey": 2068,
      "forgot": 2069,
      "ardine": 2070,
      "fell": 2071,
      "shake": 2072,
      "manner": 2073,
      "labour": 2074,
      "proof": 2075,
      "glass": 2076,
      "fold": 2077,
      "page": 2078,
      "miss": 2079,
      "despair": 2080,
      "plant": 2081,
      "oler": 2082,
      "bears": 2083,
      "lived": 2084,
      "inted": 2085,
      "blind": 2086,
      "drunk": 2087,
      "phy": 2088,
      "hundred": 2089,
      "bones": 2090,
      "blessed": 2091,
      "garden": 2092,
      "victory": 2093,
      "swift": 2094,
      "barnardine": 2095,
      "!--": 2096,
      "aid": 2097,
      "alive": 2098,
      "big": 2099,
      "fan": 2100,
      "grown": 2101,
      "lis": 2102,
      "mone": 2103,
      "mil": 2104,
      "scho": 2105,
      "threat": 2106,
      "encounter": 2107,
      "star": 2108,
      "weary": 2109,
      "kept": 2110,
      "yourselves": 2111,
      "going": 2112,
      "adie": 2113,
      "odd": 2114,
      "shadow": 2115,
      "uel": 2116,
      "herself": 2117,
      "supp": 2118,
      "shore": 2119,
      "ustom": 2120,
      "sim": 2121,
      "umb": 2122,
      "ular": 2123,
      "venge": 2124,
      "knowledge": 2125,
      "woes": 2126,
      "glory": 2127,
      "quite": 2128,
      "author": 2129,
      "ounds": 2130,
      "clam": 2131,
      "struck": 2132,
      "desperate": 2133,
      "liest": 2134,
      "standing": 2135,
      "precious": 2136,
      "condition": 2137,
      "pride": 2138,
      "blush": 2139,
      "effect": 2140,
      "guess": 2141,
      "lordship": 2142,
      "fru": 2143,
      "bushy": 2144,
      "vols": 2145,
      "steel": 2146,
      "knees": 2147,
      "bastard": 2148,
      "watchman": 2149,
      "entertain": 2150,
      "consider": 2151,
      "twice": 2152,
      "twixt": 2153,
      "wretch": 2154,
      "dorset": 2155,
      "kinsman": 2156,
      "position": 2157,
      "money": 2158,
      "school": 2159,
      "adieu": 2160,
      ";'": 2161,
      "bend": 2162,
      "dain": 2163,
      "fought": 2164,
      "gment": 2165,
      "gory": 2166,
      "ier": 2167,
      "mour": 2168,
      "mble": 2169,
      "mity": 2170,
      "sour": 2171,
      "samp": 2172,
      "ton": 2173,
      "vouch": 2174,
      "thin": 2175,
      "enforce": 2176,
      "army": 2177,
      "stars": 2178,
      "tol": 2179,
      "top": 2180,
      "hair": 2181,
      "becomes": 2182,
      "ities": 2183,
      "rot": 2184,
      "ires": 2185,
      "ries": 2186,
      "deter": 2187,
      "ads": 2188,
      "allow": 2189,
      "laugh": 2190,
      "table": 2191,
      "contr": 2192,
      "cape": 2193,
      "thereof": 2194,
      "persu": 2195,
      "sail": 2196,
      "uction": 2197,
      "quoth": 2198,
      "spent": 2199,
      "brothers": 2200,
      "aff": 2201,
      "afford": 2202,
      "calls": 2203,
      "prepar": 2204,
      "prepare": 2205,
      "honours": 2206,
      "honourable": 2207,
      "ations": 2208,
      "deadly": 2209,
      "braken": 2210,
      "gives": 2211,
      "guest": 2212,
      "steal": 2213,
      "repent": 2214,
      "foolish": 2215,
      "dreams": 2216,
      "promised": 2217,
      "judge": 2218,
      "gainst": 2219,
      "wretched": 2220,
      "flower": 2221,
      "cheeks": 2222,
      "scarce": 2223,
      "flowers": 2224,
      "sampson": 2225,
      "brakenbury": 2226,
      ":--": 2227,
      "ama": 2228,
      "avo": 2229,
      "dur": 2230,
      "due": 2231,
      "hu": 2232,
      "rrel": 2233,
      "smile": 2234,
      "tua": 2235,
      "ude": 2236,
      "vate": 2237,
      "vie": 2238,
      "wing": 2239,
      "wra": 2240,
      "orious": 2241,
      "arri": 2242,
      "stro": 2243,
      "stab": 2244,
      "esy": 2245,
      "health": 2246,
      "ref": 2247,
      "itors": 2248,
      "utter": 2249,
      "deput": 2250,
      "lod": 2251,
      "cock": 2252,
      "ets": 2253,
      "door": 2254,
      "ury": 2255,
      "making": 2256,
      "tide": 2257,
      "ney": 2258,
      "convey": 2259,
      "whiles": 2260,
      "motion": 2261,
      "froth": 2262,
      "teen": 2263,
      "dull": 2264,
      "ility": 2265,
      "gregory": 2266,
      "foes": 2267,
      "qual": 2268,
      "early": 2269,
      "tyrrel": 2270,
      "incl": 2271,
      "exc": 2272,
      "month": 2273,
      "dies": 2274,
      "account": 2275,
      "priest": 2276,
      "bids": 2277,
      "kindred": 2278,
      "commit": 2279,
      "charity": 2280,
      "subst": 2281,
      "pleased": 2282,
      "carry": 2283,
      "wail": 2284,
      "fellows": 2285,
      "overdone": 2286,
      "temper": 2287,
      "renown": 2288,
      "minister": 2289,
      "vail": 2290,
      "wisdom": 2291,
      "humble": 2292,
      "valour": 2293,
      "demand": 2294,
      "silence": 2295,
      "cruel": 2296,
      "divine": 2297,
      "satisfied": 2298,
      "imag": 2299,
      "summer": 2300,
      "spake": 2301,
      "musician": 2302,
      "girl": 2303,
      "abroad": 2304,
      "bright": 2305,
      "bird": 2306,
      "cir": 2307,
      "cun": 2308,
      "dwell": 2309,
      "mal": 2310,
      "ners": 2311,
      "por": 2312,
      "pes": 2313,
      "pun": 2314,
      "sco": 2315,
      "smo": 2316,
      "ume": 2317,
      "wine": 2318,
      "yal": 2319,
      "thro": 2320,
      "inf": 2321,
      "ining": 2322,
      "envy": 2323,
      "reg": 2324,
      "roar": 2325,
      "cease": 2326,
      "edom": 2327,
      "weigh": 2328,
      "del": 2329,
      "deal": 2330,
      "loyal": 2331,
      "fest": 2332,
      "idle": 2333,
      "faint": 2334,
      "nest": 2335,
      "taken": 2336,
      "iful": 2337,
      "concl": 2338,
      "shar": 2339,
      "therein": 2340,
      "proper": 2341,
      "ult": 2342,
      "quer": 2343,
      "vices": 2344,
      "tyrant": 2345,
      "miser": 2346,
      "petition": 2347,
      "others": 2348,
      "county": 2349,
      "acle": 2350,
      "party": 2351,
      "parti": 2352,
      "private": 2353,
      "blunt": 2354,
      "trial": 2355,
      "sces": 2356,
      "meaning": 2357,
      "volsces": 2358,
      "drawn": 2359,
      "crave": 2360,
      "stoop": 2361,
      "venture": 2362,
      "blame": 2363,
      "chase": 2364,
      "groom": 2365,
      "winter": 2366,
      "honesty": 2367,
      "question": 2368,
      "harry": 2369,
      "walls": 2370,
      "judgment": 2371,
      "castle": 2372,
      "drop": 2373,
      "spring": 2374,
      "creature": 2375,
      "condemn": 2376,
      "malice": 2377,
      "vengeance": 2378,
      "'?": 2379,
      "awake": 2380,
      "bas": 2381,
      "bite": 2382,
      "fla": 2383,
      "gage": 2384,
      "ick": 2385,
      "mn": 2386,
      "nine": 2387,
      "ome": 2388,
      "round": 2389,
      "swords": 2390,
      "wag": 2391,
      "yard": 2392,
      "eria": 2393,
      "ona": 2394,
      "ander": 2395,
      "stones": 2396,
      "meat": 2397,
      "sell": 2398,
      "belike": 2399,
      "received": 2400,
      "wixt": 2401,
      "vell": 2402,
      "former": 2403,
      "eding": 2404,
      "ution": 2405,
      "dev": 2406,
      "wither": 2407,
      "gown": 2408,
      "als": 2409,
      "always": 2410,
      "shal": 2411,
      "tid": 2412,
      "ident": 2413,
      "fain": 2414,
      "necess": 2415,
      "mantua": 2416,
      "condu": 2417,
      "shri": 2418,
      "caius": 2419,
      "bot": 2420,
      "boot": 2421,
      "modest": 2422,
      "tect": 2423,
      "marshal": 2424,
      "blest": 2425,
      "sage": 2426,
      "sacred": 2427,
      "iles": 2428,
      "mayst": 2429,
      "sometime": 2430,
      "cial": 2431,
      "vious": 2432,
      "corse": 2433,
      "tyran": 2434,
      "mistake": 2435,
      "despite": 2436,
      "counten": 2437,
      "acqu": 2438,
      "prevent": 2439,
      "corioli": 2440,
      "betwixt": 2441,
      "captain": 2442,
      "clock": 2443,
      "embrace": 2444,
      "tract": 2445,
      "traitors": 2446,
      "tread": 2447,
      "tongues": 2448,
      "charged": 2449,
      "patri": 2450,
      "double": 2451,
      "maids": 2452,
      "buried": 2453,
      "contented": 2454,
      "deserve": 2455,
      "gross": 2456,
      "humour": 2457,
      "valeria": 2458,
      "bona": 2459,
      "profess": 2460,
      "troth": 2461,
      "direct": 2462,
      "brows": 2463,
      "prophe": 2464,
      "changed": 2465,
      "easy": 2466,
      "occas": 2467,
      "tailor": 2468,
      "finger": 2469,
      "simple": 2470,
      "fruit": 2471,
      "view": 2472,
      "deputy": 2473,
      "excuse": 2474,
      "aim": 2475,
      "bark": 2476,
      "cat": 2477,
      "cking": 2478,
      "custom": 2479,
      "dri": 2480,
      "dust": 2481,
      "ely": 2482,
      "fret": 2483,
      "gif": 2484,
      "ja": 2485,
      "ler": 2486,
      "vish": 2487,
      "wof": 2488,
      "wont": 2489,
      "thunder": 2490,
      "stuff": 2491,
      "llen": 2492,
      "noon": 2493,
      "nose": 2494,
      "beard": 2495,
      "reti": 2496,
      "receive": 2497,
      "root": 2498,
      "wealth": 2499,
      "deceived": 2500,
      "loath": 2501,
      "although": 2502,
      "arest": 2503,
      "verona": 2504,
      "neg": 2505,
      "pron": 2506,
      "iff": 2507,
      "constant": 2508,
      "conquer": 2509,
      "shut": 2510,
      "sheep": 2511,
      "sire": 2512,
      "percy": 2513,
      "perceive": 2514,
      "stern": 2515,
      "safet": 2516,
      "broken": 2517,
      "wood": 2518,
      "whereof": 2519,
      "plead": 2520,
      "jove": 2521,
      "affair": 2522,
      "wicked": 2523,
      "imprison": 2524,
      "import": 2525,
      "leaves": 2526,
      "plague": 2527,
      "resign": 2528,
      "fiery": 2529,
      "emp": 2530,
      "faced": 2531,
      "senate": 2532,
      "understand": 2533,
      "benef": 2534,
      "sits": 2535,
      "remedy": 2536,
      "wrongs": 2537,
      "choice": 2538,
      "rude": 2539,
      "reasons": 2540,
      "pains": 2541,
      "silver": 2542,
      "cursed": 2543,
      "advance": 2544,
      "resolved": 2545,
      "knave": 2546,
      "abhorson": 2547,
      "yonder": 2548,
      "fatal": 2549,
      "prepared": 2550,
      "circ": 2551,
      "occasion": 2552,
      "safety": 2553,
      "?'": 2554,
      "bb": 2555,
      "ball": 2556,
      "cen": 2557,
      "crow": 2558,
      "ele": 2559,
      "fre": 2560,
      "ild": 2561,
      "itol": 2562,
      "jour": 2563,
      "kni": 2564,
      "mere": 2565,
      "number": 2566,
      "owe": 2567,
      "oking": 2568,
      "pis": 2569,
      "ping": 2570,
      "psa": 2571,
      "ras": 2572,
      "rate": 2573,
      "sue": 2574,
      "sence": 2575,
      "sday": 2576,
      "twel": 2577,
      "wings": 2578,
      "thir": 2579,
      "ances": 2580,
      "inher": 2581,
      "inous": 2582,
      "inform": 2583,
      "orn": 2584,
      "oracle": 2585,
      "hail": 2586,
      "haps": 2587,
      "lean": 2588,
      "belly": 2589,
      "whis": 2590,
      "ites": 2591,
      "ited": 2592,
      "rock": 2593,
      "weeds": 2594,
      "key": 2595,
      "deb": 2596,
      "dew": 2597,
      "delight": 2598,
      "delay": 2599,
      "deposed": 2600,
      "sooth": 2601,
      "hie": 2602,
      "butcher": 2603,
      "undone": 2604,
      "rain": 2605,
      "mamill": 2606,
      "tive": 2607,
      "taste": 2608,
      "conspir": 2609,
      "contract": 2610,
      "tres": 2611,
      "cali": 2612,
      "host": 2613,
      "hollow": 2614,
      "mopsa": 2615,
      "complain": 2616,
      "seeing": 2617,
      "wore": 2618,
      "aked": 2619,
      "ctise": 2620,
      "pack": 2621,
      "pawn": 2622,
      "mission": 2623,
      "gentlewoman": 2624,
      "langu": 2625,
      "absence": 2626,
      "design": 2627,
      "accept": 2628,
      "appare": 2629,
      "prayer": 2630,
      "capitol": 2631,
      "intend": 2632,
      "holds": 2633,
      "write": 2634,
      "assist": 2635,
      "preser": 2636,
      "treach": 2637,
      "senators": 2638,
      "keeps": 2639,
      "fares": 2640,
      "pursu": 2641,
      "thrust": 2642,
      "sorry": 2643,
      "clear": 2644,
      "cares": 2645,
      "tedious": 2646,
      "jeal": 2647,
      "seeming": 2648,
      "borne": 2649,
      "witch": 2650,
      "passing": 2651,
      "vised": 2652,
      "wanton": 2653,
      "fury": 2654,
      "hung": 2655,
      "destroy": 2656,
      "supper": 2657,
      "resolve": 2658,
      "practise": 2659,
      "cheek": 2660,
      "plot": 2661,
      "colour": 2662,
      "approach": 2663,
      "apollo": 2664,
      "princes": 2665,
      "obedience": 2666,
      "violent": 2667,
      "christi": 2668,
      "neighbour": 2669,
      "trumpets": 2670,
      "seize": 2671,
      "ignorant": 2672,
      "authority": 2673,
      "rotten": 2674,
      "wrath": 2675,
      "tidings": 2676,
      "countenance": 2677,
      "pronoun": 2678,
      "twelve": 2679,
      "mamillius": 2680,
      "aed": 2681,
      "bond": 2682,
      "cro": 2683,
      "ek": 2684,
      "fas": 2685,
      "fif": 2686,
      "flies": 2687,
      "hit": 2688,
      "hunt": 2689,
      "ial": 2690,
      "list": 2691,
      "ots": 2692,
      "pul": 2693,
      "pub": 2694,
      "rash": 2695,
      "sme": 2696,
      "sli": 2697,
      "tur": 2698,
      "tune": 2699,
      "uct": 2700,
      "vantage": 2701,
      "wond": 2702,
      "zard": 2703,
      "thur": 2704,
      "inch": 2705,
      "inion": 2706,
      "envious": 2707,
      "stat": 2708,
      "stud": 2709,
      "nobles": 2710,
      "leep": 2711,
      "beloved": 2712,
      "reward": 2713,
      "revo": 2714,
      "repair": 2715,
      "wives": 2716,
      "vex": 2717,
      "chief": 2718,
      "forbear": 2719,
      "asleep": 2720,
      "weap": 2721,
      "ldom": 2722,
      "utes": 2723,
      "dece": 2724,
      "looking": 2725,
      "withdraw": 2726,
      "hion": 2727,
      "hire": 2728,
      "ety": 2729,
      "ado": 2730,
      "kingly": 2731,
      "ament": 2732,
      "ify": 2733,
      "boats": 2734,
      "lets": 2735,
      "teeth": 2736,
      "protect": 2737,
      "perfect": 2738,
      "perhaps": 2739,
      "whole": 2740,
      "uments": 2741,
      "outward": 2742,
      "brook": 2743,
      "wot": 2744,
      "babe": 2745,
      "sometimes": 2746,
      "shouldst": 2747,
      "qua": 2748,
      "disgrace": 2749,
      "discover": 2750,
      "corrup": 2751,
      "offend": 2752,
      "serves": 2753,
      "express": 2754,
      "excell": 2755,
      "spare": 2756,
      "mony": 2757,
      "prey": 2758,
      "prevail": 2759,
      "names": 2760,
      "parts": 2761,
      "bearing": 2762,
      "garments": 2763,
      "parent": 2764,
      "chide": 2765,
      "brain": 2766,
      "begins": 2767,
      "crowns": 2768,
      "farther": 2769,
      "happiness": 2770,
      "curr": 2771,
      "curst": 2772,
      "follows": 2773,
      "followers": 2774,
      "quire": 2775,
      "access": 2776,
      "accuse": 2777,
      "turns": 2778,
      "burthen": 2779,
      "ruin": 2780,
      "fools": 2781,
      "spirits": 2782,
      "hanging": 2783,
      "spoken": 2784,
      "humbly": 2785,
      "lamb": 2786,
      "darest": 2787,
      "instruct": 2788,
      "advise": 2789,
      "advantage": 2790,
      "guilt": 2791,
      "troop": 2792,
      "damned": 2793,
      "cries": 2794,
      "thrive": 2795,
      "sighs": 2796,
      "dinner": 2797,
      "dreadful": 2798,
      "hurt": 2799,
      "dares": 2800,
      "storm": 2801,
      "cunning": 2802,
      "punish": 2803,
      "throat": 2804,
      "devise": 2805,
      "conduct": 2806,
      "woful": 2807,
      "affairs": 2808,
      "benefit": 2809,
      "pisa": 2810,
      "rascal": 2811,
      "christian": 2812,
      "thursday": 2813,
      "ax": 2814,
      "bare": 2815,
      "cate": 2816,
      "catch": 2817,
      "eag": 2818,
      "fy": 2819,
      "flight": 2820,
      "gg": 2821,
      "gy": 2822,
      "jury": 2823,
      "line": 2824,
      "pure": 2825,
      "pic": 2826,
      "rt": 2827,
      "san": 2828,
      "sway": 2829,
      "slow": 2830,
      "south": 2831,
      "ued": 2832,
      "van": 2833,
      "wreck": 2834,
      "wander": 2835,
      "thas": 2836,
      "infect": 2837,
      "ences": 2838,
      "habit": 2839,
      "legs": 2840,
      "beheld": 2841,
      "beyond": 2842,
      "rey": 2843,
      "real": 2844,
      "rema": 2845,
      "room": 2846,
      "forgive": 2847,
      "forsworn": 2848,
      "weight": 2849,
      "wept": 2850,
      "usion": 2851,
      "ride": 2852,
      "rious": 2853,
      "ourish": 2854,
      "alter": 2855,
      "adventure": 2856,
      "untime": 2857,
      "raven": 2858,
      "taking": 2859,
      "takes": 2860,
      "sured": 2861,
      "iffer": 2862,
      "conj": 2863,
      "shr": 2864,
      "goodness": 2865,
      "sici": 2866,
      "ouses": 2867,
      "protest": 2868,
      "peril": 2869,
      "perish": 2870,
      "perpet": 2871,
      "hereafter": 2872,
      "atest": 2873,
      "seest": 2874,
      "iest": 2875,
      "ages": 2876,
      "paper": 2877,
      "quench": 2878,
      "fathers": 2879,
      "disdain": 2880,
      "exile": 2881,
      "spend": 2882,
      "affect": 2883,
      "appoint": 2884,
      "fairly": 2885,
      "opinion": 2886,
      "tled": 2887,
      "fortunes": 2888,
      "prize": 2889,
      "gues": 2890,
      "emplo": 2891,
      "daughters": 2892,
      "calm": 2893,
      "giving": 2894,
      "horses": 2895,
      "fran": 2896,
      "denied": 2897,
      "confer": 2898,
      "compan": 2899,
      "balthas": 2900,
      "accus": 2901,
      "accord": 2902,
      "deserves": 2903,
      "remembr": 2904,
      "commanded": 2905,
      "chair": 2906,
      "window": 2907,
      "groan": 2908,
      "forced": 2909,
      "wounded": 2910,
      "courtesy": 2911,
      "large": 2912,
      "wallow": 2913,
      "wedding": 2914,
      "penit": 2915,
      "praise": 2916,
      "credit": 2917,
      "palace": 2918,
      "piteous": 2919,
      "suspect": 2920,
      "pleasant": 2921,
      "innocent": 2922,
      "solemn": 2923,
      "continue": 2924,
      "several": 2925,
      "threaten": 2926,
      "contrary": 2927,
      "human": 2928,
      "miserable": 2929,
      "empty": 2930,
      "circum": 2931,
      "boatswain": 2932,
      "untimely": 2933,
      "employ": 2934,
      "balthasar": 2935,
      "aking": 2936,
      "agree": 2937,
      "bud": 2938,
      "dag": 2939,
      "east": 2940,
      "fle": 2941,
      "furn": 2942,
      "gate": 2943,
      "houses": 2944,
      "iled": 2945,
      "kedom": 2946,
      "luck": 2947,
      "mend": 2948,
      "naked": 2949,
      "omen": 2950,
      "pil": 2951,
      "ption": 2952,
      "rush": 2953,
      "song": 2954,
      "sink": 2955,
      "swallow": 2956,
      "twill": 2957,
      "ug": 2958,
      "inst": 2959,
      "intell": 2960,
      "isbury": 2961,
      "ating": 2962,
      "story": 2963,
      "tomb": 2964,
      "seas": 2965,
      "heed": 2966,
      "heel": 2967,
      "rede": 2968,
      "repe": 2969,
      "wits": 2970,
      "ital": 2971,
      "choler": 2972,
      "rose": 2973,
      "dep": 2974,
      "devo": 2975,
      "hid": 2976,
      "advers": 2977,
      "advised": 2978,
      "unknown": 2979,
      "unnatural": 2980,
      "urge": 2981,
      "urance": 2982,
      "fee": 2983,
      "feed": 2984,
      "fame": 2985,
      "fail": 2986,
      "faces": 2987,
      "taught": 2988,
      "comest": 2989,
      "poster": 2990,
      "terror": 2991,
      "endure": 2992,
      "shun": 2993,
      "dukedom": 2994,
      "market": 2995,
      "wholes": 2996,
      "umble": 2997,
      "comfor": 2998,
      "ants": 2999,
      "theirs": 3000,
      "bagot": 3001,
      "folly": 3002,
      "oked": 3003,
      "pace": 3004,
      "vide": 3005,
      "disposition": 3006,
      "core": 3007,
      "misery": 3008,
      "incre": 3009,
      "services": 3010,
      "hearted": 3011,
      "exam": 3012,
      "expect": 3013,
      "monstr": 3014,
      "dign": 3015,
      "bred": 3016,
      "appre": 3017,
      "iment": 3018,
      "called": 3019,
      "ursed": 3020,
      "lting": 3021,
      "intent": 3022,
      "fig": 3023,
      "fix": 3024,
      "assurance": 3025,
      "trick": 3026,
      "scene": 3027,
      "tremble": 3028,
      "kindly": 3029,
      "undertake": 3030,
      "french": 3031,
      "joys": 3032,
      "joyful": 3033,
      "camest": 3034,
      "cleomen": 3035,
      "curses": 3036,
      "needful": 3037,
      "dress": 3038,
      "waking": 3039,
      "bodies": 3040,
      "ferdin": 3041,
      "maiden": 3042,
      "build": 3043,
      "rule": 3044,
      "winds": 3045,
      "titus": 3046,
      "waters": 3047,
      "painted": 3048,
      "hunts": 3049,
      "grows": 3050,
      "profan": 3051,
      "instrument": 3052,
      "leads": 3053,
      "hopes": 3054,
      "drops": 3055,
      "fourth": 3056,
      "feeling": 3057,
      "salisbury": 3058,
      "shortly": 3059,
      "counterfeit": 3060,
      "torment": 3061,
      "griev": 3062,
      "reverend": 3063,
      "colours": 3064,
      "suspic": 3065,
      "passion": 3066,
      "willingly": 3067,
      "princess": 3068,
      "haply": 3069,
      "drums": 3070,
      "government": 3071,
      "rebell": 3072,
      "hatred": 3073,
      "fancy": 3074,
      "determin": 3075,
      "affli": 3076,
      "durst": 3077,
      "renowned": 3078,
      "sharp": 3079,
      "partic": 3080,
      "caliban": 3081,
      "language": 3082,
      "apparel": 3083,
      "public": 3084,
      "study": 3085,
      "excellent": 3086,
      "remains": 3087,
      "remembrance": 3088,
      "wholesome": 3089,
      "cleomenes": 3090,
      "ferdinand": 3091,
      "suspicion": 3092,
      "?--": 3093,
      "ald": 3094,
      "alike": 3095,
      "bours": 3096,
      "cend": 3097,
      "cise": 3098,
      "ded": 3099,
      "equal": 3100,
      "fish": 3101,
      "gin": 3102,
      "knight": 3103,
      "loud": 3104,
      "mul": 3105,
      "net": 3106,
      "nought": 3107,
      "ointed": 3108,
      "phe": 3109,
      "pent": 3110,
      "purse": 3111,
      "rous": 3112,
      "sl": 3113,
      "sain": 3114,
      "swell": 3115,
      "sins": 3116,
      "slay": 3117,
      "scept": 3118,
      "slip": 3119,
      "tort": 3120,
      "uary": 3121,
      "vours": 3122,
      "thief": 3123,
      "err": 3124,
      "erous": 3125,
      "ints": 3126,
      "instant": 3127,
      "orous": 3128,
      "ortion": 3129,
      "enmity": 3130,
      "aries": 3131,
      "isle": 3132,
      "attempt": 3133,
      "stol": 3134,
      "stret": 3135,
      "store": 3136,
      "meant": 3137,
      "medi": 3138,
      "methought": 3139,
      "sequ": 3140,
      "season": 3141,
      "below": 3142,
      "behalf": 3143,
      "rece": 3144,
      "wil": 3145,
      "vest": 3146,
      "rogue": 3147,
      "forswear": 3148,
      "liar": 3149,
      "lion": 3150,
      "lift": 3151,
      "weather": 3152,
      "rian": 3153,
      "deck": 3154,
      "degree": 3155,
      "lot": 3156,
      "lower": 3157,
      "soever": 3158,
      "hill": 3159,
      "aded": 3160,
      "adver": 3161,
      "unhappy": 3162,
      "raise": 3163,
      "mage": 3164,
      "ambit": 3165,
      "shape": 3166,
      "tied": 3167,
      "tily": 3168,
      "willough": 3169,
      "idence": 3170,
      "faction": 3171,
      "manners": 3172,
      "contempt": 3173,
      "terms": 3174,
      "shine": 3175,
      "arts": 3176,
      "boar": 3177,
      "hol": 3178,
      "commission": 3179,
      "venom": 3180,
      "saying": 3181,
      "ilt": 3182,
      "greed": 3183,
      "glorious": 3184,
      "likely": 3185,
      "special": 3186,
      "muster": 3187,
      "brings": 3188,
      "branch": 3189,
      "earnest": 3190,
      "disper": 3191,
      "gently": 3192,
      "served": 3193,
      "merit": 3194,
      "merri": 3195,
      "naples": 3196,
      "spite": 3197,
      "absent": 3198,
      "absol": 3199,
      "desires": 3200,
      "apt": 3201,
      "friendly": 3202,
      "armour": 3203,
      "resc": 3204,
      "privile": 3205,
      "puts": 3206,
      "longs": 3207,
      "clothe": 3208,
      "trade": 3209,
      "begun": 3210,
      "powers": 3211,
      "engthen": 3212,
      "slept": 3213,
      "happily": 3214,
      "finds": 3215,
      "wait": 3216,
      "boys": 3217,
      "jewel": 3218,
      "lasting": 3219,
      "ships": 3220,
      "accursed": 3221,
      "prosperous": 3222,
      "hateful": 3223,
      "mbling": 3224,
      "sends": 3225,
      "revenged": 3226,
      "wants": 3227,
      "freely": 3228,
      "hardly": 3229,
      "supposed": 3230,
      "dying": 3231,
      "uteous": 3232,
      "smiles": 3233,
      "profit": 3234,
      "surrey": 3235,
      "instruction": 3236,
      "resolution": 3237,
      "granted": 3238,
      "thrice": 3239,
      "dorcas": 3240,
      "pitch": 3241,
      "sky": 3242,
      "frame": 3243,
      "proportion": 3244,
      "respected": 3245,
      "pleasing": 3246,
      "passage": 3247,
      "waked": 3248,
      "provided": 3249,
      "obedient": 3250,
      "famous": 3251,
      "lusty": 3252,
      "odds": 3253,
      "volsce": 3254,
      "mourn": 3255,
      "amazed": 3256,
      "avoid": 3257,
      "stabb": 3258,
      "committed": 3259,
      "scope": 3260,
      "smooth": 3261,
      "acquaint": 3262,
      "knife": 3263,
      "whisper": 3264,
      "debt": 3265,
      "treacherous": 3266,
      "jealous": 3267,
      "fashion": 3268,
      "sanct": 3269,
      "realm": 3270,
      "sicilia": 3271,
      "perpetual": 3272,
      "according": 3273,
      "dagger": 3274,
      "increase": 3275,
      "monstrous": 3276,
      "particular": 3277,
      "sceptre": 3278,
      "willoughby": 3279,
      "boun": 3280,
      "bill": 3281,
      "chast": 3282,
      "cket": 3283,
      "eve": 3284,
      "fun": 3285,
      "fice": 3286,
      "jack": 3287,
      "knot": 3288,
      "lent": 3289,
      "lour": 3290,
      "lun": 3291,
      "lark": 3292,
      "mp": 3293,
      "nal": 3294,
      "oak": 3295,
      "phi": 3296,
      "pound": 3297,
      "rend": 3298,
      "tin": 3299,
      "tun": 3300,
      "tush": 3301,
      "wink": 3302,
      "thread": 3303,
      "anointed": 3304,
      "inju": 3305,
      "infer": 3306,
      "ores": 3307,
      "island": 3308,
      "onso": 3309,
      "atic": 3310,
      "stamp": 3311,
      "nobl": 3312,
      "nobly": 3313,
      "bethink": 3314,
      "remove": 3315,
      "regard": 3316,
      "whit": 3317,
      "veins": 3318,
      "rosal": 3319,
      "assured": 3320,
      "limb": 3321,
      "limit": 3322,
      "liament": 3323,
      "iron": 3324,
      "lock": 3325,
      "cost": 3326,
      "alonso": 3327,
      "ades": 3328,
      "advice": 3329,
      "admit": 3330,
      "adrian": 3331,
      "unts": 3332,
      "unjust": 3333,
      "urged": 3334,
      "raised": 3335,
      "peer": 3336,
      "peers": 3337,
      "feather": 3338,
      "herald": 3339,
      "tap": 3340,
      "tame": 3341,
      "suck": 3342,
      "points": 3343,
      "shrew": 3344,
      "whip": 3345,
      "boots": 3346,
      "sirs": 3347,
      "perforce": 3348,
      "stery": 3349,
      "outs": 3350,
      "lovely": 3351,
      "greatest": 3352,
      "warlike": 3353,
      "aged": 3354,
      "ague": 3355,
      "bade": 3356,
      "fires": 3357,
      "shoulder": 3358,
      "plex": 3359,
      "paid": 3360,
      "disse": 3361,
      "corre": 3362,
      "blown": 3363,
      "hasty": 3364,
      "offended": 3365,
      "tells": 3366,
      "spit": 3367,
      "heap": 3368,
      "joint": 3369,
      "apparent": 3370,
      "fears": 3371,
      "fairer": 3372,
      "oppos": 3373,
      "estate": 3374,
      "partly": 3375,
      "parliament": 3376,
      "wrought": 3377,
      "pping": 3378,
      "achie": 3379,
      "braw": 3380,
      "gaoler": 3381,
      "trees": 3382,
      "contro": 3383,
      "sore": 3384,
      "afternoon": 3385,
      "virgin": 3386,
      "forthwith": 3387,
      "carried": 3388,
      "pomfret": 3389,
      "mistrust": 3390,
      "accused": 3391,
      "brid": 3392,
      "meeting": 3393,
      "ruth": 3394,
      "soundly": 3395,
      "craft": 3396,
      "hanged": 3397,
      "desert": 3398,
      "ireland": 3399,
      "vault": 3400,
      "groans": 3401,
      "single": 3402,
      "plainly": 3403,
      "suppose": 3404,
      "silent": 3405,
      "heirs": 3406,
      "instruments": 3407,
      "maintain": 3408,
      "aboard": 3409,
      "torch": 3410,
      "pieces": 3411,
      "vows": 3412,
      "waste": 3413,
      "sickness": 3414,
      "romans": 3415,
      "elder": 3416,
      "strew": 3417,
      "streets": 3418,
      "grieve": 3419,
      "daily": 3420,
      "reverence": 3421,
      "affections": 3422,
      "amongst": 3423,
      "grandam": 3424,
      "conceit": 3425,
      "extreme": 3426,
      "tarry": 3427,
      "thinking": 3428,
      "arrived": 3429,
      "stroke": 3430,
      "imagine": 3431,
      "patricians": 3432,
      "gift": 3433,
      "retire": 3434,
      "neglect": 3435,
      "imprisonment": 3436,
      "journey": 3437,
      "pronounce": 3438,
      "aedile": 3439,
      "wondrous": 3440,
      "deceit": 3441,
      "protector": 3442,
      "current": 3443,
      "redeem": 3444,
      "huntsman": 3445,
      "grievous": 3446,
      "sanctuary": 3447,
      "rosaline": 3448,
      ";--": 3449,
      "aw": 3450,
      "ade": 3451,
      "ago": 3452,
      "aunt": 3453,
      "buck": 3454,
      "bility": 3455,
      "cou": 3456,
      "cere": 3457,
      "cti": 3458,
      "differ": 3459,
      "event": 3460,
      "gic": 3461,
      "iance": 3462,
      "ifest": 3463,
      "jured": 3464,
      "length": 3465,
      "oke": 3466,
      "pir": 3467,
      "ply": 3468,
      "pup": 3469,
      "path": 3470,
      "ron": 3471,
      "ray": 3472,
      "ress": 3473,
      "rare": 3474,
      "rust": 3475,
      "snow": 3476,
      "swo": 3477,
      "scape": 3478,
      "tall": 3479,
      "tree": 3480,
      "task": 3481,
      "twain": 3482,
      "var": 3483,
      "vau": 3484,
      "wan": 3485,
      "yoke": 3486,
      "zwater": 3487,
      "thie": 3488,
      "erce": 3489,
      "iny": 3490,
      "inking": 3491,
      "ination": 3492,
      "ense": 3493,
      "enant": 3494,
      "enna": 3495,
      "aring": 3496,
      "arti": 3497,
      "arise": 3498,
      "ises": 3499,
      "issu": 3500,
      "andal": 3501,
      "ative": 3502,
      "sting": 3503,
      "stout": 3504,
      "stable": 3505,
      "melan": 3506,
      "esar": 3507,
      "nod": 3508,
      "havi": 3509,
      "sees": 3510,
      "sets": 3511,
      "secure": 3512,
      "seldom": 3513,
      "hest": 3514,
      "betr": 3515,
      "betimes": 3516,
      "recon": 3517,
      "remor": 3518,
      "rejo": 3519,
      "reput": 3520,
      "record": 3521,
      "wide": 3522,
      "vet": 3523,
      "rob": 3524,
      "forfeit": 3525,
      "assure": 3526,
      "liken": 3527,
      "eder": 3528,
      "utch": 3529,
      "utenant": 3530,
      "kest": 3531,
      "keley": 3532,
      "uses": 3533,
      "ripe": 3534,
      "decl": 3535,
      "deaf": 3536,
      "detest": 3537,
      "ghan": 3538,
      "hic": 3539,
      "unfold": 3540,
      "alliance": 3541,
      "dove": 3542,
      "dogs": 3543,
      "rail": 3544,
      "mach": 3545,
      "amity": 3546,
      "feet": 3547,
      "tier": 3548,
      "tired": 3549,
      "fact": 3550,
      "manifest": 3551,
      "hers": 3552,
      "lace": 3553,
      "posing": 3554,
      "concer": 3555,
      "morn": 3556,
      "mory": 3557,
      "caught": 3558,
      "caesar": 3559,
      "froward": 3560,
      "teous": 3561,
      "prodi": 3562,
      "ump": 3563,
      "complex": 3564,
      "gling": 3565,
      "food": 3566,
      "vessel": 3567,
      "graves": 3568,
      "civil": 3569,
      "vienna": 3570,
      "dismiss": 3571,
      "petite": 3572,
      "exer": 3573,
      "exchange": 3574,
      "exton": 3575,
      "spy": 3576,
      "spread": 3577,
      "heavi": 3578,
      "lesser": 3579,
      "ably": 3580,
      "abide": 3581,
      "struction": 3582,
      "dim": 3583,
      "berkeley": 3584,
      "counc": 3585,
      "lieutenant": 3586,
      "appetite": 3587,
      "newly": 3588,
      "impossible": 3589,
      "places": 3590,
      "parting": 3591,
      "parted": 3592,
      "prick": 3593,
      "wrink": 3594,
      "ullus": 3595,
      "rights": 3596,
      "tribut": 3597,
      "began": 3598,
      "scro": 3599,
      "scandal": 3600,
      "treasure": 3601,
      "grim": 3602,
      "helm": 3603,
      "slaves": 3604,
      "purchase": 3605,
      "charac": 3606,
      "younger": 3607,
      "powerful": 3608,
      "native": 3609,
      "carlis": 3610,
      "stead": 3611,
      "bore": 3612,
      "shield": 3613,
      "dowry": 3614,
      "accident": 3615,
      "tempest": 3616,
      "servants": 3617,
      "strive": 3618,
      "choly": 3619,
      "weeps": 3620,
      "fairest": 3621,
      "ruled": 3622,
      "beseem": 3623,
      "griefs": 3624,
      "falsehood": 3625,
      "faithful": 3626,
      "sleeping": 3627,
      "stomach": 3628,
      "surely": 3629,
      "sovereignty": 3630,
      "commons": 3631,
      "yielded": 3632,
      "fitzwater": 3633,
      "oaths": 3634,
      "consort": 3635,
      "suffi": 3636,
      "growing": 3637,
      "antic": 3638,
      "defence": 3639,
      "beholding": 3640,
      "pression": 3641,
      "wooing": 3642,
      "salt": 3643,
      "barren": 3644,
      "flood": 3645,
      "breathed": 3646,
      "books": 3647,
      "direction": 3648,
      "mouths": 3649,
      "stopp": 3650,
      "weakness": 3651,
      "virtues": 3652,
      "satisfy": 3653,
      "image": 3654,
      "knaves": 3655,
      "gallant": 3656,
      "bridegroom": 3657,
      "occup": 3658,
      "wakes": 3659,
      "beasts": 3660,
      "pierce": 3661,
      "cords": 3662,
      "milan": 3663,
      "supply": 3664,
      "entertainment": 3665,
      "persuade": 3666,
      "refuse": 3667,
      "substit": 3668,
      "regal": 3669,
      "tyranny": 3670,
      "ballad": 3671,
      "conspirator": 3672,
      "smell": 3673,
      "revolt": 3674,
      "appointed": 3675,
      "conference": 3676,
      "penitent": 3677,
      "repeal": 3678,
      "devotion": 3679,
      "dignity": 3680,
      "rebellion": 3681,
      "determined": 3682,
      "stretch": 3683,
      "recei": 3684,
      "holp": 3685,
      "absolute": 3686,
      "tapster": 3687,
      "vaughan": 3688,
      "melancholy": 3689,
      "havior": 3690,
      "betray": 3691,
      "reconci": 3692,
      "carlisle": 3693,
      ".--": 3694,
      "bay": 3695,
      "bere": 3696,
      "bag": 3697,
      "bation": 3698,
      "cu": 3699,
      "cul": 3700,
      "coff": 3701,
      "chaste": 3702,
      "ders": 3703,
      "dash": 3704,
      "emi": 3705,
      "fil": 3706,
      "fits": 3707,
      "gun": 3708,
      "hated": 3709,
      "iam": 3710,
      "ience": 3711,
      "jes": 3712,
      "lon": 3713,
      "lur": 3714,
      "lves": 3715,
      "mish": 3716,
      "mpt": 3717,
      "nar": 3718,
      "nes": 3719,
      "nit": 3720,
      "nim": 3721,
      "ope": 3722,
      "pho": 3723,
      "pill": 3724,
      "rouse": 3725,
      "ratch": 3726,
      "sca": 3727,
      "sple": 3728,
      "scold": 3729,
      "swain": 3730,
      "swore": 3731,
      "score": 3732,
      "tard": 3733,
      "tles": 3734,
      "tullus": 3735,
      "ws": 3736,
      "infection": 3737,
      "thecar": 3738,
      "ency": 3739,
      "onation": 3740,
      "sty": 3741,
      "stumble": 3742,
      "tom": 3743,
      "toad": 3744,
      "toil": 3745,
      "mew": 3746,
      "memory": 3747,
      "hag": 3748,
      "sey": 3749,
      "sepul": 3750,
      "heat": 3751,
      "league": 3752,
      "bell": 3753,
      "beam": 3754,
      "begu": 3755,
      "rear": 3756,
      "reap": 3757,
      "reach": 3758,
      "repose": 3759,
      "rewd": 3760,
      "removed": 3761,
      "wipe": 3762,
      "itch": 3763,
      "mystery": 3764,
      "cel": 3765,
      "asse": 3766,
      "lier": 3767,
      "edge": 3768,
      "weal": 3769,
      "notice": 3770,
      "dec": 3771,
      "dearest": 3772,
      "load": 3773,
      "lover": 3774,
      "soci": 3775,
      "coat": 3776,
      "goose": 3777,
      "alms": 3778,
      "uncles": 3779,
      "lying": 3780,
      "male": 3781,
      "whate": 3782,
      "pee": 3783,
      "aming": 3784,
      "aments": 3785,
      "felt": 3786,
      "feign": 3787,
      "verily": 3788,
      "shapes": 3789,
      "tie": 3790,
      "tiest": 3791,
      "wills": 3792,
      "william": 3793,
      "fawn": 3794,
      "ckle": 3795,
      "manage": 3796,
      "tains": 3797,
      "tainted": 3798,
      "super": 3799,
      "suitor": 3800,
      "sullen": 3801,
      "ified": 3802,
      "pot": 3803,
      "conceive": 3804,
      "confirm": 3805,
      "trans": 3806,
      "shop": 3807,
      "shot": 3808,
      "shrewd": 3809,
      "capa": 3810,
      "mood": 3811,
      "moves": 3812,
      "sies": 3813,
      "thereby": 3814,
      "duce": 3815,
      "dukes": 3816,
      "seless": 3817,
      "marin": 3818,
      "marks": 3819,
      "proclam": 3820,
      "moreland": 3821,
      "comb": 3822,
      "bleeding": 3823,
      "blemish": 3824,
      "lovest": 3825,
      "knowing": 3826,
      "selfsame": 3827,
      "wolf": 3828,
      "warri": 3829,
      "whereto": 3830,
      "babes": 3831,
      "foreign": 3832,
      "somewhat": 3833,
      "pause": 3834,
      "bru": 3835,
      "brand": 3836,
      "brit": 3837,
      "cies": 3838,
      "vied": 3839,
      "disgu": 3840,
      "dissol": 3841,
      "disease": 3842,
      "dismal": 3843,
      "block": 3844,
      "deaths": 3845,
      "mischance": 3846,
      "tooth": 3847,
      "nap": 3848,
      "except": 3849,
      "heartily": 3850,
      "angel": 3851,
      "monument": 3852,
      "abused": 3853,
      "jot": 3854,
      "stranger": 3855,
      "bert": 3856,
      "desp": 3857,
      "descent": 3858,
      "grat": 3859,
      "gress": 3860,
      "sweeter": 3861,
      "greatness": 3862,
      "estim": 3863,
      "heavenly": 3864,
      "garland": 3865,
      "settled": 3866,
      "holding": 3867,
      "enses": 3868,
      "fierce": 3869,
      "flourish": 3870,
      "redress": 3871,
      "restra": 3872,
      "graced": 3873,
      "stays": 3874,
      "household": 3875,
      "gaze": 3876,
      "embra": 3877,
      "beget": 3878,
      "scratch": 3879,
      "trembling": 3880,
      "udge": 3881,
      "bank": 3882,
      "youngest": 3883,
      "dearly": 3884,
      "throng": 3885,
      "subtle": 3886,
      "laws": 3887,
      "bush": 3888,
      "compass": 3889,
      "minds": 3890,
      "steeds": 3891,
      "shire": 3892,
      "burst": 3893,
      "sorrows": 3894,
      "buz": 3895,
      "policy": 3896,
      "thankful": 3897,
      "crack": 3898,
      "craves": 3899,
      "stock": 3900,
      "hangs": 3901,
      "visage": 3902,
      "careless": 3903,
      "countrymen": 3904,
      "wanting": 3905,
      "yields": 3906,
      "beaut": 3907,
      "beauteous": 3908,
      "appeal": 3909,
      "mirth": 3910,
      "harsh": 3911,
      "sights": 3912,
      "trusty": 3913,
      "zeal": 3914,
      "boldly": 3915,
      "stronger": 3916,
      "suitors": 3917,
      "execute": 3918,
      "executed": 3919,
      "fourteen": 3920,
      "succeed": 3921,
      "burnt": 3922,
      "burning": 3923,
      "object": 3924,
      "damn": 3925,
      "wheel": 3926,
      "cheerly": 3927,
      "pitiful": 3928,
      "writing": 3929,
      "frail": 3930,
      "cherish": 3931,
      "westmoreland": 3932,
      "frowns": 3933,
      "actions": 3934,
      "changing": 3935,
      "triumphant": 3936,
      "conceal": 3937,
      "executioner": 3938,
      "innoc": 3939,
      "extremity": 3940,
      "mount": 3941,
      "neighbours": 3942,
      "ignorance": 3943,
      "stephen": 3944,
      "physi": 3945,
      "bigger": 3946,
      "shadows": 3947,
      "vouchsafe": 3948,
      "determine": 3949,
      "avoided": 3950,
      "strokes": 3951,
      "infant": 3952,
      "wager": 3953,
      "necessity": 3954,
      "modesty": 3955,
      "tyrann": 3956,
      "prophet": 3957,
      "eleven": 3958,
      "thirty": 3959,
      "inherit": 3960,
      "trespass": 3961,
      "hungry": 3962,
      "axe": 3963,
      "eagle": 3964,
      "shroud": 3965,
      "windows": 3966,
      "furnish": 3967,
      "italy": 3968,
      "adversaries": 3969,
      "appreh": 3970,
      "saints": 3971,
      "privilege": 3972,
      "clothes": 3973,
      "opposite": 3974,
      "thieves": 3975,
      "remorse": 3976,
      "exercise": 3977,
      "scroop": 3978,
      "emilia": 3979,
      "thecary": 3980,
      "sepulch": 3981,
      "bent": 3982,
      "bio": 3983,
      "bble": 3984,
      "bling": 3985,
      "brown": 3986,
      "cis": 3987,
      "dan": 3988,
      "dess": 3989,
      "dion": 3990,
      "date": 3991,
      "ea": 3992,
      "ev": 3993,
      "eem": 3994,
      "fed": 3995,
      "fts": 3996,
      "gour": 3997,
      "gid": 3998,
      "hare": 3999,
      "hatch": 4000,
      "hrew": 4001,
      "ient": 4002,
      "ible": 4003,
      "ict": 4004,
      "iety": 4005,
      "lance": 4006,
      "lengthen": 4007,
      "mat": 4008,
      "mould": 4009,
      "mate": 4010,
      "mong": 4011,
      "mates": 4012,
      "nut": 4013,
      "nup": 4014,
      "nice": 4015,
      "numb": 4016,
      "oh": 4017,
      "pu": 4018,
      "pin": 4019,
      "pate": 4020,
      "push": 4021,
      "rue": 4022,
      "sings": 4023,
      "smother": 4024,
      "sought": 4025,
      "skill": 4026,
      "senses": 4027,
      "uish": 4028,
      "vive": 4029,
      "ware": 4030,
      "thrown": 4031,
      "thumb": 4032,
      "thick": 4033,
      "insu": 4034,
      "inte": 4035,
      "insol": 4036,
      "inquire": 4037,
      "injury": 4038,
      "ensed": 4039,
      "arrest": 4040,
      "ony": 4041,
      "attor": 4042,
      "stu": 4043,
      "stic": 4044,
      "stale": 4045,
      "lling": 4046,
      "toy": 4047,
      "tomorrow": 4048,
      "melt": 4049,
      "metal": 4050,
      "essed": 4051,
      "escape": 4052,
      "nobility": 4053,
      "hall": 4054,
      "haught": 4055,
      "hazard": 4056,
      "secre": 4057,
      "search": 4058,
      "leg": 4059,
      "befall": 4060,
      "begot": 4061,
      "behavior": 4062,
      "requ": 4063,
      "recomp": 4064,
      "recre": 4065,
      "whores": 4066,
      "iter": 4067,
      "itude": 4068,
      "itiff": 4069,
      "chat": 4070,
      "chie": 4071,
      "chop": 4072,
      "charm": 4073,
      "roses": 4074,
      "forty": 4075,
      "lig": 4076,
      "lim": 4077,
      "lied": 4078,
      "liking": 4079,
      "livery": 4080,
      "likes": 4081,
      "wears": 4082,
      "noted": 4083,
      "using": 4084,
      "rible": 4085,
      "depose": 4086,
      "devour": 4087,
      "destruction": 4088,
      "lovers": 4089,
      "soil": 4090,
      "coll": 4091,
      "owl": 4092,
      "ourself": 4093,
      "hist": 4094,
      "butt": 4095,
      "und": 4096,
      "uns": 4097,
      "unate": 4098,
      "unken": 4099,
      "unworthy": 4100,
      "thern": 4101,
      "dozen": 4102,
      "raham": 4103,
      "rapier": 4104,
      "mast": 4105,
      "pear": 4106,
      "peach": 4107,
      "amus": 4108,
      "amiss": 4109,
      "tial": 4110,
      "idamus": 4111,
      "favours": 4112,
      "neat": 4113,
      "lap": 4114,
      "lain": 4115,
      "suits": 4116,
      "constable": 4117,
      "term": 4118,
      "shallow": 4119,
      "tress": 4120,
      "trench": 4121,
      "trunk": 4122,
      "endured": 4123,
      "share": 4124,
      "shines": 4125,
      "upright": 4126,
      "caitiff": 4127,
      "board": 4128,
      "boast": 4129,
      "goods": 4130,
      "ously": 4131,
      "mars": 4132,
      "mary": 4133,
      "proved": 4134,
      "process": 4135,
      "procure": 4136,
      "provide": 4137,
      "perni": 4138,
      "thaniel": 4139,
      "sav": 4140,
      "sacri": 4141,
      "worm": 4142,
      "iling": 4143,
      "grew": 4144,
      "whereon": 4145,
      "vocate": 4146,
      "grain": 4147,
      "goddess": 4148,
      "takest": 4149,
      "discourse": 4150,
      "coronation": 4151,
      "offices": 4152,
      "merc": 4153,
      "merch": 4154,
      "nable": 4155,
      "nathaniel": 4156,
      "sweat": 4157,
      "telling": 4158,
      "exped": 4159,
      "exceed": 4160,
      "split": 4161,
      "looked": 4162,
      "monster": 4163,
      "monarch": 4164,
      "abuse": 4165,
      "abraham": 4166,
      "dido": 4167,
      "descend": 4168,
      "gnant": 4169,
      "affright": 4170,
      "breed": 4171,
      "bread": 4172,
      "counted": 4173,
      "counsell": 4174,
      "immortal": 4175,
      "tshire": 4176,
      "fearing": 4177,
      "prefer": 4178,
      "sweetly": 4179,
      "esteem": 4180,
      "headed": 4181,
      "caps": 4182,
      "prime": 4183,
      "price": 4184,
      "fiend": 4185,
      "flu": 4186,
      "flat": 4187,
      "putting": 4188,
      "madness": 4189,
      "bliss": 4190,
      "courteous": 4191,
      "closed": 4192,
      "bidding": 4193,
      "game": 4194,
      "mightst": 4195,
      "trim": 4196,
      "tricks": 4197,
      "childish": 4198,
      "train": 4199,
      "travell": 4200,
      "beshrew": 4201,
      "scri": 4202,
      "scatter": 4203,
      "lightning": 4204,
      "henceforth": 4205,
      "transport": 4206,
      "omit": 4207,
      "cambio": 4208,
      "horn": 4209,
      "senseless": 4210,
      "fray": 4211,
      "bestow": 4212,
      "fardel": 4213,
      "purge": 4214,
      "bands": 4215,
      "backs": 4216,
      "drunken": 4217,
      "earthly": 4218,
      "waves": 4219,
      "confound": 4220,
      "falls": 4221,
      "falling": 4222,
      "compare": 4223,
      "balm": 4224,
      "minded": 4225,
      "sitting": 4226,
      "quired": 4227,
      "borrow": 4228,
      "falcon": 4229,
      "prosperity": 4230,
      "royalty": 4231,
      "chosen": 4232,
      "mbers": 4233,
      "mino": 4234,
      "minute": 4235,
      "cram": 4236,
      "vision": 4237,
      "careful": 4238,
      "meddle": 4239,
      "villains": 4240,
      "honey": 4241,
      "spoil": 4242,
      "challen": 4243,
      "igence": 4244,
      "commonwealth": 4245,
      "breathing": 4246,
      "lately": 4247,
      "sadness": 4248,
      "wisely": 4249,
      "sooner": 4250,
      "defy": 4251,
      "rank": 4252,
      "learned": 4253,
      "acts": 4254,
      "droop": 4255,
      "burns": 4256,
      "prettiest": 4257,
      "flattering": 4258,
      "covert": 4259,
      "praises": 4260,
      "officers": 4261,
      "joints": 4262,
      "blessing": 4263,
      "pitied": 4264,
      "archbishop": 4265,
      "archidamus": 4266,
      "written": 4267,
      "velvet": 4268,
      "liberal": 4269,
      "framed": 4270,
      "possession": 4271,
      "suddenly": 4272,
      "succession": 4273,
      "bitterly": 4274,
      "condemned": 4275,
      "gladly": 4276,
      "apothecary": 4277,
      "tutor": 4278,
      "licio": 4279,
      "grandsire": 4280,
      "churchyard": 4281,
      "midnight": 4282,
      "provoked": 4283,
      "mildly": 4284,
      "piercing": 4285,
      "musicians": 4286,
      "violence": 4287,
      "shook": 4288,
      "rebels": 4289,
      "steps": 4290,
      "physic": 4291,
      "gardener": 4292,
      "clamour": 4293,
      "bastards": 4294,
      "enforced": 4295,
      "affords": 4296,
      "guests": 4297,
      "winged": 4298,
      "inclined": 4299,
      "months": 4300,
      "substance": 4301,
      "birds": 4302,
      "shrift": 4303,
      "bottom": 4304,
      "prevented": 4305,
      "censure": 4306,
      "merely": 4307,
      "statue": 4308,
      "weapon": 4309,
      "weapons": 4310,
      "corrupt": 4311,
      "troops": 4312,
      "conjure": 4313,
      "francis": 4314,
      "companion": 4315,
      "threatening": 4316,
      "pilgri": 4317,
      "intelligence": 4318,
      "heels": 4319,
      "depend": 4320,
      "figure": 4321,
      "afflict": 4322,
      "multit": 4323,
      "torture": 4324,
      "wiltshire": 4325,
      "ambitious": 4326,
      "dispersed": 4327,
      "rescue": 4328,
      "limbs": 4329,
      "ruthless": 4330,
      "rejoice": 4331,
      "reputation": 4332,
      "likeness": 4333,
      "character": 4334,
      "jesu": 4335,
      "spleen": 4336,
      "peevish": 4337,
      "capable": 4338,
      "proclamation": 4339,
      "warriors": 4340,
      "despised": 4341,
      "sepulchre": 4342,
      "giddy": 4343,
      "attorney": 4344,
      "pernicious": 4345,
      "challenge": 4346,
      "amain": 4347,
      "acles": 4348,
      "apace": 4349,
      "bi": 4350,
      "bate": 4351,
      "blast": 4352,
      "card": 4353,
      "cats": 4354,
      "cheap": 4355,
      "ds": 4356,
      "dst": 4357,
      "dine": 4358,
      "dried": 4359,
      "een": 4360,
      "eight": 4361,
      "egi": 4362,
      "fanta": 4363,
      "gam": 4364,
      "gers": 4365,
      "gap": 4366,
      "ggest": 4367,
      "ians": 4368,
      "ired": 4369,
      "iliar": 4370,
      "lu": 4371,
      "lous": 4372,
      "mers": 4373,
      "mask": 4374,
      "non": 4375,
      "pour": 4376,
      "rhe": 4377,
      "rum": 4378,
      "rance": 4379,
      "sess": 4380,
      "slight": 4381,
      "sides": 4382,
      "twould": 4383,
      "trow": 4384,
      "vul": 4385,
      "vass": 4386,
      "vast": 4387,
      "wks": 4388,
      "zounds": 4389,
      "oured": 4390,
      "angling": 4391,
      "thest": 4392,
      "enrich": 4393,
      "arg": 4394,
      "array": 4395,
      "isted": 4396,
      "isting": 4397,
      "oned": 4398,
      "atta": 4399,
      "start": 4400,
      "stance": 4401,
      "stick": 4402,
      "members": 4403,
      "hallow": 4404,
      "hamed": 4405,
      "severe": 4406,
      "seated": 4407,
      "height": 4408,
      "leap": 4409,
      "lewd": 4410,
      "belong": 4411,
      "beef": 4412,
      "betide": 4413,
      "recover": 4414,
      "revel": 4415,
      "revive": 4416,
      "itation": 4417,
      "chol": 4418,
      "roof": 4419,
      "rope": 4420,
      "robes": 4421,
      "robb": 4422,
      "forgiven": 4423,
      "aspect": 4424,
      "ashamed": 4425,
      "lick": 4426,
      "lions": 4427,
      "week": 4428,
      "erest": 4429,
      "kets": 4430,
      "deceive": 4431,
      "decre": 4432,
      "loso": 4433,
      "loathe": 4434,
      "soms": 4435,
      "entrance": 4436,
      "cot": 4437,
      "cook": 4438,
      "covent": 4439,
      "cozen": 4440,
      "gos": 4441,
      "hions": 4442,
      "owes": 4443,
      "also": 4444,
      "adul": 4445,
      "admir": 4446,
      "advocate": 4447,
      "ung": 4448,
      "unkindness": 4449,
      "allay": 4450,
      "allegi": 4451,
      "ards": 4452,
      "rag": 4453,
      "raid": 4454,
      "amends": 4455,
      "amorous": 4456,
      "fever": 4457,
      "verty": 4458,
      "shade": 4459,
      "supre": 4460,
      "suggest": 4461,
      "poverty": 4462,
      "conquest": 4463,
      "consequ": 4464,
      "shout": 4465,
      "shown": 4466,
      "shru": 4467,
      "shining": 4468,
      "cab": 4469,
      "bowel": 4470,
      "hoar": 4471,
      "moan": 4472,
      "ainted": 4473,
      "frozen": 4474,
      "sith": 4475,
      "silly": 4476,
      "marvel": 4477,
      "marvell": 4478,
      "proph": 4479,
      "pers": 4480,
      "pery": 4481,
      "perchance": 4482,
      "permit": 4483,
      "perience": 4484,
      "herein": 4485,
      "compla": 4486,
      "venice": 4487,
      "ately": 4488,
      "outrage": 4489,
      "sack": 4490,
      "saved": 4491,
      "seeking": 4492,
      "lovel": 4493,
      "cture": 4494,
      "riches": 4495,
      "warn": 4496,
      "likewise": 4497,
      "speaking": 4498,
      "baby": 4499,
      "plebe": 4500,
      "bris": 4501,
      "brat": 4502,
      "cially": 4503,
      "discontent": 4504,
      "discre": 4505,
      "discharge": 4506,
      "discontented": 4507,
      "blot": 4508,
      "misfortune": 4509,
      "petty": 4510,
      "incensed": 4511,
      "offences": 4512,
      "swears": 4513,
      "experience": 4514,
      "monious": 4515,
      "cler": 4516,
      "strang": 4517,
      "dia": 4518,
      "dian": 4519,
      "landed": 4520,
      "grity": 4521,
      "afraid": 4522,
      "accom": 4523,
      "lief": 4524,
      "imper": 4525,
      "immedi": 4526,
      "leaving": 4527,
      "nights": 4528,
      "isement": 4529,
      "partner": 4530,
      "livest": 4531,
      "fortunate": 4532,
      "resem": 4533,
      "intents": 4534,
      "intended": 4535,
      "parents": 4536,
      "parties": 4537,
      "flay": 4538,
      "pute": 4539,
      "blue": 4540,
      "downright": 4541,
      "courtier": 4542,
      "worldly": 4543,
      "presume": 4544,
      "brains": 4545,
      "cheque": 4546,
      "beside": 4547,
      "welsh": 4548,
      "couldst": 4549,
      "helps": 4550,
      "dearer": 4551,
      "meantime": 4552,
      "purple": 4553,
      "pursue": 4554,
      "charges": 4555,
      "clean": 4556,
      "busy": 4557,
      "drew": 4558,
      "hopeful": 4559,
      "drinking": 4560,
      "carries": 4561,
      "bene": 4562,
      "compas": 4563,
      "compli": 4564,
      "compound": 4565,
      "pomp": 4566,
      "homely": 4567,
      "steed": 4568,
      "steep": 4569,
      "dragon": 4570,
      "dower": 4571,
      "sunday": 4572,
      "temples": 4573,
      "turned": 4574,
      "reply": 4575,
      "burden": 4576,
      "burgun": 4577,
      "signal": 4578,
      "signify": 4579,
      "contents": 4580,
      "pick": 4581,
      "sounds": 4582,
      "sounded": 4583,
      "falsely": 4584,
      "relent": 4585,
      "believed": 4586,
      "straw": 4587,
      "commands": 4588,
      "spot": 4589,
      "revenges": 4590,
      "readiness": 4591,
      "doubtful": 4592,
      "kisses": 4593,
      "winters": 4594,
      "draws": 4595,
      "lambs": 4596,
      "pedlar": 4597,
      "beats": 4598,
      "beaten": 4599,
      "folks": 4600,
      "crying": 4601,
      "harp": 4602,
      "runs": 4603,
      "touching": 4604,
      "boldness": 4605,
      "ransom": 4606,
      "devilish": 4607,
      "entreaties": 4608,
      "wednes": 4609,
      "crush": 4610,
      "crutch": 4611,
      "youthful": 4612,
      "safely": 4613,
      "testi": 4614,
      "divor": 4615,
      "tempted": 4616,
      "cloudy": 4617,
      "eldest": 4618,
      "springs": 4619,
      "stream": 4620,
      "stops": 4621,
      "grieves": 4622,
      "grieved": 4623,
      "skull": 4624,
      "interchange": 4625,
      "satisfaction": 4626,
      "summon": 4627,
      "darkness": 4628,
      "rupt": 4629,
      "towns": 4630,
      "dame": 4631,
      "hurl": 4632,
      "beggars": 4633,
      "lamentable": 4634,
      "eaten": 4635,
      "cowardly": 4636,
      "approbation": 4637,
      "dared": 4638,
      "fondly": 4639,
      "kinsmen": 4640,
      "waken": 4641,
      "storms": 4642,
      "departure": 4643,
      "middle": 4644,
      "ghostly": 4645,
      "mildness": 4646,
      "christop": 4647,
      "shoes": 4648,
      "greeting": 4649,
      "treasons": 4650,
      "mutinous": 4651,
      "spurgh": 4652,
      "usurping": 4653,
      "troubled": 4654,
      "evils": 4655,
      "fingers": 4656,
      "familiar": 4657,
      "seized": 4658,
      "reckon": 4659,
      "sentenced": 4660,
      "lists": 4661,
      "umbling": 4662,
      "considered": 4663,
      "lodged": 4664,
      "ministers": 4665,
      "scot": 4666,
      "conclude": 4667,
      "bootless": 4668,
      "acquainted": 4669,
      "gifts": 4670,
      "retired": 4671,
      "conqueror": 4672,
      "freedom": 4673,
      "keys": 4674,
      "hostess": 4675,
      "designs": 4676,
      "preserve": 4677,
      "vanity": 4678,
      "wandering": 4679,
      "infected": 4680,
      "ravenspurgh": 4681,
      "frank": 4682,
      "accusation": 4683,
      "circumstance": 4684,
      "comfortable": 4685,
      "example": 4686,
      "profane": 4687,
      "errand": 4688,
      "instantly": 4689,
      "stolen": 4690,
      "advertis": 4691,
      "function": 4692,
      "philoso": 4693,
      "injurious": 4694,
      "nobleness": 4695,
      "correction": 4696,
      "bridal": 4697,
      "couple": 4698,
      "varlet": 4699,
      "complexion": 4700,
      "heavier": 4701,
      "sufficient": 4702,
      "occupation": 4703,
      "substitute": 4704,
      "reconcile": 4705,
      "bereft": 4706,
      "narrow": 4707,
      "nimble": 4708,
      "beams": 4709,
      "feigned": 4710,
      "estimation": 4711,
      "tyrannous": 4712,
      "nuptial": 4713,
      "integrity": 4714,
      "recompense": 4715,
      "savage": 4716,
      "merchant": 4717,
      "minola": 4718,
      "pilgrimage": 4719,
      "coventry": 4720,
      "adulter": 4721,
      "allegiance": 4722,
      "bowels": 4723,
      "complaint": 4724,
      "burgundy": 4725,
      "wednesday": 4726,
      "christopher": 4727,
      "philosophy": 4728,
      "ape": 4729,
      "afe": 4730,
      "afore": 4731,
      "agreed": 4732,
      "awaked": 4733,
      "bul": 4734,
      "blan": 4735,
      "cand": 4736,
      "cta": 4737,
      "crest": 4738,
      "cull": 4739,
      "dined": 4740,
      "fu": 4741,
      "fin": 4742,
      "foun": 4743,
      "fume": 4744,
      "gis": 4745,
      "gas": 4746,
      "gal": 4747,
      "gust": 4748,
      "gloves": 4749,
      "hound": 4750,
      "hounds": 4751,
      "ith": 4752,
      "icles": 4753,
      "jer": 4754,
      "jup": 4755,
      "kent": 4756,
      "kites": 4757,
      "knit": 4758,
      "lin": 4759,
      "lor": 4760,
      "len": 4761,
      "lute": 4762,
      "ming": 4763,
      "mum": 4764,
      "mber": 4765,
      "mouse": 4766,
      "mbroke": 4767,
      "mbles": 4768,
      "naught": 4769,
      "nourish": 4770,
      "pence": 4771,
      "pud": 4772,
      "patter": 4773,
      "pular": 4774,
      "pinch": 4775,
      "rist": 4776,
      "scap": 4777,
      "tany": 4778,
      "troy": 4779,
      "ually": 4780,
      "wre": 4781,
      "wart": 4782,
      "xes": 4783,
      "yare": 4784,
      "zy": 4785,
      "zing": 4786,
      "zel": 4787,
      "thage": 4788,
      "threw": 4789,
      "oudest": 4790,
      "error": 4791,
      "inu": 4792,
      "inward": 4793,
      "inies": 4794,
      "invent": 4795,
      "injustice": 4796,
      "theme": 4797,
      "ored": 4798,
      "ories": 4799,
      "orator": 4800,
      "ensu": 4801,
      "envir": 4802,
      "arning": 4803,
      "armed": 4804,
      "ising": 4805,
      "ato": 4806,
      "stin": 4807,
      "stag": 4808,
      "stark": 4809,
      "stiff": 4810,
      "lled": 4811,
      "toe": 4812,
      "tops": 4813,
      "toads": 4814,
      "meth": 4815,
      "meed": 4816,
      "meal": 4817,
      "haunt": 4818,
      "separ": 4819,
      "ingrate": 4820,
      "heth": 4821,
      "heal": 4822,
      "heigh": 4823,
      "heinous": 4824,
      "leful": 4825,
      "level": 4826,
      "learning": 4827,
      "bel": 4828,
      "became": 4829,
      "rein": 4830,
      "repri": 4831,
      "rebu": 4832,
      "redem": 4833,
      "requit": 4834,
      "require": 4835,
      "wield": 4836,
      "veil": 4837,
      "itable": 4838,
      "chers": 4839,
      "chances": 4840,
      "christ": 4841,
      "rode": 4842,
      "forsake": 4843,
      "forsooth": 4844,
      "cep": 4845,
      "cels": 4846,
      "asking": 4847,
      "asion": 4848,
      "asant": 4849,
      "lihood": 4850,
      "wet": 4851,
      "utmost": 4852,
      "usual": 4853,
      "rice": 4854,
      "deer": 4855,
      "lots": 4856,
      "locks": 4857,
      "loose": 4858,
      "soo": 4859,
      "sow": 4860,
      "cob": 4861,
      "coast": 4862,
      "alban": 4863,
      "aloud": 4864,
      "adop": 4865,
      "butter": 4866,
      "undo": 4867,
      "unlook": 4868,
      "unru": 4869,
      "unseen": 4870,
      "uncertain": 4871,
      "unwilling": 4872,
      "unluck": 4873,
      "allies": 4874,
      "ram": 4875,
      "race": 4876,
      "rack": 4877,
      "rails": 4878,
      "rages": 4879,
      "maker": 4880,
      "magis": 4881,
      "whatsoever": 4882,
      "peian": 4883,
      "pembroke": 4884,
      "feat": 4885,
      "shapen": 4886,
      "onest": 4887,
      "tire": 4888,
      "tiger": 4889,
      "iders": 4890,
      "nel": 4891,
      "nept": 4892,
      "manly": 4893,
      "manhood": 4894,
      "tack": 4895,
      "taunts": 4896,
      "prate": 4897,
      "prise": 4898,
      "prating": 4899,
      "proudest": 4900,
      "sugar": 4901,
      "poses": 4902,
      "popular": 4903,
      "conge": 4904,
      "conven": 4905,
      "terr": 4906,
      "moral": 4907,
      "upper": 4908,
      "whipp": 4909,
      "whipt": 4910,
      "causes": 4911,
      "boister": 4912,
      "bosoms": 4913,
      "hole": 4914,
      "moe": 4915,
      "moving": 4916,
      "moment": 4917,
      "model": 4918,
      "moiety": 4919,
      "frost": 4920,
      "sheathe": 4921,
      "shearing": 4922,
      "teth": 4923,
      "tewks": 4924,
      "sive": 4925,
      "thereto": 4926,
      "dumb": 4927,
      "marqu": 4928,
      "perfection": 4929,
      "perjury": 4930,
      "perjured": 4931,
      "combat": 4932,
      "ulate": 4933,
      "canop": 4934,
      "canker": 4935,
      "sacra": 4936,
      "seeks": 4937,
      "worser": 4938,
      "worms": 4939,
      "broach": 4940,
      "ctor": 4941,
      "ctly": 4942,
      "grees": 4943,
      "wolves": 4944,
      "ived": 4945,
      "wares": 4946,
      "likelihood": 4947,
      "spect": 4948,
      "specta": 4949,
      "baw": 4950,
      "bald": 4951,
      "forehead": 4952,
      "northern": 4953,
      "shoulders": 4954,
      "mustard": 4955,
      "graces": 4956,
      "audi": 4957,
      "vial": 4958,
      "disting": 4959,
      "disorder": 4960,
      "displeasure": 4961,
      "distur": 4962,
      "distress": 4963,
      "corax": 4964,
      "mischief": 4965,
      "serious": 4966,
      "serpent": 4967,
      "nail": 4968,
      "nails": 4969,
      "exact": 4970,
      "spar": 4971,
      "spark": 4972,
      "spider": 4973,
      "angels": 4974,
      "mont": 4975,
      "ables": 4976,
      "digest": 4977,
      "divide": 4978,
      "brotherhood": 4979,
      "breeding": 4980,
      "breaking": 4981,
      "otherwise": 4982,
      "eyed": 4983,
      "apart": 4984,
      "madest": 4985,
      "impeach": 4986,
      "prays": 4987,
      "plate": 4988,
      "nighting": 4989,
      "nightly": 4990,
      "linger": 4991,
      "oppression": 4992,
      "named": 4993,
      "sweetest": 4994,
      "nobleman": 4995,
      "setting": 4996,
      "resist": 4997,
      "intends": 4998,
      "privy": 4999,
      "fiance": 5000,
      "wring": 5001,
      "flint": 5002,
      "rests": 5003,
      "thood": 5004,
      "evermore": 5005,
      "everlasting": 5006,
      "blance": 5007,
      "blister": 5008,
      "downfall": 5009,
      "courts": 5010,
      "courses": 5011,
      "cloak": 5012,
      "gued": 5013,
      "mothers": 5014,
      "braved": 5015,
      "chest": 5016,
      "gather": 5017,
      "gaol": 5018,
      "tried": 5019,
      "trifles": 5020,
      "embas": 5021,
      "diest": 5022,
      "begg": 5023,
      "insinu": 5024,
      "showing": 5025,
      "scur": 5026,
      "friendship": 5027,
      "lights": 5028,
      "talking": 5029,
      "calamity": 5030,
      "murders": 5031,
      "climate": 5032,
      "commends": 5033,
      "sensible": 5034,
      "ivant": 5035,
      "dearth": 5036,
      "fring": 5037,
      "front": 5038,
      "franch": 5039,
      "frantic": 5040,
      "keeping": 5041,
      "murdered": 5042,
      "murderous": 5043,
      "meaner": 5044,
      "pursuit": 5045,
      "afterward": 5046,
      "capulets": 5047,
      "subdu": 5048,
      "happier": 5049,
      "carthage": 5050,
      "wave": 5051,
      "waits": 5052,
      "yester": 5053,
      "confusion": 5054,
      "confidence": 5055,
      "confeder": 5056,
      "following": 5057,
      "fallen": 5058,
      "patron": 5059,
      "steward": 5060,
      "dram": 5061,
      "nigh": 5062,
      "cousins": 5063,
      "killing": 5064,
      "accustom": 5065,
      "temple": 5066,
      "tempor": 5067,
      "bric": 5068,
      "strife": 5069,
      "strict": 5070,
      "wronged": 5071,
      "royalties": 5072,
      "chose": 5073,
      "plays": 5074,
      "thousands": 5075,
      "pilot": 5076,
      "herds": 5077,
      "minutes": 5078,
      "lowly": 5079,
      "crab": 5080,
      "cracking": 5081,
      "stocks": 5082,
      "montagues": 5083,
      "hangman": 5084,
      "matters": 5085,
      "bowl": 5086,
      "fights": 5087,
      "reasonable": 5088,
      "dreamt": 5089,
      "blade": 5090,
      "blaze": 5091,
      "revenue": 5092,
      "ignoble": 5093,
      "humility": 5094,
      "yielding": 5095,
      "fouler": 5096,
      "appears": 5097,
      "watery": 5098,
      "breaks": 5099,
      "singular": 5100,
      "delicate": 5101,
      "beating": 5102,
      "harbour": 5103,
      "harmony": 5104,
      "harvest": 5105,
      "tenderness": 5106,
      "creep": 5107,
      "crept": 5108,
      "hunger": 5109,
      "destiny": 5110,
      "sadly": 5111,
      "saddle": 5112,
      "suffice": 5113,
      "persons": 5114,
      "reported": 5115,
      "battles": 5116,
      "silk": 5117,
      "airy": 5118,
      "growth": 5119,
      "smiling": 5120,
      "antium": 5121,
      "confessor": 5122,
      "confession": 5123,
      "surfeit": 5124,
      "devils": 5125,
      "entreaty": 5126,
      "quarter": 5127,
      "leaden": 5128,
      "wedded": 5129,
      "attended": 5130,
      "ashes": 5131,
      "speedy": 5132,
      "revengeful": 5133,
      "acknow": 5134,
      "torn": 5135,
      "safeguard": 5136,
      "flatterers": 5137,
      "damnable": 5138,
      "lads": 5139,
      "wonderful": 5140,
      "flock": 5141,
      "walter": 5142,
      "tribune": 5143,
      "knocks": 5144,
      "softly": 5145,
      "divided": 5146,
      "suffering": 5147,
      "sufferance": 5148,
      "eternal": 5149,
      "certainly": 5150,
      "champ": 5151,
      "proceedings": 5152,
      "breasts": 5153,
      "rising": 5154,
      "feasts": 5155,
      "hinder": 5156,
      "troubl": 5157,
      "visitation": 5158,
      "cupid": 5159,
      "lamentation": 5160,
      "smallest": 5161,
      "scorns": 5162,
      "easily": 5163,
      "sixteen": 5164,
      "abhorr": 5165,
      "approved": 5166,
      "grandfather": 5167,
      "midst": 5168,
      "midwife": 5169,
      "wenches": 5170,
      "extremes": 5171,
      "slanderous": 5172,
      "mountain": 5173,
      "sycorax": 5174,
      "anchor": 5175,
      "reigns": 5176,
      "spurs": 5177,
      "pestil": 5178,
      "tarpeian": 5179,
      "glasses": 5180,
      "plants": 5181,
      "milk": 5182,
      "starve": 5183,
      "support": 5184,
      "blushing": 5185,
      "volscian": 5186,
      "volscians": 5187,
      "bending": 5188,
      "lodge": 5189,
      "lodging": 5190,
      "imagination": 5191,
      "roaring": 5192,
      "loyalty": 5193,
      "conclud": 5194,
      "conclusion": 5195,
      "stooping": 5196,
      "roundly": 5197,
      "patrician": 5198,
      "prophecy": 5199,
      "aims": 5200,
      "drift": 5201,
      "loathsome": 5202,
      "advanced": 5203,
      "crows": 5204,
      "ornaments": 5205,
      "pursued": 5206,
      "pursuivant": 5207,
      "fifth": 5208,
      "fifteen": 5209,
      "slily": 5210,
      "statutes": 5211,
      "quali": 5212,
      "quake": 5213,
      "disgraced": 5214,
      "corruption": 5215,
      "guiltless": 5216,
      "eager": 5217,
      "shrink": 5218,
      "fleet": 5219,
      "rushes": 5220,
      "affliction": 5221,
      "swelling": 5222,
      "medic": 5223,
      "adverse": 5224,
      "branches": 5225,
      "whispering": 5226,
      "bounty": 5227,
      "lunatic": 5228,
      "render": 5229,
      "tunis": 5230,
      "dissemble": 5231,
      "achieve": 5232,
      "buckle": 5233,
      "ceremonious": 5234,
      "ctious": 5235,
      "piring": 5236,
      "concerns": 5237,
      "councils": 5238,
      "wrinkled": 5239,
      "tribute": 5240,
      "beseeming": 5241,
      "consorted": 5242,
      "tardy": 5243,
      "decay": 5244,
      "moody": 5245,
      "mariners": 5246,
      "brittany": 5247,
      "innocence": 5248,
      "apprehend": 5249,
      "dancing": 5250,
      "numbers": 5251,
      "puiss": 5252,
      "insulting": 5253,
      "secrets": 5254,
      "requires": 5255,
      "recreant": 5256,
      "whoreson": 5257,
      "chiefest": 5258,
      "ligence": 5259,
      "history": 5260,
      "pearl": 5261,
      "sacrifice": 5262,
      "merciful": 5263,
      "counsellor": 5264,
      "multitude": 5265,
      "fantastic": 5266,
      "rumour": 5267,
      "vulgar": 5268,
      "forgiveness": 5269,
      "loathed": 5270,
      "gossi": 5271,
      "consequence": 5272,
      "cabin": 5273,
      "marvellous": 5274,
      "prophesy": 5275,
      "plebeians": 5276,
      "accompl": 5277,
      "compassion": 5278,
      "scotland": 5279,
      "afeard": 5280,
      "jupiter": 5281,
      "lenity": 5282,
      "pattern": 5283,
      "redemption": 5284,
      "unruly": 5285,
      "magistr": 5286,
      "neptune": 5287,
      "boisterous": 5288,
      "tewksbury": 5289,
      "sacrament": 5290,
      "disturb": 5291,
      "ais": 5292,
      "awe": 5293,
      "aves": 5294,
      "aliz": 5295,
      "afoot": 5296,
      "avouch": 5297,
      "bone": 5298,
      "bout": 5299,
      "bind": 5300,
      "bought": 5301,
      "cust": 5302,
      "cuck": 5303,
      "dun": 5304,
      "dge": 5305,
      "dart": 5306,
      "drow": 5307,
      "dang": 5308,
      "ell": 5309,
      "elo": 5310,
      "ege": 5311,
      "eous": 5312,
      "ect": 5313,
      "eks": 5314,
      "ebus": 5315,
      "elect": 5316,
      "ebb": 5317,
      "fli": 5318,
      "fate": 5319,
      "fty": 5320,
      "farm": 5321,
      "gay": 5322,
      "gul": 5323,
      "gnor": 5324,
      "gging": 5325,
      "gative": 5326,
      "ime": 5327,
      "ives": 5328,
      "iving": 5329,
      "jun": 5330,
      "ky": 5331,
      "kens": 5332,
      "lou": 5333,
      "lat": 5334,
      "las": 5335,
      "lter": 5336,
      "link": 5337,
      "liness": 5338,
      "lends": 5339,
      "leness": 5340,
      "mand": 5341,
      "mod": 5342,
      "mart": 5343,
      "mph": 5344,
      "muff": 5345,
      "nie": 5346,
      "nic": 5347,
      "os": 5348,
      "oling": 5349,
      "ogative": 5350,
      "py": 5351,
      "pan": 5352,
      "pha": 5353,
      "pere": 5354,
      "pine": 5355,
      "pull": 5356,
      "plight": 5357,
      "paint": 5358,
      "puff": 5359,
      "pounds": 5360,
      "rats": 5361,
      "rites": 5362,
      "sine": 5363,
      "squ": 5364,
      "smi": 5365,
      "scour": 5366,
      "sunder": 5367,
      "schol": 5368,
      "tou": 5369,
      "tum": 5370,
      "tink": 5371,
      "tance": 5372,
      "tents": 5373,
      "tumble": 5374,
      "uge": 5375,
      "ubs": 5376,
      "umes": 5377,
      "vine": 5378,
      "vity": 5379,
      "viness": 5380,
      "whelm": 5381,
      "zz": 5382,
      "zon": 5383,
      "zes": 5384,
      "thre": 5385,
      "thres": 5386,
      "thwa": 5387,
      "ousies": 5388,
      "erun": 5389,
      "erity": 5390,
      "erogative": 5391,
      "inv": 5392,
      "inve": 5393,
      "inal": 5394,
      "indu": 5395,
      "inconstant": 5396,
      "inhabit": 5397,
      "instead": 5398,
      "incapable": 5399,
      "infring": 5400,
      "thed": 5401,
      "orph": 5402,
      "ening": 5403,
      "ened": 5404,
      "encourage": 5405,
      "enfranch": 5406,
      "argo": 5407,
      "arum": 5408,
      "arison": 5409,
      "arbit": 5410,
      "isome": 5411,
      "attain": 5412,
      "attent": 5413,
      "sti": 5414,
      "stall": 5415,
      "stem": 5416,
      "strel": 5417,
      "stub": 5418,
      "staff": 5419,
      "llies": 5420,
      "token": 5421,
      "meas": 5422,
      "mete": 5423,
      "mellow": 5424,
      "melting": 5425,
      "espe": 5426,
      "noses": 5427,
      "halt": 5428,
      "hazel": 5429,
      "sex": 5430,
      "seed": 5431,
      "sedu": 5432,
      "hector": 5433,
      "levy": 5434,
      "levied": 5435,
      "beet": 5436,
      "befal": 5437,
      "beads": 5438,
      "befits": 5439,
      "beware": 5440,
      "repro": 5441,
      "relie": 5442,
      "relea": 5443,
      "revol": 5444,
      "repossess": 5445,
      "reproof": 5446,
      "requite": 5447,
      "repetition": 5448,
      "required": 5449,
      "whore": 5450,
      "chery": 5451,
      "rocks": 5452,
      "forces": 5453,
      "formed": 5454,
      "fornic": 5455,
      "forerun": 5456,
      "asy": 5457,
      "assa": 5458,
      "ashor": 5459,
      "ascend": 5460,
      "aspiring": 5461,
      "liqu": 5462,
      "ligent": 5463,
      "licit": 5464,
      "weed": 5465,
      "western": 5466,
      "notes": 5467,
      "notwith": 5468,
      "notorious": 5469,
      "rib": 5470,
      "rion": 5471,
      "rial": 5472,
      "rival": 5473,
      "ripen": 5474,
      "device": 5475,
      "deform": 5476,
      "deeper": 5477,
      "debase": 5478,
      "decease": 5479,
      "degrees": 5480,
      "lodo": 5481,
      "loins": 5482,
      "solicit": 5483,
      "ghthood": 5484,
      "ently": 5485,
      "entire": 5486,
      "entrails": 5487,
      "coz": 5488,
      "coal": 5489,
      "coil": 5490,
      "covery": 5491,
      "cool": 5492,
      "coals": 5493,
      "ows": 5494,
      "alty": 5495,
      "altogether": 5496,
      "alarum": 5497,
      "ador": 5498,
      "adise": 5499,
      "admi": 5500,
      "butchers": 5501,
      "unity": 5502,
      "uneven": 5503,
      "unborn": 5504,
      "unfit": 5505,
      "unlawful": 5506,
      "unfeigned": 5507,
      "allel": 5508,
      "doves": 5509,
      "doors": 5510,
      "domin": 5511,
      "doms": 5512,
      "dolour": 5513,
      "raw": 5514,
      "raging": 5515,
      "raiment": 5516,
      "ordin": 5517,
      "pel": 5518,
      "ami": 5519,
      "amend": 5520,
      "areth": 5521,
      "feits": 5522,
      "feeding": 5523,
      "female": 5524,
      "verse": 5525,
      "vering": 5526,
      "shades": 5527,
      "shaped": 5528,
      "tic": 5529,
      "geld": 5530,
      "idly": 5531,
      "fatho": 5532,
      "neath": 5533,
      "mang": 5534,
      "mantle": 5535,
      "herbs": 5536,
      "hercul": 5537,
      "tag": 5538,
      "tamed": 5539,
      "pry": 5540,
      "pran": 5541,
      "print": 5542,
      "prunes": 5543,
      "prerogative": 5544,
      "sued": 5545,
      "pox": 5546,
      "potent": 5547,
      "pocket": 5548,
      "contri": 5549,
      "contain": 5550,
      "contem": 5551,
      "tering": 5552,
      "terrible": 5553,
      "trades": 5554,
      "endow": 5555,
      "morous": 5556,
      "cave": 5557,
      "boon": 5558,
      "bolt": 5559,
      "holi": 5560,
      "howe": 5561,
      "hook": 5562,
      "hoped": 5563,
      "homage": 5564,
      "mocking": 5565,
      "sheet": 5566,
      "shelter": 5567,
      "sia": 5568,
      "siege": 5569,
      "signor": 5570,
      "ounce": 5571,
      "thereon": 5572,
      "marr": 5573,
      "marble": 5574,
      "promotion": 5575,
      "prompt": 5576,
      "produce": 5577,
      "wasp": 5578,
      "whoever": 5579,
      "umny": 5580,
      "composition": 5581,
      "bled": 5582,
      "bleed": 5583,
      "bleeds": 5584,
      "ateful": 5585,
      "sayest": 5586,
      "sap": 5587,
      "sauc": 5588,
      "safer": 5589,
      "savour": 5590,
      "inder": 5591,
      "indire": 5592,
      "indiffer": 5593,
      "ively": 5594,
      "glories": 5595,
      "warning": 5596,
      "agate": 5597,
      "spear": 5598,
      "bait": 5599,
      "bail": 5600,
      "bache": 5601,
      "fox": 5602,
      "foil": 5603,
      "follies": 5604,
      "forest": 5605,
      "wayward": 5606,
      "musty": 5607,
      "timeless": 5608,
      "queens": 5609,
      "pledge": 5610,
      "quet": 5611,
      "quity": 5612,
      "quaint": 5613,
      "brass": 5614,
      "graft": 5615,
      "earldom": 5616,
      "derived": 5617,
      "cipl": 5618,
      "distra": 5619,
      "dispose": 5620,
      "disposed": 5621,
      "discharged": 5622,
      "distres": 5623,
      "discords": 5624,
      "gentler": 5625,
      "mistaking": 5626,
      "ancest": 5627,
      "hension": 5628,
      "offi": 5629,
      "naw": 5630,
      "exclaim": 5631,
      "sped": 5632,
      "spurn": 5633,
      "spire": 5634,
      "spices": 5635,
      "spilt": 5636,
      "spiders": 5637,
      "looker": 5638,
      "lane": 5639,
      "hears": 5640,
      "heaviness": 5641,
      "abbot": 5642,
      "jocun": 5643,
      "strat": 5644,
      "string": 5645,
      "strumpet": 5646,
      "strengthen": 5647,
      "diet": 5648,
      "dict": 5649,
      "division": 5650,
      "desc": 5651,
      "desir": 5652,
      "grass": 5653,
      "grateful": 5654,
      "ladyship": 5655,
      "breech": 5656,
      "acy": 5657,
      "app": 5658,
      "apri": 5659,
      "appla": 5660,
      "apply": 5661,
      "imped": 5662,
      "impatience": 5663,
      "impatient": 5664,
      "impression": 5665,
      "impud": 5666,
      "plent": 5667,
      "plash": 5668,
      "preced": 5669,
      "preposter": 5670,
      "pregnant": 5671,
      "opposed": 5672,
      "sweets": 5673,
      "bearer": 5674,
      "headstrong": 5675,
      "capti": 5676,
      "captive": 5677,
      "capital": 5678,
      "caparison": 5679,
      "reser": 5680,
      "resort": 5681,
      "park": 5682,
      "partake": 5683,
      "paradise": 5684,
      "parallel": 5685,
      "wrangling": 5686,
      "restored": 5687,
      "madly": 5688,
      "madman": 5689,
      "chival": 5690,
      "presum": 5691,
      "cloth": 5692,
      "aches": 5693,
      "caused": 5694,
      "cheth": 5695,
      "gait": 5696,
      "gape": 5697,
      "rightly": 5698,
      "nursed": 5699,
      "tragic": 5700,
      "welcomes": 5701,
      "shower": 5702,
      "showers": 5703,
      "scal": 5704,
      "scars": 5705,
      "scrup": 5706,
      "treas": 5707,
      "trembles": 5708,
      "crowned": 5709,
      "lightly": 5710,
      "lightness": 5711,
      "peaceful": 5712,
      "calais": 5713,
      "calumny": 5714,
      "banquet": 5715,
      "climb": 5716,
      "gia": 5717,
      "gious": 5718,
      "powder": 5719,
      "commod": 5720,
      "camp": 5721,
      "horror": 5722,
      "understanding": 5723,
      "underneath": 5724,
      "ival": 5725,
      "bestride": 5726,
      "murdering": 5727,
      "contend": 5728,
      "farthest": 5729,
      "hourly": 5730,
      "slack": 5731,
      "charitable": 5732,
      "bandy": 5733,
      "subscri": 5734,
      "pardons": 5735,
      "echo": 5736,
      "royally": 5737,
      "backward": 5738,
      "elsewhere": 5739,
      "tending": 5740,
      "volume": 5741,
      "higher": 5742,
      "highway": 5743,
      "cures": 5744,
      "curtain": 5745,
      "getting": 5746,
      "hush": 5747,
      "needle": 5748,
      "needless": 5749,
      "wax": 5750,
      "yellow": 5751,
      "confines": 5752,
      "bench": 5753,
      "placed": 5754,
      "bodes": 5755,
      "husbands": 5756,
      "nibal": 5757,
      "killed": 5758,
      "shamed": 5759,
      "truer": 5760,
      "sung": 5761,
      "sunshine": 5762,
      "temp": 5763,
      "temperate": 5764,
      "turning": 5765,
      "remedies": 5766,
      "bribe": 5767,
      "replied": 5768,
      "witted": 5769,
      "sands": 5770,
      "marrying": 5771,
      "signs": 5772,
      "built": 5773,
      "versy": 5774,
      "prisoners": 5775,
      "villany": 5776,
      "pile": 5777,
      "pire": 5778,
      "piled": 5779,
      "picious": 5780,
      "picture": 5781,
      "doubly": 5782,
      "doubted": 5783,
      "minstrel": 5784,
      "sleeps": 5785,
      "sleepy": 5786,
      "stool": 5787,
      "relish": 5788,
      "itories": 5789,
      "wishing": 5790,
      "biting": 5791,
      "bows": 5792,
      "fighting": 5793,
      "vails": 5794,
      "strain": 5795,
      "strait": 5796,
      "strains": 5797,
      "meditation": 5798,
      "commanding": 5799,
      "chains": 5800,
      "chased": 5801,
      "latest": 5802,
      "coldly": 5803,
      "footman": 5804,
      "appell": 5805,
      "kissing": 5806,
      "sisterhood": 5807,
      "fitted": 5808,
      "woeful": 5809,
      "returned": 5810,
      "value": 5811,
      "plaints": 5812,
      "widows": 5813,
      "painting": 5814,
      "tenderly": 5815,
      "generate": 5816,
      "crew": 5817,
      "create": 5818,
      "hardy": 5819,
      "silken": 5820,
      "wisest": 5821,
      "nearer": 5822,
      "zement": 5823,
      "pastime": 5824,
      "plucks": 5825,
      "antiates": 5826,
      "hedge": 5827,
      "deeply": 5828,
      "rancour": 5829,
      "fasting": 5830,
      "strongly": 5831,
      "quicken": 5832,
      "profits": 5833,
      "worthily": 5834,
      "judged": 5835,
      "resolute": 5836,
      "consumed": 5837,
      "delivered": 5838,
      "aloof": 5839,
      "actor": 5840,
      "succor": 5841,
      "penny": 5842,
      "counsels": 5843,
      "salute": 5844,
      "shorten": 5845,
      "obsc": 5846,
      "obtain": 5847,
      "torments": 5848,
      "barr": 5849,
      "stances": 5850,
      "stirr": 5851,
      "stirs": 5852,
      "stirring": 5853,
      "mockery": 5854,
      "appeared": 5855,
      "praised": 5856,
      "whet": 5857,
      "wales": 5858,
      "wasted": 5859,
      "breathes": 5860,
      "cheerfully": 5861,
      "knowest": 5862,
      "divines": 5863,
      "poisonous": 5864,
      "blessings": 5865,
      "doricles": 5866,
      "harmless": 5867,
      "thorn": 5868,
      "thorough": 5869,
      "thorns": 5870,
      "possessed": 5871,
      "direful": 5872,
      "fills": 5873,
      "street": 5874,
      "skin": 5875,
      "interpret": 5876,
      "interrup": 5877,
      "pays": 5878,
      "palm": 5879,
      "greece": 5880,
      "victorious": 5881,
      "scarlet": 5882,
      "closely": 5883,
      "witnesses": 5884,
      "hurried": 5885,
      "governor": 5886,
      "worshipful": 5887,
      "natures": 5888,
      "chamberlain": 5889,
      "eating": 5890,
      "changes": 5891,
      "centre": 5892,
      "created": 5893,
      "creatures": 5894,
      "ethon": 5895,
      "cowardice": 5896,
      "sixth": 5897,
      "triumphs": 5898,
      "daring": 5899,
      "millions": 5900,
      "nymph": 5901,
      "malicious": 5902,
      "firmly": 5903,
      "beastly": 5904,
      "hideous": 5905,
      "added": 5906,
      "lecture": 5907,
      "christen": 5908,
      "greetings": 5909,
      "cordial": 5910,
      "mutiny": 5911,
      "mounting": 5912,
      "rebel": 5913,
      "solely": 5914,
      "famish": 5915,
      "frighted": 5916,
      "lustful": 5917,
      "tarqu": 5918,
      "drunkard": 5919,
      "listen": 5920,
      "miles": 5921,
      "threats": 5922,
      "suppliant": 5923,
      "conditions": 5924,
      "fruits": 5925,
      "schoolmaster": 5926,
      "dainty": 5927,
      "mourning": 5928,
      "tonight": 5929,
      "contrad": 5930,
      "persuasion": 5931,
      "scarcely": 5932,
      "amazement": 5933,
      "utterance": 5934,
      "quality": 5935,
      "inclination": 5936,
      "temperance": 5937,
      "demands": 5938,
      "dwells": 5939,
      "porter": 5940,
      "throats": 5941,
      "regiment": 5942,
      "festival": 5943,
      "faintly": 5944,
      "miseries": 5945,
      "partial": 5946,
      "baseness": 5947,
      "flame": 5948,
      "necessary": 5949,
      "shriek": 5950,
      "fruitful": 5951,
      "jade": 5952,
      "beards": 5953,
      "importune": 5954,
      "knighthood": 5955,
      "thirst": 5956,
      "inherited": 5957,
      "whistle": 5958,
      "delights": 5959,
      "assistance": 5960,
      "preserved": 5961,
      "treachery": 5962,
      "jealousies": 5963,
      "witchcraft": 5964,
      "pronounced": 5965,
      "aediles": 5966,
      "bondage": 5967,
      "cros": 5968,
      "crook": 5969,
      "wonders": 5970,
      "rewards": 5971,
      "rascals": 5972,
      "weighty": 5973,
      "penitence": 5974,
      "solemnity": 5975,
      "circumstances": 5976,
      "budge": 5977,
      "songs": 5978,
      "ugly": 5979,
      "intelli": 5980,
      "choleric": 5981,
      "posterity": 5982,
      "comforts": 5983,
      "apprehension": 5984,
      "fixed": 5985,
      "publicly": 5986,
      "dedic": 5987,
      "knightly": 5988,
      "wilful": 5989,
      "ambition": 5990,
      "merrily": 5991,
      "merriment": 5992,
      "chastity": 5993,
      "chastisement": 5994,
      "lungs": 5995,
      "philip": 5996,
      "injuries": 5997,
      "inferior": 5998,
      "nobler": 5999,
      "admitted": 6000,
      "correct": 6001,
      "achieved": 6002,
      "brawl": 6003,
      "brawling": 6004,
      "controversy": 6005,
      "extremest": 6006,
      "awry": 6007,
      "difference": 6008,
      "events": 6009,
      "pupil": 6010,
      "puppet": 6011,
      "swoon": 6012,
      "waning": 6013,
      "issued": 6014,
      "factors": 6015,
      "prodigal": 6016,
      "council": 6017,
      "receives": 6018,
      "baggage": 6019,
      "curious": 6020,
      "coffin": 6021,
      "longest": 6022,
      "mptory": 6023,
      "phoebus": 6024,
      "scolding": 6025,
      "beguile": 6026,
      "beguiled": 6027,
      "assemb": 6028,
      "society": 6029,
      "superflu": 6030,
      "bruised": 6031,
      "disguised": 6032,
      "napkin": 6033,
      "restraint": 6034,
      "embraced": 6035,
      "bankrupt": 6036,
      "buzzard": 6037,
      "beautiful": 6038,
      "wheels": 6039,
      "physician": 6040,
      "mongst": 6041,
      "insolence": 6042,
      "haughty": 6043,
      "limits": 6044,
      "expedition": 6045,
      "transported": 6046,
      "luke": 6047,
      "rheum": 6048,
      "vassal": 6049,
      "attach": 6050,
      "ragged": 6051,
      "supreme": 6052,
      "experienced": 6053,
      "diadem": 6054,
      "imperial": 6055,
      "immediately": 6056,
      "flayed": 6057,
      "welshmen": 6058,
      "testimony": 6059,
      "divorce": 6060,
      "skulls": 6061,
      "reckoning": 6062,
      "advertised": 6063,
      "candle": 6064,
      "reprieve": 6065,
      "rebuke": 6066,
      "convenient": 6067,
      "territories": 6068,
      "canopy": 6069,
      "distinguish": 6070,
      "nightingale": 6071,
      "scurvy": 6072,
      "acknowledge": 6073,
      "troublous": 6074,
      "pestilence": 6075,
      "concluded": 6076,
      "medicine": 6077,
      "puissant": 6078,
      "accomplish": 6079,
      "alize": 6080,
      "cuckold": 6081,
      "dangers": 6082,
      "eloqu": 6083,
      "gulf": 6084,
      "louder": 6085,
      "moder": 6086,
      "phaethon": 6087,
      "peremptory": 6088,
      "scholar": 6089,
      "vineyard": 6090,
      "threes": 6091,
      "thwack": 6092,
      "especially": 6093,
      "assault": 6094,
      "ashore": 6095,
      "notwithstanding": 6096,
      "lodowick": 6097,
      "hercules": 6098,
      "saucy": 6099,
      "bachelor": 6100,
      "distressed": 6101,
      "jocund": 6102,
      "impediment": 6103,
      "precedent": 6104,
      "preposterous": 6105,
      "'!": 6106,
      "'--": 6107,
      "ake": 6108,
      "aust": 6109,
      "afri": 6110,
      "aled": 6111,
      "aery": 6112,
      "aqua": 6113,
      "awares": 6114,
      "bun": 6115,
      "bust": 6116,
      "bass": 6117,
      "bies": 6118,
      "batter": 6119,
      "bits": 6120,
      "bide": 6121,
      "bash": 6122,
      "bier": 6123,
      "boured": 6124,
      "cleave": 6125,
      "cuff": 6126,
      "ckey": 6127,
      "ctive": 6128,
      "ckets": 6129,
      "dir": 6130,
      "dight": 6131,
      "dive": 6132,
      "dling": 6133,
      "dens": 6134,
      "dast": 6135,
      "dally": 6136,
      "dler": 6137,
      "dances": 6138,
      "duteous": 6139,
      "eg": 6140,
      "eu": 6141,
      "ew": 6142,
      "eves": 6143,
      "equ": 6144,
      "egg": 6145,
      "fen": 6146,
      "fes": 6147,
      "fut": 6148,
      "fter": 6149,
      "fend": 6150,
      "fence": 6151,
      "fling": 6152,
      "fowl": 6153,
      "gor": 6154,
      "gli": 6155,
      "gill": 6156,
      "glove": 6157,
      "gird": 6158,
      "gorge": 6159,
      "gilt": 6160,
      "ghest": 6161,
      "gnaw": 6162,
      "hint": 6163,
      "harms": 6164,
      "ip": 6165,
      "iate": 6166,
      "icester": 6167,
      "ivers": 6168,
      "imed": 6169,
      "ibat": 6170,
      "iquity": 6171,
      "jar": 6172,
      "jump": 6173,
      "kers": 6174,
      "kitch": 6175,
      "ln": 6176,
      "lish": 6177,
      "lts": 6178,
      "lass": 6179,
      "lud": 6180,
      "lph": 6181,
      "lorn": 6182,
      "muse": 6183,
      "mud": 6184,
      "mute": 6185,
      "mended": 6186,
      "nin": 6187,
      "nur": 6188,
      "nuns": 6189,
      "oce": 6190,
      "omary": 6191,
      "pon": 6192,
      "pant": 6193,
      "pink": 6194,
      "pins": 6195,
      "pond": 6196,
      "pines": 6197,
      "rar": 6198,
      "rus": 6199,
      "rent": 6200,
      "rings": 6201,
      "rates": 6202,
      "rhy": 6203,
      "rarest": 6204,
      "sn": 6205,
      "sou": 6206,
      "sof": 6207,
      "sma": 6208,
      "sinc": 6209,
      "soften": 6210,
      "swarm": 6211,
      "slend": 6212,
      "swine": 6213,
      "scep": 6214,
      "tu": 6215,
      "tir": 6216,
      "tart": 6217,
      "tling": 6218,
      "tatter": 6219,
      "tunes": 6220,
      "tires": 6221,
      "tsey": 6222,
      "terest": 6223,
      "tumbling": 6224,
      "uto": 6225,
      "uce": 6226,
      "uly": 6227,
      "uous": 6228,
      "uble": 6229,
      "udes": 6230,
      "vion": 6231,
      "vap": 6232,
      "vation": 6233,
      "vita": 6234,
      "waf": 6235,
      "zine": 6236,
      "thwart": 6237,
      "ann": 6238,
      "anno": 6239,
      "eres": 6240,
      "erwhelm": 6241,
      "infa": 6242,
      "inci": 6243,
      "inty": 6244,
      "inite": 6245,
      "infirm": 6246,
      "infancy": 6247,
      "injured": 6248,
      "influ": 6249,
      "iniquity": 6250,
      "orch": 6251,
      "ortive": 6252,
      "enro": 6253,
      "ende": 6254,
      "enjoin": 6255,
      "argues": 6256,
      "isk": 6257,
      "ists": 6258,
      "anders": 6259,
      "aty": 6260,
      "atone": 6261,
      "atory": 6262,
      "stal": 6263,
      "stam": 6264,
      "stif": 6265,
      "stage": 6266,
      "stuck": 6267,
      "steter": 6268,
      "stafford": 6269,
      "starts": 6270,
      "stinking": 6271,
      "stony": 6272,
      "toes": 6273,
      "tock": 6274,
      "toss": 6275,
      "mets": 6276,
      "methoughts": 6277,
      "escap": 6278,
      "haw": 6279,
      "haven": 6280,
      "sem": 6281,
      "seth": 6282,
      "sear": 6283,
      "secur": 6284,
      "sequi": 6285,
      "sevent": 6286,
      "ingly": 6287,
      "ingrat": 6288,
      "hew": 6289,
      "lebr": 6290,
      "lehill": 6291,
      "lechery": 6292,
      "leicester": 6293,
      "beho": 6294,
      "bewr": 6295,
      "bewitch": 6296,
      "belongs": 6297,
      "remo": 6298,
      "reel": 6299,
      "rehear": 6300,
      "regreet": 6301,
      "remiss": 6302,
      "remn": 6303,
      "revell": 6304,
      "repaid": 6305,
      "regia": 6306,
      "wheres": 6307,
      "vehe": 6308,
      "chy": 6309,
      "chid": 6310,
      "charms": 6311,
      "chides": 6312,
      "chron": 6313,
      "rod": 6314,
      "road": 6315,
      "rood": 6316,
      "rogues": 6317,
      "forso": 6318,
      "foret": 6319,
      "forrest": 6320,
      "forlorn": 6321,
      "celebr": 6322,
      "ases": 6323,
      "assay": 6324,
      "asite": 6325,
      "asphe": 6326,
      "lian": 6327,
      "liver": 6328,
      "liars": 6329,
      "livion": 6330,
      "edic": 6331,
      "edict": 6332,
      "irish": 6333,
      "web": 6334,
      "keen": 6335,
      "usage": 6336,
      "usale": 6337,
      "uspicious": 6338,
      "rip": 6339,
      "rigour": 6340,
      "dex": 6341,
      "demi": 6342,
      "defect": 6343,
      "detect": 6344,
      "devised": 6345,
      "deposing": 6346,
      "defiance": 6347,
      "degenerate": 6348,
      "soe": 6349,
      "soar": 6350,
      "sober": 6351,
      "solace": 6352,
      "soonest": 6353,
      "enters": 6354,
      "cog": 6355,
      "cox": 6356,
      "coin": 6357,
      "coats": 6358,
      "gomer": 6359,
      "goest": 6360,
      "gozine": 6361,
      "hides": 6362,
      "highest": 6363,
      "eteen": 6364,
      "adam": 6365,
      "adder": 6366,
      "adding": 6367,
      "uned": 6368,
      "unlike": 6369,
      "ungentle": 6370,
      "unrest": 6371,
      "unpeople": 6372,
      "unthri": 6373,
      "ungovern": 6374,
      "undance": 6375,
      "unlikely": 6376,
      "unpleasing": 6377,
      "unprovided": 6378,
      "untainted": 6379,
      "unavoided": 6380,
      "unwield": 6381,
      "unusual": 6382,
      "unsheathe": 6383,
      "unaccustom": 6384,
      "unawares": 6385,
      "univers": 6386,
      "iod": 6387,
      "alla": 6388,
      "allied": 6389,
      "doit": 6390,
      "doings": 6391,
      "doting": 6392,
      "doleful": 6393,
      "uring": 6394,
      "urous": 6395,
      "urbs": 6396,
      "urging": 6397,
      "rap": 6398,
      "rapt": 6399,
      "raign": 6400,
      "raged": 6401,
      "raze": 6402,
      "razed": 6403,
      "rabble": 6404,
      "ragozine": 6405,
      "mab": 6406,
      "map": 6407,
      "mathem": 6408,
      "maim": 6409,
      "magic": 6410,
      "makers": 6411,
      "ordain": 6412,
      "whatever": 6413,
      "pell": 6414,
      "peck": 6415,
      "peasant": 6416,
      "amended": 6417,
      "ambush": 6418,
      "ambass": 6419,
      "fees": 6420,
      "fester": 6421,
      "femin": 6422,
      "verge": 6423,
      "verity": 6424,
      "verdict": 6425,
      "tick": 6426,
      "timer": 6427,
      "tiber": 6428,
      "tides": 6429,
      "gear": 6430,
      "geia": 6431,
      "fable": 6432,
      "faster": 6433,
      "fails": 6434,
      "fabric": 6435,
      "factious": 6436,
      "nearest": 6437,
      "mann": 6438,
      "mankind": 6439,
      "manacles": 6440,
      "hered": 6441,
      "herbert": 6442,
      "lame": 6443,
      "lacks": 6444,
      "laughter": 6445,
      "lazy": 6446,
      "laboured": 6447,
      "lackey": 6448,
      "tax": 6449,
      "taunt": 6450,
      "prat": 6451,
      "prised": 6452,
      "proffer": 6453,
      "sues": 6454,
      "sulph": 6455,
      "poll": 6456,
      "potion": 6457,
      "poised": 6458,
      "cony": 6459,
      "conver": 6460,
      "constr": 6461,
      "convers": 6462,
      "convent": 6463,
      "conserves": 6464,
      "terate": 6465,
      "ternal": 6466,
      "trad": 6467,
      "trun": 6468,
      "trudge": 6469,
      "shores": 6470,
      "shouts": 6471,
      "morsel": 6472,
      "mortimer": 6473,
      "cable": 6474,
      "caged": 6475,
      "box": 6476,
      "hog": 6477,
      "hoo": 6478,
      "hoard": 6479,
      "hoop": 6480,
      "homi": 6481,
      "hoot": 6482,
      "mois": 6483,
      "moans": 6484,
      "molehill": 6485,
      "lete": 6486,
      "goodman": 6487,
      "shear": 6488,
      "shell": 6489,
      "sheets": 6490,
      "teem": 6491,
      "usters": 6492,
      "sied": 6493,
      "sigeia": 6494,
      "simois": 6495,
      "dug": 6496,
      "dul": 6497,
      "ducats": 6498,
      "prover": 6499,
      "prote": 6500,
      "procla": 6501,
      "promp": 6502,
      "peror": 6503,
      "perch": 6504,
      "peration": 6505,
      "perused": 6506,
      "peradventure": 6507,
      "perfume": 6508,
      "period": 6509,
      "inest": 6510,
      "whoop": 6511,
      "compell": 6512,
      "ulation": 6513,
      "vener": 6514,
      "howl": 6515,
      "howling": 6516,
      "saving": 6517,
      "sails": 6518,
      "sages": 6519,
      "seemed": 6520,
      "seemeth": 6521,
      "worships": 6522,
      "broils": 6523,
      "akes": 6524,
      "ctors": 6525,
      "richly": 6526,
      "iege": 6527,
      "gles": 6528,
      "glister": 6529,
      "wary": 6530,
      "agony": 6531,
      "whereby": 6532,
      "whereupon": 6533,
      "spell": 6534,
      "bauble": 6535,
      "foaming": 6536,
      "fooling": 6537,
      "somebody": 6538,
      "quo": 6539,
      "quis": 6540,
      "bran": 6541,
      "brine": 6542,
      "cide": 6543,
      "civious": 6544,
      "vigour": 6545,
      "usest": 6546,
      "dislike": 6547,
      "distill": 6548,
      "dissent": 6549,
      "discer": 6550,
      "diseas": 6551,
      "displeased": 6552,
      "distemper": 6553,
      "disloyal": 6554,
      "distin": 6555,
      "disinherit": 6556,
      "dispute": 6557,
      "discovery": 6558,
      "discipl": 6559,
      "disinherited": 6560,
      "corner": 6561,
      "corpor": 6562,
      "blos": 6563,
      "blots": 6564,
      "blocks": 6565,
      "daylight": 6566,
      "gentry": 6567,
      "mista": 6568,
      "mistook": 6569,
      "miscarried": 6570,
      "petti": 6571,
      "incur": 6572,
      "incense": 6573,
      "mercur": 6574,
      "merits": 6575,
      "swept": 6576,
      "tellus": 6577,
      "exha": 6578,
      "expost": 6579,
      "excels": 6580,
      "external": 6581,
      "spies": 6582,
      "sparing": 6583,
      "fulfill": 6584,
      "handle": 6585,
      "handsome": 6586,
      "handker": 6587,
      "hearth": 6588,
      "clout": 6589,
      "clubs": 6590,
      "lesson": 6591,
      "abate": 6592,
      "abides": 6593,
      "ability": 6594,
      "abuses": 6595,
      "abund": 6596,
      "abundance": 6597,
      "stray": 6598,
      "dick": 6599,
      "divers": 6600,
      "digress": 6601,
      "diligence": 6602,
      "bery": 6603,
      "bering": 6604,
      "berries": 6605,
      "desol": 6606,
      "descried": 6607,
      "desired": 6608,
      "grub": 6609,
      "afres": 6610,
      "brethr": 6611,
      "juno": 6612,
      "jule": 6613,
      "counters": 6614,
      "accompany": 6615,
      "acquit": 6616,
      "acheth": 6617,
      "impl": 6618,
      "impose": 6619,
      "imposition": 6620,
      "impute": 6621,
      "pling": 6622,
      "plough": 6623,
      "angle": 6624,
      "angled": 6625,
      "anguish": 6626,
      "fearless": 6627,
      "fairies": 6628,
      "leather": 6629,
      "calling": 6630,
      "precise": 6631,
      "prevails": 6632,
      "oppose": 6633,
      "sses": 6634,
      "icing": 6635,
      "ical": 6636,
      "greatly": 6637,
      "estab": 6638,
      "agems": 6639,
      "lively": 6640,
      "garter": 6641,
      "garment": 6642,
      "garlic": 6643,
      "iced": 6644,
      "inable": 6645,
      "betro": 6646,
      "fortnight": 6647,
      "residence": 6648,
      "resisted": 6649,
      "interest": 6650,
      "parle": 6651,
      "parch": 6652,
      "parcel": 6653,
      "parlous": 6654,
      "parasite": 6655,
      "pricks": 6656,
      "priami": 6657,
      "ensue": 6658,
      "julius": 6659,
      "file": 6660,
      "fiends": 6661,
      "ficial": 6662,
      "fickle": 6663,
      "wrench": 6664,
      "flinty": 6665,
      "redou": 6666,
      "resteth": 6667,
      "restrain": 6668,
      "blasphe": 6669,
      "longing": 6670,
      "effemin": 6671,
      "poorest": 6672,
      "prescri": 6673,
      "presseth": 6674,
      "clog": 6675,
      "guide": 6676,
      "guild": 6677,
      "aching": 6678,
      "brazen": 6679,
      "bragg": 6680,
      "cheers": 6681,
      "chequ": 6682,
      "gazed": 6683,
      "mightily": 6684,
      "emperor": 6685,
      "emulation": 6686,
      "traged": 6687,
      "traff": 6688,
      "travel": 6689,
      "begging": 6690,
      "besiege": 6691,
      "welkin": 6692,
      "scra": 6693,
      "scare": 6694,
      "scouts": 6695,
      "treble": 6696,
      "treaty": 6697,
      "clap": 6698,
      "lighted": 6699,
      "litter": 6700,
      "tales": 6701,
      "henceforward": 6702,
      "calf": 6703,
      "clip": 6704,
      "gild": 6705,
      "giant": 6706,
      "ominous": 6707,
      "commune": 6708,
      "horrible": 6709,
      "senis": 6710,
      "undergo": 6711,
      "engross": 6712,
      "helen": 6713,
      "helms": 6714,
      "helmets": 6715,
      "purged": 6716,
      "purses": 6717,
      "purposes": 6718,
      "purchased": 6719,
      "thrall": 6720,
      "charters": 6721,
      "subdue": 6722,
      "suborn": 6723,
      "submission": 6724,
      "suburbs": 6725,
      "justly": 6726,
      "justify": 6727,
      "cleft": 6728,
      "denial": 6729,
      "pleaseth": 6730,
      "busied": 6731,
      "finding": 6732,
      "tongueless": 6733,
      "curs": 6734,
      "curbs": 6735,
      "needy": 6736,
      "hopeless": 6737,
      "carrion": 6738,
      "waving": 6739,
      "yew": 6740,
      "confined": 6741,
      "confounds": 6742,
      "benedic": 6743,
      "fallible": 6744,
      "complete": 6745,
      "bringing": 6746,
      "boding": 6747,
      "kennel": 6748,
      "nip": 6749,
      "borough": 6750,
      "kills": 6751,
      "shipp": 6752,
      "shift": 6753,
      "shamest": 6754,
      "shameless": 6755,
      "helping": 6756,
      "overheard": 6757,
      "overthrow": 6758,
      "suns": 6759,
      "ctions": 6760,
      "provoke": 6761,
      "womanish": 6762,
      "witty": 6763,
      "witting": 6764,
      "grumbling": 6765,
      "stride": 6766,
      "stripes": 6767,
      "wrongfully": 6768,
      "choke": 6769,
      "bug": 6770,
      "burial": 6771,
      "player": 6772,
      "players": 6773,
      "ville": 6774,
      "villan": 6775,
      "pipe": 6776,
      "pikes": 6777,
      "xture": 6778,
      "doublet": 6779,
      "threefold": 6780,
      "cushion": 6781,
      "cushions": 6782,
      "swearing": 6783,
      "forms": 6784,
      "minal": 6785,
      "minster": 6786,
      "passes": 6787,
      "sending": 6788,
      "stoc": 6789,
      "stole": 6790,
      "talked": 6791,
      "knell": 6792,
      "relation": 6793,
      "gotten": 6794,
      "visor": 6795,
      "wishes": 6796,
      "deserts": 6797,
      "deserving": 6798,
      "lloa": 6799,
      "bites": 6800,
      "commandment": 6801,
      "spoils": 6802,
      "countryman": 6803,
      "shepherds": 6804,
      "chain": 6805,
      "chaff": 6806,
      "chafed": 6807,
      "winding": 6808,
      "igation": 6809,
      "grove": 6810,
      "breaths": 6811,
      "doubtless": 6812,
      "colder": 6813,
      "footing": 6814,
      "freeze": 6815,
      "asked": 6816,
      "watching": 6817,
      "watchful": 6818,
      "fitter": 6819,
      "fitting": 6820,
      "titles": 6821,
      "cession": 6822,
      "lamp": 6823,
      "lammas": 6824,
      "mirror": 6825,
      "delivery": 6826,
      "entering": 6827,
      "enterprise": 6828,
      "returns": 6829,
      "valued": 6830,
      "throughly": 6831,
      "widower": 6832,
      "remembering": 6833,
      "remembered": 6834,
      "harlot": 6835,
      "painful": 6836,
      "changeling": 6837,
      "creation": 6838,
      "nerves": 6839,
      "bonny": 6840,
      "bonnet": 6841,
      "bats": 6842,
      "harder": 6843,
      "supple": 6844,
      "warrants": 6845,
      "dyed": 6846,
      "touches": 6847,
      "bolder": 6848,
      "strangely": 6849,
      "plucked": 6850,
      "antial": 6851,
      "wearing": 6852,
      "corners": 6853,
      "ranks": 6854,
      "losses": 6855,
      "masqu": 6856,
      "masks": 6857,
      "profound": 6858,
      "posts": 6859,
      "opening": 6860,
      "surly": 6861,
      "surname": 6862,
      "survey": 6863,
      "surprised": 6864,
      "entreated": 6865,
      "advanta": 6866,
      "worthier": 6867,
      "worthiest": 6868,
      "quarre": 6869,
      "quarters": 6870,
      "dishes": 6871,
      "leader": 6872,
      "leading": 6873,
      "presses": 6874,
      "casting": 6875,
      "hoping": 6876,
      "wooers": 6877,
      "ordering": 6878,
      "orderly": 6879,
      "consume": 6880,
      "consuls": 6881,
      "deliverance": 6882,
      "acting": 6883,
      "crad": 6884,
      "dropp": 6885,
      "moveables": 6886,
      "speedily": 6887,
      "abode": 6888,
      "penury": 6889,
      "salut": 6890,
      "trod": 6891,
      "countermand": 6892,
      "obdur": 6893,
      "obsequ": 6894,
      "obsequi": 6895,
      "oblivion": 6896,
      "flatterer": 6897,
      "bargain": 6898,
      "barbar": 6899,
      "stirrup": 6900,
      "mocked": 6901,
      "appearing": 6902,
      "wondering": 6903,
      "walking": 6904,
      "walks": 6905,
      "throws": 6906,
      "mortality": 6907,
      "sickly": 6908,
      "cheerful": 6909,
      "crimes": 6910,
      "criminal": 6911,
      "mities": 6912,
      "clouded": 6913,
      "thorny": 6914,
      "usurer": 6915,
      "usurps": 6916,
      "consented": 6917,
      "elders": 6918,
      "filling": 6919,
      "sprites": 6920,
      "violate": 6921,
      "streak": 6922,
      "skil": 6923,
      "skins": 6924,
      "intercession": 6925,
      "proceeding": 6926,
      "speeches": 6927,
      "speechless": 6928,
      "liberties": 6929,
      "feasting": 6930,
      "beginning": 6931,
      "briefly": 6932,
      "knavery": 6933,
      "plots": 6934,
      "chertsey": 6935,
      "westminster": 6936,
      "summers": 6937,
      "troubles": 6938,
      "frowning": 6939,
      "scarr": 6940,
      "patiently": 6941,
      "visiting": 6942,
      "darken": 6943,
      "darkly": 6944,
      "fresher": 6945,
      "freshest": 6946,
      "gallop": 6947,
      "gallows": 6948,
      "message": 6949,
      "respects": 6950,
      "ports": 6951,
      "stains": 6952,
      "beggary": 6953,
      "beggarly": 6954,
      "lamentations": 6955,
      "successful": 6956,
      "ginger": 6957,
      "planet": 6958,
      "swim": 6959,
      "swifter": 6960,
      "susan": 6961,
      "space": 6962,
      "slanders": 6963,
      "favourable": 6964,
      "pleasures": 6965,
      "forbids": 6966,
      "forbidden": 6967,
      "malignant": 6968,
      "adders": 6969,
      "pierced": 6970,
      "innocen": 6971,
      "wildly": 6972,
      "shock": 6973,
      "shoot": 6974,
      "teaching": 6975,
      "greets": 6976,
      "drinks": 6977,
      "births": 6978,
      "girls": 6979,
      "mutually": 6980,
      "mutinies": 6981,
      "mounted": 6982,
      "anchors": 6983,
      "continu": 6984,
      "continued": 6985,
      "reckless": 6986,
      "courageous": 6987,
      "englishman": 6988,
      "drowning": 6989,
      "enjoys": 6990,
      "severity": 6991,
      "proofs": 6992,
      "swiftly": 6993,
      "fancies": 6994,
      "staring": 6995,
      "starved": 6996,
      "authorities": 6997,
      "clamorous": 6998,
      "desperately": 6999,
      "effects": 7000,
      "bastardy": 7001,
      "considering": 7002,
      "thinkest": 7003,
      "enforcement": 7004,
      "allowing": 7005,
      "persuaded": 7006,
      "persuades": 7007,
      "sailors": 7008,
      "preparation": 7009,
      "stealing": 7010,
      "wretchedness": 7011,
      "amazon": 7012,
      "arrival": 7013,
      "stabbed": 7014,
      "refuge": 7015,
      "qualities": 7016,
      "substantial": 7017,
      "wailing": 7018,
      "dwelling": 7019,
      "portion": 7020,
      "smoking": 7021,
      "infinite": 7022,
      "region": 7023,
      "weighs": 7024,
      "weighing": 7025,
      "delpho": 7026,
      "dealing": 7027,
      "properly": 7028,
      "petitions": 7029,
      "privately": 7030,
      "basil": 7031,
      "flag": 7032,
      "wagon": 7033,
      "necessities": 7034,
      "embracements": 7035,
      "grossly": 7036,
      "profession": 7037,
      "directly": 7038,
      "prophecies": 7039,
      "driven": 7040,
      "fretting": 7041,
      "jacks": 7042,
      "james": 7043,
      "wonted": 7044,
      "negligent": 7045,
      "shuts": 7046,
      "advancement": 7047,
      "ballads": 7048,
      "censured": 7049,
      "election": 7050,
      "elements": 7051,
      "journ": 7052,
      "numbering": 7053,
      "thirsty": 7054,
      "leanness": 7055,
      "conspiracy": 7056,
      "complaints": 7057,
      "apparell": 7058,
      "pursues": 7059,
      "plotted": 7060,
      "approaches": 7061,
      "cropp": 7062,
      "fashions": 7063,
      "fifty": 7064,
      "hunting": 7065,
      "smelt": 7066,
      "slide": 7067,
      "slipp": 7068,
      "turtle": 7069,
      "turks": 7070,
      "revoke": 7071,
      "vexation": 7072,
      "offenders": 7073,
      "expressly": 7074,
      "punishment": 7075,
      "lineal": 7076,
      "lineaments": 7077,
      "vanish": 7078,
      "alteration": 7079,
      "affected": 7080,
      "companions": 7081,
      "accusations": 7082,
      "suspected": 7083,
      "agreement": 7084,
      "furnished": 7085,
      "instance": 7086,
      "rosemary": 7087,
      "depth": 7088,
      "feeble": 7089,
      "posterns": 7090,
      "shunn": 7091,
      "examine": 7092,
      "figured": 7093,
      "maidenhead": 7094,
      "fishes": 7095,
      "nettle": 7096,
      "slug": 7097,
      "sainted": 7098,
      "hills": 7099,
      "disperse": 7100,
      "rescued": 7101,
      "waiting": 7102,
      "jewels": 7103,
      "instructions": 7104,
      "acquaintance": 7105,
      "bills": 7106,
      "tinent": 7107,
      "atics": 7108,
      "unjustly": 7109,
      "dissembling": 7110,
      "jointure": 7111,
      "control": 7112,
      "bridge": 7113,
      "torches": 7114,
      "neglected": 7115,
      "awful": 7116,
      "ceremony": 7117,
      "swoln": 7118,
      "article": 7119,
      "articles": 7120,
      "issues": 7121,
      "detested": 7122,
      "detestable": 7123,
      "manifested": 7124,
      "prodigy": 7125,
      "complexions": 7126,
      "heavily": 7127,
      "floods": 7128,
      "receipt": 7129,
      "reconciled": 7130,
      "culate": 7131,
      "coffers": 7132,
      "filthy": 7133,
      "lurk": 7134,
      "lurking": 7135,
      "pillars": 7136,
      "stumbled": 7137,
      "celsa": 7138,
      "assemble": 7139,
      "wealthy": 7140,
      "decree": 7141,
      "transform": 7142,
      "transgress": 7143,
      "mariner": 7144,
      "brandon": 7145,
      "brittle": 7146,
      "disguise": 7147,
      "gratis": 7148,
      "restrained": 7149,
      "embraces": 7150,
      "thankfulness": 7151,
      "beauties": 7152,
      "innocents": 7153,
      "physicians": 7154,
      "inheritance": 7155,
      "evident": 7156,
      "hatches": 7157,
      "lengthens": 7158,
      "insolent": 7159,
      "studied": 7160,
      "studies": 7161,
      "toys": 7162,
      "melted": 7163,
      "devouring": 7164,
      "collect": 7165,
      "trencher": 7166,
      "trenches": 7167,
      "exceeds": 7168,
      "affrighted": 7169,
      "trimm": 7170,
      "drooping": 7171,
      "attorneys": 7172,
      "blasts": 7173,
      "cardinal": 7174,
      "gamut": 7175,
      "session": 7176,
      "argument": 7177,
      "arguments": 7178,
      "hallowmas": 7179,
      "robbers": 7180,
      "decrees": 7181,
      "shrug": 7182,
      "bristol": 7183,
      "discreet": 7184,
      "discretion": 7185,
      "clerk": 7186,
      "clergy": 7187,
      "resemblance": 7188,
      "benefactors": 7189,
      "complices": 7190,
      "spotted": 7191,
      "crutches": 7192,
      "adulteress": 7193,
      "bulk": 7194,
      "finish": 7195,
      "jerusale": 7196,
      "linen": 7197,
      "scaped": 7198,
      "invention": 7199,
      "ensuing": 7200,
      "environed": 7201,
      "separated": 7202,
      "ingrateful": 7203,
      "requital": 7204,
      "cobham": 7205,
      "adopted": 7206,
      "butterfly": 7207,
      "unluckily": 7208,
      "congeal": 7209,
      "whipped": 7210,
      "momentary": 7211,
      "marquess": 7212,
      "spectators": 7213,
      "spectacle": 7214,
      "bawdy": 7215,
      "audience": 7216,
      "exactly": 7217,
      "sparkling": 7218,
      "montgomer": 7219,
      "insinuate": 7220,
      "afterwards": 7221,
      "subdued": 7222,
      "yesternight": 7223,
      "confederate": 7224,
      "creeping": 7225,
      "champion": 7226,
      "qualify": 7227,
      "fantastical": 7228,
      "gossips": 7229,
      "magistrate": 7230,
      "customary": 7231,
      "drowsy": 7232,
      "elected": 7233,
      "fliers": 7234,
      "latin": 7235,
      "lascivious": 7236,
      "niece": 7237,
      "smiled": 7238,
      "scourge": 7239,
      "toucheth": 7240,
      "tumult": 7241,
      "tinker": 7242,
      "threshold": 7243,
      "inveterate": 7244,
      "infringe": 7245,
      "orphans": 7246,
      "argosy": 7247,
      "sticks": 7248,
      "stubborn": 7249,
      "beetle": 7250,
      "reproach": 7251,
      "relieve": 7252,
      "fornication": 7253,
      "ribbon": 7254,
      "deformity": 7255,
      "deceased": 7256,
      "ordinance": 7257,
      "fathom": 7258,
      "mangled": 7259,
      "signories": 7260,
      "savoury": 7261,
      "indifferent": 7262,
      "ancestors": 7263,
      "officious": 7264,
      "exclaims": 7265,
      "stratagems": 7266,
      "april": 7267,
      "applause": 7268,
      "plashy": 7269,
      "reserved": 7270,
      "chivalry": 7271,
      "commodity": 7272,
      "subscribe": 7273,
      "minstrels": 7274,
      "appellant": 7275,
      "obscured": 7276,
      "interpretation": 7277,
      "christendom": 7278,
      "tarquin": 7279,
      "crosby": 7280,
      "assembly": 7281,
      "eloquence": 7282,
      "bunch": 7283,
      "bustle": 7284,
      "battery": 7285,
      "bashful": 7286,
      "dighton": 7287,
      "dastard": 7288,
      "europe": 7289,
      "future": 7290,
      "ludlow": 7291,
      "muddy": 7292,
      "nineteen": 7293,
      "russia": 7294,
      "rhyme": 7295,
      "slender": 7296,
      "ulysses": 7297,
      "vitae": 7298,
      "annoy": 7299,
      "infamy": 7300,
      "infirmity": 7301,
      "orchard": 7302,
      "endea": 7303,
      "steterat": 7304,
      "security": 7305,
      "ingratitude": 7306,
      "bewray": 7307,
      "remote": 7308,
      "whereso": 7309,
      "forsook": 7310,
      "foretell": 7311,
      "unwieldy": 7312,
      "mathematics": 7313,
      "construe": 7314,
      "homicide": 7315,
      "teeming": 7316,
      "proclaimed": 7317,
      "dissentious": 7318,
      "diseases": 7319,
      "distinctly": 7320,
      "mercury": 7321,
      "abundant": 7322,
      "afresh": 7323,
      "brethren": 7324,
      "implore": 7325,
      "effeminate": 7326,
      "traffic": 7327,
      "obdurate": 7328,
      "obsequies": 7329,
      "innocency": 7330,
      "delphos": 7331,
      "jerusalem": 7332,
      "montgomery": 7333,
      "aut": 7334,
      "aby": 7335,
      "aper": 7336,
      "ail": 7337,
      "aved": 7338,
      "awaking": 7339,
      "astery": 7340,
      "akest": 7341,
      "awaken": 7342,
      "abroach": 7343,
      "auspicious": 7344,
      "bard": 7345,
      "bum": 7346,
      "bough": 7347,
      "bars": 7348,
      "bull": 7349,
      "bted": 7350,
      "bary": 7351,
      "bended": 7352,
      "baked": 7353,
      "ctr": 7354,
      "clan": 7355,
      "chea": 7356,
      "cation": 7357,
      "cens": 7358,
      "cass": 7359,
      "chas": 7360,
      "couch": 7361,
      "crot": 7362,
      "ctable": 7363,
      "cado": 7364,
      "dit": 7365,
      "dent": 7366,
      "doff": 7367,
      "dough": 7368,
      "dates": 7369,
      "dles": 7370,
      "dpiece": 7371,
      "daff": 7372,
      "diff": 7373,
      "darts": 7374,
      "ean": 7375,
      "ece": 7376,
      "emer": 7377,
      "eats": 7378,
      "epest": 7379,
      "fou": 7380,
      "fis": 7381,
      "fay": 7382,
      "fust": 7383,
      "fry": 7384,
      "ffi": 7385,
      "fates": 7386,
      "flaw": 7387,
      "fours": 7388,
      "fined": 7389,
      "fuel": 7390,
      "faded": 7391,
      "gan": 7392,
      "glo": 7393,
      "gess": 7394,
      "gil": 7395,
      "ghast": 7396,
      "gance": 7397,
      "gab": 7398,
      "gery": 7399,
      "gments": 7400,
      "gger": 7401,
      "glean": 7402,
      "gnable": 7403,
      "han": 7404,
      "hin": 7405,
      "hon": 7406,
      "hent": 7407,
      "hates": 7408,
      "hugh": 7409,
      "ix": 7410,
      "ili": 7411,
      "iable": 7412,
      "igree": 7413,
      "jor": 7414,
      "jay": 7415,
      "jum": 7416,
      "jars": 7417,
      "jades": 7418,
      "kates": 7419,
      "lone": 7420,
      "lure": 7421,
      "lars": 7422,
      "lull": 7423,
      "latter": 7424,
      "lines": 7425,
      "lump": 7426,
      "mple": 7427,
      "mpa": 7428,
      "mson": 7429,
      "mass": 7430,
      "mbl": 7431,
      "mps": 7432,
      "mits": 7433,
      "mured": 7434,
      "msey": 7435,
      "minable": 7436,
      "nard": 7437,
      "nity": 7438,
      "nings": 7439,
      "nation": 7440,
      "nations": 7441,
      "och": 7442,
      "oly": 7443,
      "oil": 7444,
      "oty": 7445,
      "osing": 7446,
      "owest": 7447,
      "pse": 7448,
      "pod": 7449,
      "pher": 7450,
      "pper": 7451,
      "pout": 7452,
      "pinc": 7453,
      "pang": 7454,
      "pies": 7455,
      "punk": 7456,
      "pump": 7457,
      "range": 7458,
      "rang": 7459,
      "rite": 7460,
      "rene": 7461,
      "rounds": 7462,
      "sne": 7463,
      "sher": 7464,
      "sci": 7465,
      "scor": 7466,
      "swer": 7467,
      "ssed": 7468,
      "squar": 7469,
      "smock": 7470,
      "sways": 7471,
      "switch": 7472,
      "squire": 7473,
      "slower": 7474,
      "swan": 7475,
      "snar": 7476,
      "tet": 7477,
      "tly": 7478,
      "tant": 7479,
      "tough": 7480,
      "twis": 7481,
      "twin": 7482,
      "tore": 7483,
      "twof": 7484,
      "tug": 7485,
      "twink": 7486,
      "taming": 7487,
      "ugs": 7488,
      "uries": 7489,
      "ucali": 7490,
      "uiced": 7491,
      "vou": 7492,
      "vall": 7493,
      "vius": 7494,
      "vag": 7495,
      "vince": 7496,
      "vors": 7497,
      "varri": 7498,
      "wers": 7499,
      "whelp": 7500,
      "waded": 7501,
      "xor": 7502,
      "xander": 7503,
      "yers": 7504,
      "yvors": 7505,
      "zie": 7506,
      "thar": 7507,
      "thra": 7508,
      "thim": 7509,
      "thic": 7510,
      "thigh": 7511,
      "thaw": 7512,
      "outrun": 7513,
      "anth": 7514,
      "eral": 7515,
      "erness": 7516,
      "erbear": 7517,
      "ertain": 7518,
      "erpast": 7519,
      "ercharged": 7520,
      "ershades": 7521,
      "erpillars": 7522,
      "init": 7523,
      "infe": 7524,
      "inct": 7525,
      "infi": 7526,
      "inside": 7527,
      "inforced": 7528,
      "inhuman": 7529,
      "invest": 7530,
      "inquired": 7531,
      "index": 7532,
      "incaged": 7533,
      "incorpor": 7534,
      "infallible": 7535,
      "orb": 7536,
      "oro": 7537,
      "orange": 7538,
      "orison": 7539,
      "orators": 7540,
      "oratory": 7541,
      "enor": 7542,
      "ensign": 7543,
      "enious": 7544,
      "enched": 7545,
      "ensible": 7546,
      "envied": 7547,
      "encompass": 7548,
      "encamp": 7549,
      "encounters": 7550,
      "enzie": 7551,
      "arro": 7552,
      "ared": 7553,
      "argu": 7554,
      "argi": 7555,
      "armies": 7556,
      "arith": 7557,
      "argued": 7558,
      "arraign": 7559,
      "ism": 7560,
      "isans": 7561,
      "isheth": 7562,
      "andon": 7563,
      "atrice": 7564,
      "atiate": 7565,
      "stings": 7566,
      "station": 7567,
      "states": 7568,
      "stair": 7569,
      "stinted": 7570,
      "stitch": 7571,
      "stacles": 7572,
      "stoned": 7573,
      "stumbling": 7574,
      "staves": 7575,
      "stake": 7576,
      "lls": 7577,
      "llist": 7578,
      "llables": 7579,
      "tot": 7580,
      "toise": 7581,
      "topping": 7582,
      "tokens": 7583,
      "tossed": 7584,
      "mea": 7585,
      "meats": 7586,
      "meek": 7587,
      "member": 7588,
      "metic": 7589,
      "ese": 7590,
      "novice": 7591,
      "nobody": 7592,
      "noisome": 7593,
      "hal": 7594,
      "hay": 7595,
      "hack": 7596,
      "hacket": 7597,
      "haunts": 7598,
      "habi": 7599,
      "sect": 7600,
      "seque": 7601,
      "secut": 7602,
      "seph": 7603,
      "seats": 7604,
      "seeds": 7605,
      "ingenious": 7606,
      "heath": 7607,
      "hewn": 7608,
      "heated": 7609,
      "leaf": 7610,
      "leash": 7611,
      "lethar": 7612,
      "beit": 7613,
      "beck": 7614,
      "beque": 7615,
      "betake": 7616,
      "beguil": 7617,
      "befell": 7618,
      "betid": 7619,
      "beheaded": 7620,
      "rec": 7621,
      "reth": 7622,
      "reve": 7623,
      "reli": 7624,
      "regent": 7625,
      "redi": 7626,
      "repl": 7627,
      "repre": 7628,
      "reins": 7629,
      "refer": 7630,
      "recomfort": 7631,
      "remit": 7632,
      "recount": 7633,
      "retail": 7634,
      "refresh": 7635,
      "reduce": 7636,
      "relig": 7637,
      "recoil": 7638,
      "wive": 7639,
      "whist": 7640,
      "vein": 7641,
      "itle": 7642,
      "itary": 7643,
      "ittering": 7644,
      "chin": 7645,
      "chion": 7646,
      "chatter": 7647,
      "channe": 7648,
      "chants": 7649,
      "choked": 7650,
      "roe": 7651,
      "robe": 7652,
      "roger": 7653,
      "roots": 7654,
      "robert": 7655,
      "fork": 7656,
      "foren": 7657,
      "forsa": 7658,
      "forged": 7659,
      "forges": 7660,
      "forswore": 7661,
      "forfeits": 7662,
      "forfend": 7663,
      "ceives": 7664,
      "asp": 7665,
      "asks": 7666,
      "asunder": 7667,
      "assign": 7668,
      "assail": 7669,
      "associ": 7670,
      "lix": 7671,
      "lime": 7672,
      "liby": 7673,
      "lict": 7674,
      "libr": 7675,
      "lical": 7676,
      "limed": 7677,
      "liments": 7678,
      "lids": 7679,
      "educ": 7680,
      "irons": 7681,
      "wean": 7682,
      "weeks": 7683,
      "erel": 7684,
      "ereth": 7685,
      "ldst": 7686,
      "lding": 7687,
      "utish": 7688,
      "utters": 7689,
      "notable": 7690,
      "user": 7691,
      "ushed": 7692,
      "rider": 7693,
      "rides": 7694,
      "rift": 7695,
      "riot": 7696,
      "ribs": 7697,
      "ripest": 7698,
      "deity": 7699,
      "deign": 7700,
      "deem": 7701,
      "detain": 7702,
      "decess": 7703,
      "dels": 7704,
      "demes": 7705,
      "defaced": 7706,
      "deformed": 7707,
      "deucali": 7708,
      "lop": 7709,
      "lope": 7710,
      "losing": 7711,
      "logs": 7712,
      "lowest": 7713,
      "logy": 7714,
      "logic": 7715,
      "lolling": 7716,
      "logger": 7717,
      "withholds": 7718,
      "sop": 7719,
      "sops": 7720,
      "sojourn": 7721,
      "entine": 7722,
      "entation": 7723,
      "entail": 7724,
      "coy": 7725,
      "cote": 7726,
      "coven": 7727,
      "copest": 7728,
      "covet": 7729,
      "copy": 7730,
      "codpiece": 7731,
      "hilt": 7732,
      "hips": 7733,
      "hidden": 7734,
      "owed": 7735,
      "owls": 7736,
      "ourisheth": 7737,
      "alus": 7738,
      "albion": 7739,
      "etry": 7740,
      "admon": 7741,
      "adjudged": 7742,
      "admits": 7743,
      "hiss": 7744,
      "unro": 7745,
      "unking": 7746,
      "unspeak": 7747,
      "uncrown": 7748,
      "unkind": 7749,
      "unable": 7750,
      "unlaw": 7751,
      "ungracious": 7752,
      "unwise": 7753,
      "unstan": 7754,
      "unstain": 7755,
      "unrever": 7756,
      "unquiet": 7757,
      "unmanner": 7758,
      "unconstant": 7759,
      "unprepared": 7760,
      "unsway": 7761,
      "unadvised": 7762,
      "untaught": 7763,
      "unwillingly": 7764,
      "unwholesome": 7765,
      "unmerit": 7766,
      "unapt": 7767,
      "unfelt": 7768,
      "unsettled": 7769,
      "unfurnish": 7770,
      "unpitied": 7771,
      "unhallow": 7772,
      "unfortunate": 7773,
      "unreasonable": 7774,
      "unbuckle": 7775,
      "ungrateful": 7776,
      "unparallel": 7777,
      "unbruised": 7778,
      "unskil": 7779,
      "unwonted": 7780,
      "unsuspected": 7781,
      "unthankfulness": 7782,
      "unsavoury": 7783,
      "dole": 7784,
      "doers": 7785,
      "dotard": 7786,
      "doctors": 7787,
      "doctr": 7788,
      "urer": 7789,
      "urre": 7790,
      "ural": 7791,
      "rase": 7792,
      "rakes": 7793,
      "raught": 7794,
      "rags": 7795,
      "raising": 7796,
      "mam": 7797,
      "maw": 7798,
      "magn": 7799,
      "mament": 7800,
      "macy": 7801,
      "maculate": 7802,
      "kingdoms": 7803,
      "orders": 7804,
      "odils": 7805,
      "pew": 7806,
      "peth": 7807,
      "pelting": 7808,
      "pective": 7809,
      "amour": 7810,
      "amoun": 7811,
      "ample": 7812,
      "ampt": 7813,
      "ambling": 7814,
      "felon": 7815,
      "verns": 7816,
      "veriest": 7817,
      "verified": 7818,
      "shaft": 7819,
      "shaken": 7820,
      "oneous": 7821,
      "tithe": 7822,
      "tile": 7823,
      "tiers": 7824,
      "tiful": 7825,
      "tiply": 7826,
      "tickle": 7827,
      "tigers": 7828,
      "timorous": 7829,
      "willow": 7830,
      "geth": 7831,
      "geon": 7832,
      "geese": 7833,
      "fade": 7834,
      "famed": 7835,
      "neth": 7836,
      "nell": 7837,
      "necks": 7838,
      "nels": 7839,
      "neapo": 7840,
      "nephe": 7841,
      "mans": 7842,
      "manors": 7843,
      "mansion": 7844,
      "heres": 7845,
      "lable": 7846,
      "lawn": 7847,
      "labours": 7848,
      "tast": 7849,
      "tape": 7850,
      "tage": 7851,
      "tables": 7852,
      "tabour": 7853,
      "tails": 7854,
      "taff": 7855,
      "tackle": 7856,
      "prone": 7857,
      "prud": 7858,
      "pratest": 7859,
      "princi": 7860,
      "proro": 7861,
      "prenzie": 7862,
      "sums": 7863,
      "sustain": 7864,
      "ifs": 7865,
      "pots": 7866,
      "poise": 7867,
      "poten": 7868,
      "polit": 7869,
      "pocr": 7870,
      "poets": 7871,
      "postern": 7872,
      "popul": 7873,
      "poetry": 7874,
      "conn": 7875,
      "conject": 7876,
      "conceived": 7877,
      "contains": 7878,
      "contag": 7879,
      "conspire": 7880,
      "constrains": 7881,
      "trum": 7882,
      "ending": 7883,
      "enders": 7884,
      "endless": 7885,
      "shy": 7886,
      "shrun": 7887,
      "morant": 7888,
      "moralize": 7889,
      "upbra": 7890,
      "upholds": 7891,
      "upturned": 7892,
      "uphin": 7893,
      "whipping": 7894,
      "cakes": 7895,
      "cavil": 7896,
      "causer": 7897,
      "bos": 7898,
      "boat": 7899,
      "boss": 7900,
      "hob": 7901,
      "holl": 7902,
      "hose": 7903,
      "hover": 7904,
      "holla": 7905,
      "holes": 7906,
      "holloa": 7907,
      "mocks": 7908,
      "motive": 7909,
      "letting": 7910,
      "sheer": 7911,
      "sheath": 7912,
      "shelves": 7913,
      "text": 7914,
      "sip": 7915,
      "size": 7916,
      "therea": 7917,
      "therewithal": 7918,
      "duck": 7919,
      "dugs": 7920,
      "dump": 7921,
      "dulous": 7922,
      "dumps": 7923,
      "proves": 7924,
      "prolong": 7925,
      "propose": 7926,
      "project": 7927,
      "probation": 7928,
      "progress": 7929,
      "provision": 7930,
      "procures": 7931,
      "prolix": 7932,
      "peruse": 7933,
      "pertain": 7934,
      "perfid": 7935,
      "perfu": 7936,
      "performed": 7937,
      "pertinent": 7938,
      "perceives": 7939,
      "washed": 7940,
      "hereof": 7941,
      "heretic": 7942,
      "thankings": 7943,
      "inexor": 7944,
      "aths": 7945,
      "athwart": 7946,
      "moreover": 7947,
      "umn": 7948,
      "compa": 7949,
      "compet": 7950,
      "ulous": 7951,
      "bleared": 7952,
      "venus": 7953,
      "venuto": 7954,
      "rows": 7955,
      "canor": 7956,
      "canon": 7957,
      "cancell": 7958,
      "cannon": 7959,
      "cannibal": 7960,
      "menace": 7961,
      "howsoever": 7962,
      "outside": 7963,
      "saves": 7964,
      "sacre": 7965,
      "savours": 7966,
      "working": 7967,
      "worcester": 7968,
      "loveth": 7969,
      "lovelier": 7970,
      "brood": 7971,
      "broil": 7972,
      "brooch": 7973,
      "indust": 7974,
      "indign": 7975,
      "indict": 7976,
      "iless": 7977,
      "ilities": 7978,
      "ctures": 7979,
      "richer": 7980,
      "wool": 7981,
      "glance": 7982,
      "glittering": 7983,
      "warp": 7984,
      "agon": 7985,
      "whereat": 7986,
      "wherewith": 7987,
      "specially": 7988,
      "baits": 7989,
      "baited": 7990,
      "baleful": 7991,
      "babies": 7992,
      "foison": 7993,
      "forego": 7994,
      "forefather": 7995,
      "foremost": 7996,
      "forewarn": 7997,
      "okes": 7998,
      "voy": 7999,
      "void": 8000,
      "firmament": 8001,
      "makest": 8002,
      "frivol": 8003,
      "ucas": 8004,
      "ucking": 8005,
      "paced": 8006,
      "packing": 8007,
      "quent": 8008,
      "quish": 8009,
      "quond": 8010,
      "quaff": 8011,
      "brats": 8012,
      "brutish": 8013,
      "graver": 8014,
      "gramer": 8015,
      "grains": 8016,
      "grapes": 8017,
      "gravity": 8018,
      "earn": 8019,
      "earls": 8020,
      "derous": 8021,
      "derick": 8022,
      "aub": 8023,
      "augment": 8024,
      "cible": 8025,
      "cipit": 8026,
      "ciency": 8027,
      "cipher": 8028,
      "via": 8029,
      "viand": 8030,
      "vily": 8031,
      "viper": 8032,
      "vials": 8033,
      "vizard": 8034,
      "dissen": 8035,
      "disgracious": 8036,
      "disclaim": 8037,
      "discred": 8038,
      "disposit": 8039,
      "disobedience": 8040,
      "disobedient": 8041,
      "disposing": 8042,
      "distribut": 8043,
      "discourses": 8044,
      "distance": 8045,
      "distaff": 8046,
      "coral": 8047,
      "corpse": 8048,
      "cormorant": 8049,
      "hastily": 8050,
      "tying": 8051,
      "type": 8052,
      "gentleness": 8053,
      "mise": 8054,
      "mises": 8055,
      "misled": 8056,
      "misused": 8057,
      "misadventure": 8058,
      "missive": 8059,
      "incertain": 8060,
      "serp": 8061,
      "server": 8062,
      "servile": 8063,
      "merited": 8064,
      "navy": 8065,
      "gentlewomen": 8066,
      "exem": 8067,
      "extra": 8068,
      "excus": 8069,
      "exposed": 8070,
      "extol": 8071,
      "exiled": 8072,
      "extemp": 8073,
      "extir": 8074,
      "yorkshire": 8075,
      "span": 8076,
      "sphere": 8077,
      "spill": 8078,
      "fulness": 8079,
      "fulfil": 8080,
      "handled": 8081,
      "lances": 8082,
      "hearers": 8083,
      "hearken": 8084,
      "hearkens": 8085,
      "heaved": 8086,
      "heaps": 8087,
      "monday": 8088,
      "monies": 8089,
      "monastery": 8090,
      "clutch": 8091,
      "clusters": 8092,
      "lessen": 8093,
      "lessons": 8094,
      "abound": 8095,
      "abond": 8096,
      "abject": 8097,
      "abstin": 8098,
      "abortive": 8099,
      "abandon": 8100,
      "jog": 8101,
      "jolly": 8102,
      "joseph": 8103,
      "strings": 8104,
      "gloucestershire": 8105,
      "dial": 8106,
      "digg": 8107,
      "berate": 8108,
      "desperation": 8109,
      "gnar": 8110,
      "grin": 8111,
      "gray": 8112,
      "grind": 8113,
      "grud": 8114,
      "grudge": 8115,
      "afire": 8116,
      "affiance": 8117,
      "affable": 8118,
      "breach": 8119,
      "breton": 8120,
      "breeder": 8121,
      "bloods": 8122,
      "judi": 8123,
      "counts": 8124,
      "ache": 8125,
      "acre": 8126,
      "active": 8127,
      "accompan": 8128,
      "accounted": 8129,
      "eys": 8130,
      "anything": 8131,
      "aph": 8132,
      "apes": 8133,
      "apish": 8134,
      "apple": 8135,
      "approve": 8136,
      "standers": 8137,
      "standards": 8138,
      "ims": 8139,
      "impre": 8140,
      "impart": 8141,
      "impri": 8142,
      "impi": 8143,
      "impos": 8144,
      "impartial": 8145,
      "immoder": 8146,
      "immaculate": 8147,
      "praying": 8148,
      "prayed": 8149,
      "pler": 8150,
      "plus": 8151,
      "plun": 8152,
      "plume": 8153,
      "plucking": 8154,
      "lucy": 8155,
      "prefix": 8156,
      "predomin": 8157,
      "predecess": 8158,
      "precipit": 8159,
      "ize": 8160,
      "answers": 8161,
      "honourably": 8162,
      "oppress": 8163,
      "opport": 8164,
      "ics": 8165,
      "iction": 8166,
      "plaster": 8167,
      "plagues": 8168,
      "plagued": 8169,
      "namely": 8170,
      "sweeten": 8171,
      "sweeting": 8172,
      "mix": 8173,
      "mixture": 8174,
      "partisans": 8175,
      "gary": 8176,
      "garish": 8177,
      "garlands": 8178,
      "headlong": 8179,
      "setter": 8180,
      "resides": 8181,
      "respite": 8182,
      "respective": 8183,
      "hammer": 8184,
      "parks": 8185,
      "parley": 8186,
      "parcels": 8187,
      "paragon": 8188,
      "prig": 8189,
      "prized": 8190,
      "pricking": 8191,
      "privily": 8192,
      "filed": 8193,
      "julietta": 8194,
      "flout": 8195,
      "flung": 8196,
      "cuts": 8197,
      "assisted": 8198,
      "seconds": 8199,
      "resting": 8200,
      "restless": 8201,
      "restore": 8202,
      "graceful": 8203,
      "graceless": 8204,
      "ased": 8205,
      "putation": 8206,
      "madmen": 8207,
      "blish": 8208,
      "blench": 8209,
      "blub": 8210,
      "eff": 8211,
      "staying": 8212,
      "presage": 8213,
      "cloy": 8214,
      "cloven": 8215,
      "closet": 8216,
      "cloister": 8217,
      "guides": 8218,
      "guile": 8219,
      "retort": 8220,
      "brach": 8221,
      "brake": 8222,
      "braving": 8223,
      "brags": 8224,
      "cities": 8225,
      "cheat": 8226,
      "chets": 8227,
      "cheated": 8228,
      "chequer": 8229,
      "gale": 8230,
      "gawd": 8231,
      "gazing": 8232,
      "rightful": 8233,
      "righteous": 8234,
      "tribe": 8235,
      "tribes": 8236,
      "trivial": 8237,
      "trident": 8238,
      "atches": 8239,
      "eyesight": 8240,
      "childhood": 8241,
      "evening": 8242,
      "track": 8243,
      "trained": 8244,
      "trample": 8245,
      "begs": 8246,
      "insensible": 8247,
      "insatiate": 8248,
      "insurre": 8249,
      "scent": 8250,
      "scoff": 8251,
      "tenth": 8252,
      "tenor": 8253,
      "treads": 8254,
      "nothings": 8255,
      "clapp": 8256,
      "claps": 8257,
      "llable": 8258,
      "lightens": 8259,
      "gripe": 8260,
      "litan": 8261,
      "talks": 8262,
      "betters": 8263,
      "bettering": 8264,
      "kindle": 8265,
      "banns": 8266,
      "clime": 8267,
      "tongued": 8268,
      "sicils": 8269,
      "cambric": 8270,
      "horns": 8271,
      "twos": 8272,
      "understood": 8273,
      "undertaking": 8274,
      "cypress": 8275,
      "cytherea": 8276,
      "ivy": 8277,
      "ivity": 8278,
      "engine": 8279,
      "engage": 8280,
      "engenders": 8281,
      "fron": 8282,
      "bestir": 8283,
      "bestrid": 8284,
      "bestrew": 8285,
      "murderers": 8286,
      "sleeve": 8287,
      "sleeves": 8288,
      "farmer": 8289,
      "slaught": 8290,
      "slavish": 8291,
      "meanest": 8292,
      "purg": 8293,
      "purity": 8294,
      "purblind": 8295,
      "uneasy": 8296,
      "charter": 8297,
      "subs": 8298,
      "submit": 8299,
      "pardoning": 8300,
      "justices": 8301,
      "justified": 8302,
      "happen": 8303,
      "denies": 8304,
      "denier": 8305,
      "tended": 8306,
      "lawless": 8307,
      "lawyers": 8308,
      "volumes": 8309,
      "highly": 8310,
      "curb": 8311,
      "cursing": 8312,
      "curfew": 8313,
      "curtains": 8314,
      "curds": 8315,
      "dregs": 8316,
      "nativity": 8317,
      "needed": 8318,
      "drench": 8319,
      "drudge": 8320,
      "drugs": 8321,
      "carver": 8322,
      "carpet": 8323,
      "carouse": 8324,
      "carved": 8325,
      "carbon": 8326,
      "carters": 8327,
      "carriage": 8328,
      "carcass": 8329,
      "waist": 8330,
      "confis": 8331,
      "confine": 8332,
      "confident": 8333,
      "confessed": 8334,
      "conflict": 8335,
      "follower": 8336,
      "followed": 8337,
      "complot": 8338,
      "complots": 8339,
      "balance": 8340,
      "bodied": 8341,
      "fellowship": 8342,
      "pomphe": 8343,
      "husbandry": 8344,
      "steer": 8345,
      "stealth": 8346,
      "drag": 8347,
      "drain": 8348,
      "nichol": 8349,
      "nicanor": 8350,
      "lasts": 8351,
      "lastly": 8352,
      "everything": 8353,
      "shameful": 8354,
      "helped": 8355,
      "servitor": 8356,
      "overta": 8357,
      "overboard": 8358,
      "intoler": 8359,
      "accent": 8360,
      "accents": 8361,
      "welcomed": 8362,
      "sunset": 8363,
      "falter": 8364,
      "falchion": 8365,
      "abouts": 8366,
      "brick": 8367,
      "briers": 8368,
      "bridle": 8369,
      "fertile": 8370,
      "witless": 8371,
      "northampt": 8372,
      "jests": 8373,
      "answering": 8374,
      "answered": 8375,
      "strip": 8376,
      "strives": 8377,
      "striving": 8378,
      "strikes": 8379,
      "strifes": 8380,
      "stripling": 8381,
      "meets": 8382,
      "renounce": 8383,
      "stately": 8384,
      "choosing": 8385,
      "signified": 8386,
      "bubble": 8387,
      "rub": 8388,
      "rubs": 8389,
      "rubb": 8390,
      "ruffi": 8391,
      "fiddler": 8392,
      "eyebrows": 8393,
      "playfellow": 8394,
      "proveth": 8395,
      "pith": 8396,
      "pious": 8397,
      "pipes": 8398,
      "pictures": 8399,
      "hitherward": 8400,
      "foolery": 8401,
      "doubts": 8402,
      "doublets": 8403,
      "sounding": 8404,
      "sedition": 8405,
      "sedges": 8406,
      "formal": 8407,
      "formally": 8408,
      "minion": 8409,
      "passado": 8410,
      "cracks": 8411,
      "crazed": 8412,
      "crafts": 8413,
      "phrase": 8414,
      "relate": 8415,
      "hangmen": 8416,
      "visits": 8417,
      "visible": 8418,
      "career": 8419,
      "carefully": 8420,
      "ireful": 8421,
      "surety": 8422,
      "bitterest": 8423,
      "bower": 8424,
      "vaunt": 8425,
      "wiser": 8426,
      "wisdoms": 8427,
      "straining": 8428,
      "medlar": 8429,
      "spoiled": 8430,
      "dreaming": 8431,
      "revenues": 8432,
      "shepherdess": 8433,
      "truths": 8434,
      "chaplain": 8435,
      "chaos": 8436,
      "chapel": 8437,
      "wantons": 8438,
      "windy": 8439,
      "readiest": 8440,
      "igate": 8441,
      "iously": 8442,
      "commonly": 8443,
      "groats": 8444,
      "humours": 8445,
      "beaver": 8446,
      "unclean": 8447,
      "proudly": 8448,
      "footed": 8449,
      "appeach": 8450,
      "horseman": 8451,
      "fitly": 8452,
      "fitness": 8453,
      "furred": 8454,
      "furlongs": 8455,
      "furthest": 8456,
      "winning": 8457,
      "honestly": 8458,
      "miracle": 8459,
      "pedigree": 8460,
      "singing": 8461,
      "singly": 8462,
      "singled": 8463,
      "delicious": 8464,
      "delivers": 8465,
      "deliberate": 8466,
      "plainness": 8467,
      "throughout": 8468,
      "crystal": 8469,
      "tendering": 8470,
      "generation": 8471,
      "generally": 8472,
      "credulous": 8473,
      "flying": 8474,
      "hungary": 8475,
      "rung": 8476,
      "runn": 8477,
      "running": 8478,
      "runagate": 8479,
      "sinful": 8480,
      "destined": 8481,
      "destinies": 8482,
      "larum": 8483,
      "largess": 8484,
      "suffolk": 8485,
      "pointed": 8486,
      "personally": 8487,
      "greyhound": 8488,
      "greyhounds": 8489,
      "reports": 8490,
      "bating": 8491,
      "hardening": 8492,
      "supposing": 8493,
      "supposes": 8494,
      "promises": 8495,
      "warranted": 8496,
      "florence": 8497,
      "fetter": 8498,
      "nearness": 8499,
      "trusted": 8500,
      "purposed": 8501,
      "foundation": 8502,
      "antipod": 8503,
      "wearied": 8504,
      "wearisome": 8505,
      "deflower": 8506,
      "definit": 8507,
      "corns": 8508,
      "beholders": 8509,
      "fasts": 8510,
      "fasten": 8511,
      "blowing": 8512,
      "massacre": 8513,
      "posture": 8514,
      "openly": 8515,
      "bourn": 8516,
      "surcease": 8517,
      "surprise": 8518,
      "surfeits": 8519,
      "surplus": 8520,
      "entreats": 8521,
      "worthless": 8522,
      "judas": 8523,
      "bounds": 8524,
      "boundless": 8525,
      "dishonest": 8526,
      "wooer": 8527,
      "twigs": 8528,
      "wedlock": 8529,
      "ordered": 8530,
      "executing": 8531,
      "grants": 8532,
      "acted": 8533,
      "crupper": 8534,
      "drove": 8535,
      "dropping": 8536,
      "attending": 8537,
      "attendance": 8538,
      "attendants": 8539,
      "feels": 8540,
      "sucking": 8541,
      "moveable": 8542,
      "speeds": 8543,
      "speeding": 8544,
      "abominable": 8545,
      "gains": 8546,
      "gainsay": 8547,
      "penet": 8548,
      "pensive": 8549,
      "penalty": 8550,
      "guiltier": 8551,
      "fields": 8552,
      "salve": 8553,
      "trot": 8554,
      "trodden": 8555,
      "counterpoised": 8556,
      "observ": 8557,
      "observe": 8558,
      "observed": 8559,
      "obstin": 8560,
      "obstacles": 8561,
      "tortoise": 8562,
      "mettle": 8563,
      "prettily": 8564,
      "flattery": 8565,
      "barne": 8566,
      "barber": 8567,
      "barbed": 8568,
      "barbary": 8569,
      "damask": 8570,
      "ladder": 8571,
      "covering": 8572,
      "testy": 8573,
      "testify": 8574,
      "bravely": 8575,
      "flocks": 8576,
      "pieced": 8577,
      "mortals": 8578,
      "cheering": 8579,
      "cricket": 8580,
      "crimson": 8581,
      "thrives": 8582,
      "thriving": 8583,
      "thrift": 8584,
      "italian": 8585,
      "perdition": 8586,
      "strengths": 8587,
      "divides": 8588,
      "divining": 8589,
      "forgetfulness": 8590,
      "gavest": 8591,
      "credent": 8592,
      "harmful": 8593,
      "usurped": 8594,
      "eternity": 8595,
      "consents": 8596,
      "consenting": 8597,
      "marches": 8598,
      "blacker": 8599,
      "certainty": 8600,
      "certainties": 8601,
      "cured": 8602,
      "pities": 8603,
      "sprang": 8604,
      "sprung": 8605,
      "violets": 8606,
      "violable": 8607,
      "weaker": 8608,
      "cases": 8609,
      "casque": 8610,
      "skies": 8611,
      "interr": 8612,
      "interior": 8613,
      "intercept": 8614,
      "proceeds": 8615,
      "proceeded": 8616,
      "basely": 8617,
      "writes": 8618,
      "paying": 8619,
      "payment": 8620,
      "risen": 8621,
      "unknit": 8622,
      "denying": 8623,
      "battlements": 8624,
      "dangerously": 8625,
      "quarrels": 8626,
      "fraught": 8627,
      "images": 8628,
      "knack": 8629,
      "palmers": 8630,
      "palsied": 8631,
      "forwardness": 8632,
      "westward": 8633,
      "sighing": 8634,
      "greek": 8635,
      "vilely": 8636,
      "victor": 8637,
      "victors": 8638,
      "scarf": 8639,
      "scared": 8640,
      "possessions": 8641,
      "bisson": 8642,
      "galled": 8643,
      "cedar": 8644,
      "keepers": 8645,
      "washing": 8646,
      "respecting": 8647,
      "dreaded": 8648,
      "musical": 8649,
      "cupboard": 8650,
      "cupbearer": 8651,
      "dawn": 8652,
      "daunt": 8653,
      "dames": 8654,
      "dauphin": 8655,
      "hypocr": 8656,
      "hurry": 8657,
      "hurts": 8658,
      "ostentation": 8659,
      "stained": 8660,
      "reversion": 8661,
      "coloured": 8662,
      "naturally": 8663,
      "lamented": 8664,
      "successes": 8665,
      "successively": 8666,
      "churl": 8667,
      "crosses": 8668,
      "crossing": 8669,
      "ethio": 8670,
      "easier": 8671,
      "matching": 8672,
      "spawn": 8673,
      "spacious": 8674,
      "cowards": 8675,
      "tilth": 8676,
      "favourites": 8677,
      "condemns": 8678,
      "abhorred": 8679,
      "apology": 8680,
      "million": 8681,
      "millstones": 8682,
      "passages": 8683,
      "tutors": 8684,
      "stored": 8685,
      "stories": 8686,
      "licence": 8687,
      "departing": 8688,
      "departed": 8689,
      "willingness": 8690,
      "tailors": 8691,
      "quietly": 8692,
      "quietness": 8693,
      "obeys": 8694,
      "eased": 8695,
      "finest": 8696,
      "finely": 8697,
      "hapless": 8698,
      "seals": 8699,
      "ridges": 8700,
      "riddle": 8701,
      "riddling": 8702,
      "ghosts": 8703,
      "adds": 8704,
      "addition": 8705,
      "conceives": 8706,
      "conceiving": 8707,
      "province": 8708,
      "provokes": 8709,
      "milder": 8710,
      "guards": 8711,
      "bracelet": 8712,
      "dishonours": 8713,
      "dishonourable": 8714,
      "violation": 8715,
      "barnet": 8716,
      "lectures": 8717,
      "wilderness": 8718,
      "shoe": 8719,
      "proclaims": 8720,
      "extremities": 8721,
      "commendable": 8722,
      "birthright": 8723,
      "kindest": 8724,
      "mutual": 8725,
      "mutton": 8726,
      "mountains": 8727,
      "sympa": 8728,
      "syllables": 8729,
      "syllable": 8730,
      "leisurely": 8731,
      "wombs": 8732,
      "spurr": 8733,
      "continent": 8734,
      "continency": 8735,
      "alexander": 8736,
      "danced": 8737,
      "hating": 8738,
      "kersey": 8739,
      "kernels": 8740,
      "remaining": 8741,
      "dooms": 8742,
      "sportful": 8743,
      "drowned": 8744,
      "sorted": 8745,
      "target": 8746,
      "enjoying": 8747,
      "mannerly": 8748,
      "pageant": 8749,
      "despairing": 8750,
      "planted": 8751,
      "clamations": 8752,
      "strucken": 8753,
      "blushes": 8754,
      "wretches": 8755,
      "schoolmasters": 8756,
      "schoolboys": 8757,
      "mourner": 8758,
      "vouches": 8759,
      "topmast": 8760,
      "hairs": 8761,
      "allowed": 8762,
      "laughing": 8763,
      "contrar": 8764,
      "capel": 8765,
      "sailor": 8766,
      "during": 8767,
      "durance": 8768,
      "duellist": 8769,
      "hugg": 8770,
      "humorous": 8771,
      "wrapt": 8772,
      "arrive": 8773,
      "stables": 8774,
      "reflect": 8775,
      "uttered": 8776,
      "cockle": 8777,
      "cockatrice": 8778,
      "cockerel": 8779,
      "conveyance": 8780,
      "dullest": 8781,
      "incline": 8782,
      "inclining": 8783,
      "excused": 8784,
      "priests": 8785,
      "cruelty": 8786,
      "imagined": 8787,
      "spakest": 8788,
      "dwellest": 8789,
      "malady": 8790,
      "malcontent": 8791,
      "malaper": 8792,
      "malmsey": 8793,
      "puny": 8794,
      "punished": 8795,
      "smoke": 8796,
      "infused": 8797,
      "envying": 8798,
      "roared": 8799,
      "dealings": 8800,
      "sharper": 8801,
      "tyrants": 8802,
      "petitioners": 8803,
      "springing": 8804,
      "flap": 8805,
      "flavius": 8806,
      "wagging": 8807,
      "formerly": 8808,
      "devout": 8809,
      "necessaries": 8810,
      "conduit": 8811,
      "shrill": 8812,
      "shrieks": 8813,
      "bottle": 8814,
      "bottled": 8815,
      "despiteful": 8816,
      "countenances": 8817,
      "treading": 8818,
      "patrimony": 8819,
      "doubled": 8820,
      "professes": 8821,
      "directed": 8822,
      "directitude": 8823,
      "fingering": 8824,
      "catched": 8825,
      "caterpillars": 8826,
      "customers": 8827,
      "drive": 8828,
      "jaunt": 8829,
      "rooted": 8830,
      "wealthily": 8831,
      "negligence": 8832,
      "conquered": 8833,
      "conquerors": 8834,
      "woodcock": 8835,
      "imports": 8836,
      "importance": 8837,
      "importuned": 8838,
      "rudely": 8839,
      "circled": 8840,
      "freed": 8841,
      "frets": 8842,
      "frequent": 8843,
      "frederick": 8844,
      "information": 8845,
      "ornament": 8846,
      "rocky": 8847,
      "debate": 8848,
      "dews": 8849,
      "delightful": 8850,
      "butcheries": 8851,
      "conspirators": 8852,
      "contracted": 8853,
      "hostile": 8854,
      "complaining": 8855,
      "packthread": 8856,
      "languish": 8857,
      "acceptance": 8858,
      "preservation": 8859,
      "pursuing": 8860,
      "thrusts": 8861,
      "destroying": 8862,
      "bonds": 8863,
      "crooked": 8864,
      "puling": 8865,
      "publi": 8866,
      "rashly": 8867,
      "rashness": 8868,
      "smear": 8869,
      "inches": 8870,
      "forbearance": 8871,
      "december": 8872,
      "deceiving": 8873,
      "protectors": 8874,
      "brooks": 8875,
      "discovered": 8876,
      "excellence": 8877,
      "preys": 8878,
      "parentage": 8879,
      "currish": 8880,
      "currents": 8881,
      "instructed": 8882,
      "guiltiness": 8883,
      "conducted": 8884,
      "catching": 8885,
      "gyves": 8886,
      "purest": 8887,
      "sancti": 8888,
      "southam": 8889,
      "southward": 8890,
      "vanquish": 8891,
      "wrecked": 8892,
      "conjur": 8893,
      "conjured": 8894,
      "disdains": 8895,
      "affects": 8896,
      "affecting": 8897,
      "appointment": 8898,
      "accusers": 8899,
      "chairs": 8900,
      "groaning": 8901,
      "solemnly": 8902,
      "humane": 8903,
      "agreeing": 8904,
      "buds": 8905,
      "fleece": 8906,
      "lucky": 8907,
      "luckless": 8908,
      "pilate": 8909,
      "pilgrim": 8910,
      "swallowed": 8911,
      "instit": 8912,
      "instigation": 8913,
      "instinct": 8914,
      "redeemer": 8915,
      "repeat": 8916,
      "depends": 8917,
      "devoted": 8918,
      "adversity": 8919,
      "adversary": 8920,
      "shuns": 8921,
      "comforter": 8922,
      "examples": 8923,
      "expected": 8924,
      "maidenheads": 8925,
      "builds": 8926,
      "buildeth": 8927,
      "huntsmen": 8928,
      "profaned": 8929,
      "profanation": 8930,
      "rebellious": 8931,
      "studying": 8932,
      "knights": 8933,
      "multiply": 8934,
      "nettles": 8935,
      "pheasant": 8936,
      "slumber": 8937,
      "sluiced": 8938,
      "swells": 8939,
      "slippery": 8940,
      "tortures": 8941,
      "erroneous": 8942,
      "stretched": 8943,
      "vestal": 8944,
      "lifted": 8945,
      "greediness": 8946,
      "earnestness": 8947,
      "aptly": 8948,
      "pitchers": 8949,
      "famously": 8950,
      "increaseth": 8951,
      "bounteous": 8952,
      "bountiful": 8953,
      "funeral": 8954,
      "knots": 8955,
      "louring": 8956,
      "tino": 8957,
      "tuned": 8958,
      "costly": 8959,
      "peering": 8960,
      "peerless": 8961,
      "heralds": 8962,
      "dissembl": 8963,
      "opposers": 8964,
      "brawls": 8965,
      "controll": 8966,
      "neglecting": 8967,
      "deceitful": 8968,
      "buckler": 8969,
      "couched": 8970,
      "ctives": 8971,
      "different": 8972,
      "differences": 8973,
      "pirate": 8974,
      "rayed": 8975,
      "rusty": 8976,
      "variable": 8977,
      "artificial": 8978,
      "issuing": 8979,
      "stinging": 8980,
      "stoutness": 8981,
      "securely": 8982,
      "hests": 8983,
      "rejoicing": 8984,
      "recorded": 8985,
      "robbed": 8986,
      "robbery": 8987,
      "declined": 8988,
      "declines": 8989,
      "declining": 8990,
      "factor": 8991,
      "prodigious": 8992,
      "spreading": 8993,
      "dimm": 8994,
      "wrinkle": 8995,
      "wrinkles": 8996,
      "scandalous": 8997,
      "characters": 8998,
      "shields": 8999,
      "stomachs": 9000,
      "sufficiency": 9001,
      "substitutes": 9002,
      "smells": 9003,
      "revolted": 9004,
      "receiving": 9005,
      "baynard": 9006,
      "bags": 9007,
      "filth": 9008,
      "longeth": 9009,
      "nimbly": 9010,
      "pillow": 9011,
      "roused": 9012,
      "scathe": 9013,
      "scale": 9014,
      "haggard": 9015,
      "bells": 9016,
      "fawns": 9017,
      "superst": 9018,
      "potpan": 9019,
      "combine": 9020,
      "combined": 9021,
      "bruising": 9022,
      "brands": 9023,
      "dissolve": 9024,
      "dissolved": 9025,
      "dissolute": 9026,
      "dissolution": 9027,
      "excepting": 9028,
      "gratify": 9029,
      "gratulate": 9030,
      "estimate": 9031,
      "begetting": 9032,
      "throngs": 9033,
      "buzz": 9034,
      "carelessly": 9035,
      "succeeding": 9036,
      "succeeders": 9037,
      "frailty": 9038,
      "concealment": 9039,
      "tyrannical": 9040,
      "prophetess": 9041,
      "apprehends": 9042,
      "dateless": 9043,
      "eaves": 9044,
      "eastern": 9045,
      "eagles": 9046,
      "evidence": 9047,
      "mature": 9048,
      "mattock": 9049,
      "moulded": 9050,
      "nuts": 9051,
      "nicely": 9052,
      "publish": 9053,
      "insult": 9054,
      "arrested": 9055,
      "secrecy": 9056,
      "recreation": 9057,
      "chiefly": 9058,
      "sacrif": 9059,
      "wormwood": 9060,
      "merciless": 9061,
      "expedient": 9062,
      "monarchy": 9063,
      "affrights": 9064,
      "preferment": 9065,
      "traveller": 9066,
      "travelling": 9067,
      "scrivener": 9068,
      "cramps": 9069,
      "rankle": 9070,
      "learnedly": 9071,
      "coverture": 9072,
      "physics": 9073,
      "francisca": 9074,
      "depending": 9075,
      "afflicted": 9076,
      "bias": 9077,
      "gapes": 9078,
      "sessions": 9079,
      "vassals": 9080,
      "attainder": 9081,
      "belonging": 9082,
      "revived": 9083,
      "decreed": 9084,
      "cotus": 9085,
      "cottage": 9086,
      "admiring": 9087,
      "admiral": 9088,
      "allaying": 9089,
      "feverous": 9090,
      "supremacy": 9091,
      "suggested": 9092,
      "shouting": 9093,
      "hoarse": 9094,
      "permitted": 9095,
      "strangers": 9096,
      "strangeness": 9097,
      "immediate": 9098,
      "resembles": 9099,
      "welshman": 9100,
      "beneath": 9101,
      "compliment": 9102,
      "compounded": 9103,
      "relenting": 9104,
      "strawberries": 9105,
      "spotless": 9106,
      "divorced": 9107,
      "streams": 9108,
      "interchangeably": 9109,
      "functions": 9110,
      "christophero": 9111,
      "blank": 9112,
      "blanks": 9113,
      "culling": 9114,
      "furious": 9115,
      "fount": 9116,
      "fountain": 9117,
      "gasp": 9118,
      "gasping": 9119,
      "gusts": 9120,
      "mingle": 9121,
      "scapes": 9122,
      "wreak": 9123,
      "wreaths": 9124,
      "ensues": 9125,
      "environ": 9126,
      "staggers": 9127,
      "method": 9128,
      "cepts": 9129,
      "soothe": 9130,
      "soothing": 9131,
      "unwillingness": 9132,
      "unlucky": 9133,
      "featly": 9134,
      "tackling": 9135,
      "congealed": 9136,
      "marquis": 9137,
      "audible": 9138,
      "mischiefs": 9139,
      "sparks": 9140,
      "lingering": 9141,
      "everlastingly": 9142,
      "courtship": 9143,
      "chests": 9144,
      "embassage": 9145,
      "embassies": 9146,
      "insinuating": 9147,
      "subdues": 9148,
      "yesterday": 9149,
      "confederates": 9150,
      "patroness": 9151,
      "stewardship": 9152,
      "temporal": 9153,
      "temporiz": 9154,
      "herdsmen": 9155,
      "crabbed": 9156,
      "sufficeth": 9157,
      "champions": 9158,
      "qualified": 9159,
      "sacrificed": 9160,
      "gossip": 9161,
      "magistrates": 9162,
      "muffle": 9163,
      "muffled": 9164,
      "sinew": 9165,
      "sinews": 9166,
      "tumbled": 9167,
      "zzle": 9168,
      "zzled": 9169,
      "invite": 9170,
      "induced": 9171,
      "inhabitable": 9172,
      "encouragement": 9173,
      "enfranchisement": 9174,
      "arbitrate": 9175,
      "attentive": 9176,
      "stalls": 9177,
      "measures": 9178,
      "seduced": 9179,
      "seducing": 9180,
      "release": 9181,
      "released": 9182,
      "revolts": 9183,
      "revolving": 9184,
      "liquor": 9185,
      "liquid": 9186,
      "rivals": 9187,
      "alarums": 9188,
      "admire": 9189,
      "admired": 9190,
      "dominions": 9191,
      "amendment": 9192,
      "prank": 9193,
      "contrive": 9194,
      "contrived": 9195,
      "containing": 9196,
      "tradesmen": 9197,
      "bolted": 9198,
      "holiday": 9199,
      "holidame": 9200,
      "promotions": 9201,
      "indirect": 9202,
      "indirectly": 9203,
      "grafted": 9204,
      "distraction": 9205,
      "distraught": 9206,
      "dieted": 9207,
      "descant": 9208,
      "desiring": 9209,
      "applied": 9210,
[...]
